#version: 0.2
à ¤
à ¥
Ġ à¤
Ġ Ġ
à¤ ¾
i n
t h
à¥ į
à¤ °
o n
à¥ ĩ
Ġ a
o r
e r
à¤ Ĥ
à¤ ¿
Ġ th
a t
e s
` `
à¤ ķ
ĠĠ ĠĠ
à¤ ²
e n
Ġ s
Ġth e
Ġà¤ ķ
à¤ ¨
in g
Ġ c
r e
à¥ ĭ
Ġ f
ĠĠ Ġ
à¥ Ģ
à¤ ¸
Ġ t
à¤ ¤
l e
à¤ ª
Ġ p
i t
à¤ ¯
d e
i m
r o
a n
i on
a l
i s
. .
à¤ Ł
à¥ĩ à¤Ĥ
`` `
a r
à¤ ®
Ġà¤ ¸
Ġ o
c t
à¤ ¹
Ġ in
Ġ =
u t
Ġ m
e d
Ġà¤ ª
y th
yth on
Ġ w
Ġt o
i c
en t
u r
u s
Ġa n
à¤ Ĺ
à¥ ģ
Ġ d
Ġ Ċ
e t
a s
à¤ ¡
or t
o m
à¤ ı
ĠĠĠĠ ĠĠĠ
Ġf or
à¤ ¼
Ġ b
à¤ ¦
im p
à¤ µ
à¤ ľ
Ġ l
e l
à¤ ĩ
Ġ re
a m
u n
imp ort
c h
s t
Ġo f
à¤ ļ
Ġan d
à¥ Ī
o w
.. .
Ġ n
i l
p ython
Ġ (
Ġ P
e x
Ġ h
o de
a g
es s
Ġà¤ ¹
Ġ '
Ġà¤ ¨
i f
à¤ ¶
Ġ ```
# -
Ġ A
à¥ Ĥ
Ġ T
Ġà¤ķ à¤°
Ġà¤ ²
at ion
at e
à¤ ¬
' )
o u
e m
Ġ us
à¤ ģ
à¤ĩ à¤²
Ġà¤ «
à¤ ĥ
r a
( '
( )
o l
o t
i d
c e
u l
Ġà¤ ®
Ġ y
#- #-
Ġ g
e c
u m
a d
Ġ C
es t
à¤¼ à¤¾
r i
s e
q u
in t
Ġ I
r it
Ġc ode
à¤ £
ct ion
Ġ S
is t
Ġ de
Ġà¤ ¬
Ġs t
ro m
à¤ «
ag e
à¤ ĸ
i le
v er
Ġ D
à¤ ·
l o
i th
ĠP ython
am e
' ,
Ġ {
Ġ is
m ent
Ġà¤ °
v e
o p
à¤ ¥
Ġ `
Ġà¤ ľ
Ġa s
à¥Ģ à¤Ĥ
p p
k e
c ess
a b
Ġp ro
p t
i g
Ġ v
Ġ r
Ġy ou
i b
Ġà¤ ħ
u b
W rit
ex t
o d
Ġc on
ur n
Ġà¤ ļ
o g
t er
at a
c k
Ġà¤ µ
e a
Ġ( _
Ġà¤¨ à¤¹
Ġ on
Ġth at
an d
i r
Ġre t
Ġà¤ ¯
a y
Ġw ith
à¤ ħ
Ġà¤ ¦
) :
ĠĠĠĠ ĠĠĠĠĠĠĠ
Ġret urn
à¤ Ń
e w
as s
r int
à¤ §
el f
l y
h t
h e
p le
p ut
e ct
Ġ e
en d
im e
Ġ 1
i z
f or
p l
Ġ M
Ġ if
Ġ "
Ġ F
Ġ import
à¤ Ī
Ġ R
er s
Ġà¤ ĸ
i es
Ġc om
Ġ E
p a
o un
f rom
u e
Ġ it
Ġà¤ ĩ
à¥ĩ .
u p
/ /
c om
Ġà¤ª à¤°
Ġus ing
ea ch
p ro
ĠA I
in e
Ġ +
Ġ ex
o ur
Ġ B
Ġà¤ ı
à¤° à¤£
Ġ 2
s er
Ġc h
or d
in d
Ġa l
Ġ k
à¥ ī
c l
Ġc an
un ction
o s
d i
ar t
à¤² à¤Ĺ
à¤ Ĩ
Ġ L
Ġ U
n ame
i p
n ow
a in
y p
Ġ H
qu est
Ġw e
Ġà¤ Ĩ
i al
Ġw h
a p
ar y
Ġd ata
Ġus e
Ġ N
Writ e
for m
â Ģ
at ing
Ġb e
each er
pro cess
Ġf unction
ĠT eacher
Ġ G
ul t
p er
Ġs p
#-#- #
#-#- #-#-#
à¤ª à¤°
Ġà¤° à¤¹
Ġr es
à¤µ à¤°
Ġ Writ
Ġ W
ĠWrit ing
l ic
Ġk now
i de
it y
ke y
om e
Ġ }
' ]
Ġf ile
g et
Ġà¤ Ĺ
an g
à¤¼ à¥ĩà¤Ĥ
c on
Ġm e
Ġde f
t o
Ġà¤ ¡
ur l
Ġa pp
[ '
Ġ or
u re
à¤¾ à¤Ĥ
a il
r es
Ġs elf
y st
Ġp rint
i v
de f
oun t
ib r
er e
Ġf rom
st r
yst em
p on
Ġ O
_ _
p en
Ġ -
o ut
à¤ Ľ
Ġ le
or k
à¥ ĥ
ĠT he
à¤¯ à¤¨
à¤Ł à¤°
Ġà¤ ¤
à¤ĩ à¤¨
H ow
Ġ en
ub process
o c
f ile
al l
à¤ª à¤¯
Ġ #
r an
Ġc l
le ment
Ġl ibr
Ġm a
à¤ ł
or y
Ġm an
ĠD id
ab le
I n
Ġ #-#-#-#-#
t ext
a ck
t p
à¤ľ à¤¨
Ġ [
0 0
e p
' s
à¤ ī
ode l
Ġà¤ı à¤ķ
Ġs c
Ġn ot
u g
i ve
pa th
Ġà¤ ¶
en s
i re
l ib
r y
Ġst r
ro w
Ġpro cess
it ion
Ġp o
im age
an t
Ġa re
at es
Ġd es
p rint
at ed
Ġl ist
ation s
ic e
il l
Ġà¤ Ķ
v al
Ġa d
am ple
th od
à¤ ¢
r or
s elf
Ġb y
e ar
as e
ĠI n
th er
en er
ec k
Ġà¤Ķ à¤°
Ġa t
Ġ 0
r ess
ow n
ut om
lo ad
a c
re ate
Ġà¤ Ł
à¤° à¤¯
a ve
d ata
Ġs h
) )
Ġ V
ut ion
Ġme thod
j ect
Ġin put
Ġp l
il d
Ġà¤² à¤ķ
Ġcon t
w e
Ġsp ec
n ing
à¤²à¤Ĺ à¤ĩà¤¨
Ġà¤ ī
or e
ĠI m
ran s
Ġwe b
pt ion
à¤¼ à¥Ģ
ht tp
f f
l d
o o
u ct
: //
Ġt ime
a v
Ġ imp
Ġv al
iz e
Ġp y
ar d
on e
Ġre quest
um b
Ġn ew
i ke
t op
Ġp er
an ce
n ome
ic al
us t
Ġa r
Ġà¤¸ à¤®
Ġspec if
Ġo s
yp e
a ct
pon se
à¤¦ à¤²
ut il
o st
t e
i ent
f t
p h
i x
s on
u i
Ġman ag
y s
Ġ //
r un
Ġ j
Ġth is
t ing
Ġal l
Ġ x
Ġ 3
re ad
Ġl og
o us
Ġà¤¯ à¤¹
Ġl ike
ess age
) ;
ĠT h
k top
as k
à¤¨ à¤¹
Ġ *
Ġ un
Ġcl ass
a ce
a pp
v el
Ġà¤ Ľ
à¤Ĺ à¤²
ĠE x
' :
w ork
ur r
= '
t ime
Ġt ra
at or
ow s
Ġh i
Ġo pen
Ġà¤ħ à¤¨
Ġà¤° à¤ĸ
i ed
à¤¾ à¤ģ
Ġ up
en c
Ġp ar
ol ution
à¤¿ à¤Ĥ
Ġs e
s h
t r
el l
\ \
u al
Ġt ext
ig n
T he
Ġ= =
Ġrequest s
Ġf il
a re
Ġa c
d er
ent s
Ġ em
à¤¶ à¤¨
ar ies
o ck
w ord
Ġà¤ļ à¤¯à¤¨
Ġcom m
ig ht
Ġimp lement
http s
à¥ĭ à¤Ĥ
Ġ el
s c
Ġ <
A n
p ar
à¤« à¤²
C on
Ġa utom
Ġs ubprocess
Ġd is
p y
Ġs ystem
cl ass
c ul
'] )
ple ment
own load
u d
i ew
ĠĠĠĠ ĠĠĠĠĠĠĠĠĠĠĠ
ro l
it e
: :
a k
a ut
g e
u le
E n
à¤ķ à¤°à¤£
Ġ J
ra ct
Ġs et
à¤¤ à¤°
à¤ı à¤ķ
b o
( "
P I
à¥ Į
en ce
Ġdes ktop
Ġp re
Ġo b
Ġad d
Ġs u
l ing
Ġà¤¸ à¤ķ
Ġ qu
at ch
Ġm odel
ub lic
Ġlibr aries
( ['
Ġpro v
di o
u ild
à¤¹ à¤²
ut e
Ġs er
og ui
aut ogui
y n
et work
j ut
p ort
ver s
O N
oun d
f ig
" )
" ,
o b
jut a
as h
Ġlibr ary
r ue
à¤¨ à¤¯
ĠIm plement
re ct
de d
] )
row ser
al cul
a th
Ġn e
Ġin t
Ġ ro
Ġm od
Ġan al
Ġh e
ĠA n
Ġd at
A I
E A
t ri
Ġs olution
l ist
f er
re quest
s ubprocess
w w
as t
ang e
umb er
i a
Ġh ave
c ount
Ġà¤ª à¤¤
g nome
le d
as ed
u dio
à¥ĩà¤Ĥ .
s et
ear ch
it or
m s
à¤¯ à¤¤
rit e
Ġà¤Ĩ à¤ª
ou p
Ġh and
à¤° à¤ķ
t s
Ġmanag ing
Ġ i
Ġà¤ķ à¤®
ic h
à¥Ī à¤Ĥ
ĠC h
Ġà¤µ à¤°
urr ent
er ror
ic es
âĢ Ļ
Ġ key
Ġ image
à¥Ĥ à¤Ĥ
Ġus er
ind ows
it le
im ul
Ġw ill
oo k
l ow
ou ld
Ġapp lic
ol um
Ġch eck
Ġc reate
u th
Ġo ut
à¤Ĺ à¤°
Ġstr ing
Ġ K
Ġà¤¹ à¤Ł
à¤ģ .
ra in
Ġà¤¸ à¤¹
à¤ĩ à¤¸
Ġy our
a ke
g r
E R
Ġw as
ri ver
ri pt
us er
Ġre c
ag es
) .
s o
ri g
à¤ķ à¤²
Ġn ame
ire ct
Ġpy autogui
} ')
ion s
ar i
ab el
Ġel se
Ġper form
r ror
Ġ ext
ra y
ĠI t
com m
Ġ 5
à¤¡ à¤°
E x
ex ample
our ce
ĠTh is
EA D
Ġà¤¬ à¤¦à¤²
Ġ /
ĠC on
is s
v ice
Ġwh ich
Ġn etwork
Ġg et
m l
à¤¸ à¤Ń
v ent
is e
vel op
in al
Ġo per
Ġd o
Ġlog ic
Ġh ere
url lib
Ġà¤ Ń
ĠH EAD
Ġd i
ide o
el d
Ġre al
ĠA d
w ith
Ġ âĢ
Ġt rans
ro ot
ction s
o v
d ate
Ġd irect
Ġ Q
à¤¾ à¤ĥ
Ġin ter
Ġval ue
l er
l es
le ct
ic s
- -
Ġ 4
Ġspecif ied
t yp
à¤¸ à¤¬
à¤ª à¤¸
st art
ad d
in k
Ġà¤¸ à¤Ń
Ġres ult
b rowser
à¤ı à¤¸
à¤ļ à¤¯à¤¨
t k
a us
Ġb ased
it ial
Ġprov ide
Ġth en
à¤¸ à¤¨
k en
ar k
ar ning
Ġfil es
at ure
Ġg ener
ir st
à¤¹ à¤°
ra ph
Ġres ponse
Ġapplic ation
E rror
Ġ error
re e
Ġreturn s
à¤¸ à¤®
ur al
er y
à¤ħ à¤¨
ass word
ĠW indows
h ot
Ġa b
à¤ļ à¤¨
Ġà¤ķà¤° à¤¨
rig ht
Ġs o
Ġm y
Ġfor m
val ue
d uct
ig h
ug h
u es
à¤ķ à¤®
Ġb ut
ce ption
Ġs m
og n
T T
in put
Ġa ct
Ġthe ir
e ch
à¤ķ à¤°
op en
Ġà¤¦ à¤¹à¤²
pl ay
p re
Ġm ore
Ġm essage
Ġob ject
i o
Ġt ype
ex e
T h
à¤° à¤µ
Ġc re
is h
() :
ĠD e
lo g
on g
à¤¹ à¤Ł
ri v
i eld
at er
d f
j son
s ystem
on str
Ġc ount
Ġw ord
Ġw ork
Ġh as
n e
à¤¥ à¤¨
An juta
olum e
S et
à¤¬ à¤¦à¤²
p e
Ġ __
Ġc or
ĠS t
Ġcomm and
p o
s s
de x
p ress
Ġ' )
tr ing
) ,
m odel
à¤¨ à¤²
it ies
ar g
Ġb uild
iz ation
res ponse
el lo
ec ut
Ġ- >
En ter
d river
f il
o ve
Ġt est
Ġus ed
ap i
Ġp ublic
ys is
a ch
g ed
Ġ $
ĠL ist
Ġc urrent
à¥ģ à¤ģ
Ġà¤¬ à¤¨
Ġprovide d
ĠI f
lo ck
v ir
w are
at ter
en g
un d
R e
Ġo ther
Ġst ate
Ġc ol
Ġin to
Ġre ad
e ve
at us
ro ugh
Ġspecif ic
at ive
à¥ĩà¤Ĥ à¤ĥ
Ġn umber
ol der
g or
er form
am es
n et
Ġanal ysis
a x
v ices
in it
à¤² à¤¬
à¤¨ à¤ķ
Ġre g
ce pt
Ġg o
Ġv o
ĠR e
d u
on itor
Ġà¤¸ à¤¤
ur es
ock et
Ġmod ule
m ail
ow er
if y
ol d
con t
str ing
pl it
Ġ ra
ĠĠĠĠ ĠĠĠĠ
Ġà¤¬ à¤Ĺà¤²
S oup
c ode
l ay
l ine
n ect
Ġs imul
ic k
ment s
di ct
* *
] ,
b le
we b
Ġà¤ ¢
Ġth rough
Ġc alcul
em ent
Ġem ail
u de
Ġ each
on d
Ġs ub
à¤¸ à¤ķ
à¤¦ à¤¶
and om
gr am
le ar
Ġr ange
à¤ª à¤¹
an c
Ġe lement
Ġma x
ens or
C h
f o
al s
à¤Ł à¤¨
if ul
Ġv ari
. ')
re c
ut iful
et ime
ea utiful
Ġautom ating
P ro
l u
y m
Ġ >
Ġ Y
Ġf e
ar ch
ĠA PI
à¤¸à¤¬ à¤µà¤°
Ġ im
Ġc v
ust om
S I
n ew
Ġf irst
Ġd if
à¤¼ à¤¿
à¤µ à¤¨
el y
Ġde velop
Ġas s
gor ith
S t
a pt
m p
à¤° à¤¤
à¤¸ à¤«à¤²
à¤ª à¤¨
Ġle arning
Ġon e
eautiful Soup
1 0
R L
f ter
Ġe ff
t on
x t
Ġ z
à¥Ģ à¤ĥ
à¤¤ à¤®
Ġn um
Ġcom put
f ace
Ġp art
Ġm in
iz ed
ĠB eautifulSoup
Ġj son
s v
Ġr un
Ġà¤ħ à¤ķ
Ġin st
à¤¦ à¤ķ
Ġà¤® à¤¦
Ġà¤µ à¤¸
Ġà¤ ĺ
à¤° à¤¬
ur s
à¥Ī .
ĠP erform
di rect
onstr ates
r on
t est
y z
Ġn p
qu ire
âĢ Ŀ
d ition
t itle
in es
Ġa g
Ġpl ay
Ġdirect ory
à¤¯ à¤°
Ġ1 0
ĠO pen
m ain
r ame
à¤¬ à¤Ĺà¤°
Ġde t
tri b
à¤µ à¤¤
Ġà¤ī à¤ªà¤¯
an ag
al se
() ;
Ġst d
Ġe v
Ġal gorith
vir on
à¤¾ .
or m
Ġg nome
en se
Ġp ath
à¤¦ à¤°
() .
ver y
Ġwh en
or ld
it em
Ġan y
Ġb o
ht ml
Ġ1 9
ĠU se
F ile
m y
à¤ī à¤ªà¤¯
1 2
O S
t ype
is k
ur ation
Ġb ack
j o
Ġf ound
Ġt k
ĠT rue
ction ary
Ġà¤ļ à¤²
à¤«à¤² à¤ķ
Ġdat etime
c re
Ġs ome
Ġst art
ĠE n
ecut ing
t al
w in
Ġex ample
à¤Ĩ à¤Ī
ww w
L ist
int er
b ot
Ġl ang
if ic
av a
ar get
ur ing
enc y
t em
Ġb et
un c
Ġh ow
Ġà¤¦ à¤¸
Ġle t
ĠV ER
m essage
an n
Ġh is
ver t
ĠD em
ry pt
SI ON
ĠVER SION
( [
p r
s um
à¤ ĵ
am et
à¤ħ à¤¤
ĠN one
umb ers
ĠEx ecuting
f ul
s ing
Ġà¤¨ à¤¯
lo at
Ġà¤ħ à¤§
H ello
à¤ª à¤£
lo b
à¤¤ à¤¨
Ġp s
Ġl o
Ġv ideo
Ġal so
Ġwh o
Ġsc ript
val id
C V
t xt
à¤² à¤¨
Ġs ec
à¤¼ à¥ī
iz er
Ġà¤Ĺ à¤¯
res ult
__ (
riv ate
e b
es e
ro up
à¤· à¤®
pt y
Ġit em
C l
t ts
Ġw ere
Ġre quire
ĠP ro
ri b
à¤· à¤ķ
op y
Ġweb browser
bo ard
s end
ent er
Ġv is
ical ly
S c
a ult
le ft
Ġre m
g ing
it s
Ġus age
à¤£ à¤¨
og le
Ġcom ple
or s
à¤· à¤°
pa ce
aus e
ged it
ĠDem onstrates
F ix
N T
à¤ķ à¤ª
Ġt ask
m in
in u
à¤Ĩ à¤°
viron ment
f ind
i ous
s plit
Ġto tal
se arch
Ġde p
ab ase
ab ling
à¤ħ à¤ª
ect ed
Ġ2 00
ĠU RL
ult i
yn c
im ent
ed ia
Ġit s
ogn ition
anag er
t rans
Ġ _
à¤ļ à¤²
Ġg iv
ord er
to ken
str uct
ft ware
app end
Ġser ver
" :
q l
Ġs um
Ġt w
Ġl oc
ch ed
ĠIm age
Ġà¤ Ī
Ġa m
Ġl ine
Ġdi ctionary
p ing
Ġthe y
Ġp os
Ġde c
ew rite
d ing
s ed
Ġs ign
re tri
Ġà¤ª à¤Ł
() )
end s
per t
Ġsu pp
D ownload
b ack
c c
i k
Ġ &
Ġ urllib
à¤¦ à¤¸
ĠP y
à¤Ľ à¤²
Ġval id
Ġopen ing
à¤¯à¤¤ à¤¨
retri eve
` .
i um
Ġa udio
Ġs ent
à¤Ł à¤®
à¤Ĺ à¤®
ol og
pl ot
typ ewrite
V iew
at ic
à¤¦ à¤¨
Ġà¤ħ à¤¤
Ġcon st
ant um
bo x
Ġdif fer
u age
v iew
ĠâĢ ľ
Ġab out
S ON
o od
al led
ay s
Ġit er
Ġbe en
Ġar g
ownload ing
d ir
i er
et ch
Ġpro gram
pt im
à¤§ à¤ķ
ser ver
form ation
Ġcont rol
V al
n ess
Ġc o
Ġt ak
Ġp h
end er
Ġcont ent
direct ory
M L
c es
w h
Ġin cl
Ġup d
vers ion
l l
le ep
ut es
Ġpro duct
ĠU n
Con t
Ġgiv en
1 9
T o
d es
ch o
ĠD ownloading
key s
Set up
N ame
a ction
t rain
à¤¯ à¤ķ
à¤ĩ à¤Ł
Ġmethod s
Ġautom ate
Ġps util
T rue
p assword
Ġth an
à¤ķ à¤Ł
Ġt yp
Ġb ec
Ġst ud
url retrieve
Ġext ract
Ġform at
a w
e k
t ed
Ġth ere
à¤ķ à¤¨
en ame
an e
Ġin itial
Ġm em
ĠC re
qu e
and as
pa ck
Ġset ting
m iss
Ġs k
Ġc ustom
à¤ª à¤ķà¤°à¤£
Ġo ver
ec ute
lo c
à¤§ à¤¨
à¤ī à¤Ł
a uth
c o
c cess
e y
g ine
Ġ ~
in st
à¤ª à¤¤
imp le
Ġof f
if f
Ġdes c
ĠCh eck
hot key
c ol
n um
q r
Ġa fter
à¤ķ à¤¡
Ġp ort
il ity
ri ption
Ġar t
ĠAn juta
Th is
g er
Ġthe m
le an
Ġm et
ĠJ SON
Ġeff ect
pl ace
user name
: %
ro und
à¥ģ à¤Ĥ
ul ar
à¤· à¤£
Ġcont ain
O pen
i pp
Ġs a
ing s
re d
ĠA pp
ĠS c
à¤Ĩ à¤¯
Ġà¤¸à¤® à¤°
po int
b y
l abel
t ual
Ġ X
er t
an s
Ġm ulti
Ġh igh
um ent
Ġcon fig
Ġà¤¨à¤¹ à¤²
for e
ĠW h
Ġà¤Ľ à¤ķ
i e
k er
o ogle
Ġ ed
in ation
Ġt ry
à¤ª à¤Ł
Ġm ain
as et
Ġre l
ra w
ad er
Ġ{ '
Ġà¤ħ à¤Ł
Ġon ly
con fig
enc es
Ġoper ations
Ġtw o
S tring
f older
n a
s p
re g
jo in
g ame
j p
s ave
à¤ ŀ
or es
Ġin dex
Ġm ay
Ġm ark
ent ial
à¤ĩ à¤¬
end ing
Ġch ild
out put
Ġout put
inal ly
Ġvo id
C om
G ener
I L
m ap
s ize
Ġ 8
à¤² à¤ķ
re t
Ġp e
Ġn o
ĠC reate
Ġqu antum
Ġdat abase
Ġ 6
Ġ :
Ġin d
as es
id es
Ġr andom
cl ient
eng th
jp g
3 2
A L
p os
w rite
Ġf ind
Ġà¤ª à¤¹
Ġ' /
ate g
à¤ĥ %
ot e
à¤ħ à¤Ĺà¤²
Ġma ch
Ġar ray
Ġlang uage
g tk
n umber
Ġp r
Ġp rivate
Ġl en
ist s
Ġsc ra
Ġstr uct
Ġprocess ing
Ġtra in
Ġhand ling
D e
n er
Ġd ist
el p
à¤ħ à¤¦
Ġact iv
inu x
a it
a ir
v o
à¤¸ à¤¹
Ġp ass
Ġin formation
Ġb lock
el en
ĠA utom
Ġg ame
Ġà¤ĩ à¤ķ
Ġà¤ĩ à¤¸
Ġsp e
we en
Ġweb s
Ġpar amet
Ġcor rect
P U
c sv
Ġ @
in fo
Ġc all
à¤µ à¤°à¤£
ul l
qu ery
Ġà¤ı à¤Ł
à¤Ĩ à¤§
ĠImplement ing
typ es
cont ent
Ġsimul ate
A R
g an
i ct
Ġ \\
à¤µ à¤ļ
ser t
Ġen vironment
lib gnome
par ser
lear n
Ġmach ine
elen ium
2 0
Q L
` ,
g mail
Ġ right
à¤² à¤Ł
à¤¸ à¤°à¤£
à¤¯ à¤¶
Ġv olume
iz ing
Ġch ar
ap e
yz e
ĠCre ating
a int
d at
i an
p ublic
u ff
à¤ ĺ
Ġp op
Ġus es
ĠC om
Ġà¤¯ à¤¦
Ġac cess
arg s
I m
à¤° à¤¹
ĠĠĠĠ Ċ
Ġf l
Ġf loat
im es
Ġre port
ĠF or
ĠL inux
Ġfunction s
Ġcl ient
Ġ[ ]
Ġun der
Ġem pty
alcul ate
Ġtak es
. _
6 4
S T
à¤¸ à¤°
Ġt we
Ġp d
à¤® à¤¦
il ities
if ied
à¤¬ à¤¨
Ġwh ile
res ent
Ġne ed
Ġsm art
Ġalgorith ms
D F
n g
r ic
à¤° à¤¦à¤°
er n
re am
im it
om ain
ation al
em ail
ĠS tring
and ler
ir tual
Ġen gine
ĠPerform ing
Ġbet ween
N ode
m a
à¤ Ķ
le ase
à¤ª à¤¥
Ġp ack
Ġw orld
us ic
ĠA l
Ġwith in
à¤ħ à¤ľ
Ġsh ould
Ġdis play
à¤¤à¤° à¤«à¤²à¤ķ
yn am
E T
O L
a h
o f
s ec
v ing
Ġ u
re en
Ġm ost
ĠA r
Ġ2 0
Ġen c
ep y
ac c
Ġimplement ation
Ġcheck s
à¤®à¤¦ à¤¦
" "
] :
d is
s leep
Ġ end
Ġa uth
ro p
Ġo ptim
ol s
lo se
Ġ+ =
Ġch ang
ne ction
ched ule
m ake
Ġs ym
Ġw ould
Ġg e
ĠC l
ind ow
Ġà¤Ĺ à¤ı
Ġ< <
par se
o se
Ĭ à¤ªà¤°
Ġa ction
Ġth ese
Ġs ur
Ġt able
le ction
à¤¼ à¥Ĥ
ou ble
Ġcon text
Ġwh ere
con nect
Ġat t
Ġfil ter
Ġhand le
b in
in s
Ġs oc
Ġt em
à¤¯ à¤¹
à¤µ à¤¸
Ġre p
ea ther
ĠM y
ĠF l
ĠB uild
Ġà¤Ĩ à¤¤
Ġmanag ement
Ġà¤¸à¤ķ à¤¤
win left
CV S
O R
Ġ .
à¤° à¤¸
at ural
Ġf ield
is ion
Ġto p
et s
id ent
Ġy ear
ist er
ĠH ow
Ġà¤Ĩ à¤ķ
Ġval ues
Ġtra ck
Ġac c
Ġsu ch
-- --
TT P
Ġelement s
dition al
trib ute
' ...
g ress
Ġ ['
à¤ Ŀ
Ġs ocket
ct or
un ch
ri e
Ġ{ }
op le
ib le
og raph
Ġch at
1 6
w it
er o
Ġth read
re m
à¤¤ à¤ķ
Ġd est
Ġb rowser
am ed
ers on
Ġex cept
ĠIn itial
oo th
Ġne ural
Ġword s
onitor ing
Ġrun ning
= "
d b
l ot
w ard
z ip
Ġp ol
Ġin te
Ġd uring
ort ed
Ġb re
ile d
à¤ħ à¤¸à¤«à¤²
Ġso ftware
fil es
Ch eck
à¤Ķ à¤ľ
S S
S h
T K
n s
Ġ !
at ically
Ġs earch
Ġm ov
Ġà¤ª à¤¹à¤²
us h
Ġb ot
Ġl ic
Ġh ad
ess ion
Ġà¤¬ à¤¤
ir c
Ġex press
os s
di v
Ġma ke
util us
comm and
na utilus
" %
f unction
h ost
Ġt itle
im g
Ġo cc
à¤¹ à¤¤
ic ation
') .
util s
Ġrequire d
Ġtask s
Ġsent iment
b ook
i od
r en
à¤° à¤®
er m
Ġs ql
à¤¼ à¥ĭ
if t
à¤ĸ à¤ķ
Ġv iew
pl ib
cl ude
ĠN ew
ix ing
ĠEx ample
ator s
Ġup date
ĠAd ded
web browser
Ġsoc ial
p s
s w
à¥ĩ -
Ġà¤ª à¤¸
Ġl abel
Ġh elp
ou g
Ġg en
Ġst atus
à¥Īà¤Ĥ .
Ġcheck ing
ĠDe f
Ġcalcul ate
Ġz ip
" );
A PI
O b
S er
T ML
] .
d ownload
l ab
Ġw ay
if ier
Ġde vices
pp er
Ġse qu
Ġadd ing
C reate
a le
d ay
o h
u ch
Ġ order
or n
Ġs elenium
re at
Ġp assword
us e
Ġb ook
ĠS er
Ġex ception
ail s
ous e
Ġanal yze
- >
D is
I d
T ext
f l
on om
Ġa ut
ĠĠĠĠ Ġ
Ġc ar
Ġf ol
le te
Ġl a
Ġn atural
ub e
Ġà¤ļ à¤µ
Ġwith out
à¤Ĩ à¤īà¤Ł
ĠG ener
pon ent
ac cess
urs or
b ol
f low
l ish
Ġ= >
us s
Ġe lect
Ġcom p
Ġen abling
Ġadd ress
Ġprov ides
Ġev en
. ,
C T
S e
Ġp age
ic le
od y
Ġ1 00
Ġdef ault
olog y
A d
K ey
S earch
T ype
c ent
m e
s ource
ĠĠĠĠ ĠĠĠĠĠĠĠĠĠĠĠĠĠĠĠ
Ġf rame
Ġm iss
Ġd own
st atus
ad ing
Ġcon struct
Ex ception
ĠCheck ing
p ect
u ple
à¤ª à¤²à¤¬
al ity
Ġw rit
ic ro
à¤µ à¤²
') :
Ġv irtual
ĠF inally
ĠR es
our s
Ġpo st
Ġ* *
ight s
led ge
à¤¸à¤® à¤°
Ġcre ating
ond s
' t
1 00
I N
L og
f unc
n umbers
o ther
t tp
Ġc alled
Ġt arget
it ed
ut put
Ġw ater
Ġl ong
Ġà¤¨ à¤ķ
ĠT rans
à¤ĸ à¤¨
Ġas ync
iz es
à¤Ľ à¤µ
Ġcomm un
Ġdiffer ent
ĠInitial ize
D ata
[ "
b ash
f it
in clude
Ġs r
Ġc ould
Ġre comm
il y
ĠA ss
id er
Ġg TT
Ġg roup
ec ution
ĠS ystem
op t
ĠR et
Ġvari able
Cont rol
Ob ject
L E
R ec
S E
f e
p df
t t
Ġa v
at ures
Ġs ource
Ġs imple
Ġp ower
à¤¯ à¤®
al ance
is m
Ġm ode
ess ages
ĠS et
ver age
lo y
our se
Ġweb driver
Ġerror s
Ġsupp ort
miss ion
Ġdesc ription
G et
M ap
c urrent
r l
r ation
t plib
w ise
Ġ Z
à¤¿ à¤ĥ
im um
Ġà¤ª à¤¥
Ġd r
st ate
ĠI D
ĠS QL
ĠD is
Ġe vent
Ġex per
Ġen s
sh ow
Ġmodel s
orm al
Ġpe ople
ĠgTT S
H andler
I D
W h
g y
s m
s ub
t arget
Ġ ver
ar ray
Ġg raph
um ents
Ġr est
Ġbe fore
ĠW e
Ġle ft
Ġle vel
Ġimplement ed
Ġhe ad
Ġoper ation
Ġgener ate
Ġnum py
ateg ory
Ġbre ak
' }
m ax
} ")
Ġ url
Ġs ay
Ġt ensor
de p
ut ton
Ġd iv
Ġb s
Ġpro pert
Ġac count
py autogui
Ġsu ccess
Ġbec ause
ĠFl ask
Ġ! =
a ctions
er a
Ġf re
Ġt f
ic ate
et ing
et ic
Ġn umbers
ĠS earch
ĠF ile
ĠF alse
our ces
ĠU sing
per ature
Ġman y
N ot
O M
T ime
U R
c is
e lement
i que
l ator
t ract
Ġ 9
in dex
at s
Ġs n
Ġs oup
Ġp andas
Ġo w
Ġm at
Ġn amed
Ġg ra
Ġcon s
ĠE OL
con st
ens ion
ac es
Ġall ows
Ġpre v
item s
Ġam ount
libgnome ui
ĠBuild ing
. "
M anager
U ser
b er
c or
d a
d oc
en e
Ġc rypt
re ens
Ġf in
Ġf act
à¤ª à¤ħà¤ª
à¤ļ à¤°
ĠS imul
ve ctor
ĠF ixing
cl ick
ĠO utput
Ġro ot
Ġrec ognition
ĠDe velop
fil ter
als a
Ġiter ates
wh ile
Ġparamet ers
F or
R es
T H
v es
Ġ row
or ch
à¤¸ à¤¤
à¤¯ à¤¥à¤¨
al th
Ġo ur
Ġw rite
et ooth
ĠT ext
à¤¬ à¤²
Ġde m
Ġà¤¬ à¤Łà¤¨
ĠF ran
Ġsh util
Ġall ow
Ġà¤Ľ à¤µ
Ġimplement ing
Ġel if
Ġdo es
Ġsm tplib
lu etooth
ĠY ou
Ġcomput ing
Ġà¤®à¤¦ à¤¦
Ġincl ud
Ġsk learn
Ġwebs ite
Ġfol low
Ġrecomm end
reens hot
" ]
A t
V olume
f s
l ack
m ed
Ġ %
Ġ 7
in ed
th ing
Ġa w
or g
Ġc ase
à¥ĭ à¤ĥ
à¤¯ à¤ªà¤°
Ġin cre
Ġn ode
Ġh er
Ġà¤ľ à¤°
ab les
up date
ord ing
ĠV al
Ġinst ance
Ġalgorith m
des ktop
Ġspe ech
Ġsym bol
2 2
< /
T P
o le
en v
Ġs ame
Ġp atch
Ġm atch
() ,
Ġde vice
Ġst ep
Ġpro du
Ġà¤ħ à¤¸à¤«à¤²
od es
Ġcon nect
Ġe qu
ĠU p
Ġor ig
Ġà¤¸à¤® à¤¯
Ġcomput er
ann el
Ġvis ual
inst all
/ ')
= {
b ug
c reate
e ver
h ip
l ation
m od
p u
r u
s ide
v ed
Ġs end
Ġm en
st and
Ġn ames
Ġh um
ra ck
ĠC ode
Ġex p
Ġwh at
ĠW eb
Ġj ava
Con fig
Ġmulti ple
( (
t en
y le
Ġ ent
on th
Ġs pace
Ġt ab
ĠP IL
ĠT est
à¤¬ à¤Ĺ
rom e
Ġà¤ħ à¤¤à¤°à¤«à¤²à¤ķ
Ġknow ledge
Ġen um
Ġma c
ug in
Ġdes ign
Ġnew s
eng ine
à¤Ĩà¤° à¤Ĩà¤Ī
plot lib
Gener ic
Ġtwe epy
oh n
P y
Ġ ec
à¥ ¤
on s
Ġth ose
Ġc sv
Ġp ress
it es
ar s
Ġl ink
ul ation
Ġst ack
pl ain
Ġpo int
Ġj ust
comm on
Ġvo ice
ific ation
Cl ass
Val ue
unch ing
1 1
? :
P ath
c ing
c le
n ot
v ideo
y our
Ġo ption
Ġl ay
Ġà¤« à¤²à¤ķ
ĠS e
pl es
In valid
à¤ī à¤²à¤Ł
Ġà¤ī à¤ªà¤ķà¤°à¤£
te ction
Ġfe ature
apt ure
Ġag ain
Ġpos ition
Ġsetting s
uff er
Ġsql ite
ĠSearch ing
) ...
2 5
i vers
l s
o int
Ġ q
Ġf unc
de t
Ġà¤ª à¤¢
ur ity
à¤¡ à¤¨
à¤µ à¤ķ
st d
ĠH TTP
Ġà¤Ł à¤°
Ġapplic ations
Ġsub ject
trib utes
Ġsa id
Ġconfig uration
B y
S V
a iled
c at
m er
s u
t es
le g
Ġp ython
Ġà¤¸ à¤¬
am p
Ġcon dition
Ġ+ )
ĠU ser
ail able
Ġà¤¤ à¤¸
Ġà¤°à¤ĸ à¤¤
ob j
Ġim ages
Ġpart ic
Ġtyp ing
Ġmem ory
ker as
Ġchar act
" ])
( .
A C
A M
A udio
G tk
S p
d it
e ys
g oogle
p ng
Ġ enter
à¤ª à¤ķ
im al
an ning
am s
ch em
Ġà¤ķà¤° à¤¤
lo op
Ġà¤Ĩ à¤°
res pon
Ġle g
Ġma th
Ġsc reen
val u
app le
ual ly
log in
atter n
Q t
d o
g ener
m et
p i
r id
v en
v as
Ġs chedule
Ġf etch
Ġt ech
it i
it er
à¤¯ à¤¸
an y
Ġd oc
à¤¶ à¤ķ
ou d
Ġpro ble
Ġ" ""
ĠR em
oun ter
'] ,
Ġor gan
oc us
à¤ī à¤ªà¤ķà¤°à¤£
Ġqu ery
Ġser vice
Ġloc al
Ġla unching
! ')
A pp
C ol
I M
L abel
P ar
d own
h er
k a
n ode
} ;
Ġ |
Ġs ol
Ġs yn
à¤¨ à¤°
Ġp ract
it ive
Ġm usic
Ġd omain
as ter
ch eck
ag n
à¤· à¤¯
ord in
Ġpl t
Ġà¤ī à¤ªà¤¸
Ġà¤ī à¤ªà¤²à¤¬
Ġ3 0
Ġsystem s
fer ence
ĠOpen ing
Ġupd ates
pos ition
Ġrep resent
Ġmiss ing
ĠRet urn
U I
a udio
h ash
p age
r ate
w all
Ġà¤ Ĭà¤ªà¤°
à¥Ģ -
it ing
à¤¯ à¤²
al k
Ġw eather
Ġd ynam
as c
Ġ( %
') )
pa re
Ġà¤Ĩ à¤§
Ġinter face
oug h
ĠDef ine
Ġtensor flow
Ġrecommend ation
C ount
U n
j ang
l ines
m ing
s pe
t able
Ġ \
à¥ĩ ..
Ġc opy
re place
à¤¸ à¤µà¤°
Ġt urn
le t
à¤Ł à¤ķà¤Ł
Ġw ell
Ġto ken
ĠP DF
ri ve
ĠS h
Ġà¤ľ à¤¬
od ing
ea k
à¤ħ à¤§
ĠL ic
ain s
Ġbe ing
res h
iv es
ĠAn d
ĠAd d
igh b
anc ed
Ġbo th
sec ret
Ġlic ens
lab or
jang o
' .
B ot
c ard
l ink
t ask
} ,
or ies
Ġs pa
Ġt rue
Ġp air
im ate
ct rl
Ġw ant
as ic
om et
à¤ı à¤²
ess er
id get
ec ess
ver se
ment ed
Ġimport ant
ip el
Ġà¤Ĺ à¤Ī
Ġma de
Ġtra ding
start s
Ġobject s
Ġdet ected
([ "
sum er
lob al
ĠAutom atically
Ġauth or
! /
# !/
: ',
T rans
d est
d itor
l and
Ġ very
ing le
Ġt orch
Ġd river
à¤ı à¤®
Ġh ash
ĠC SV
qu are
ĠD ata
Ġà¤ħ à¤¸à¤®à¤°
Ġe very
ĠH e
iv ely
Ġ- -
oc i
Ġpar se
En d
Ġdet ails
Ġlo op
Ġexpress ion
Ġasync io
) ')
D E
] ;
l am
o k
th read
Ġt e
Ġà¤¸ à¤°
Ġà¤ª à¤¶
Ġl ast
Ġre f
ch or
em ory
Ġr ate
Ġcon n
ĠR un
up er
Ġwe ek
ap y
Ġfil ename
Ġuser name
Ġnetwork s
ĠQ u
add ress
Ġph ys
Ġproduct s
ipp et
Ġchild ren
à¤ĺ à¤Łà¤¨
Im age
Ġchat bot
Ġmac OS
A r
A uth
e vent
g g
i ence
th e
Ġa ge
à¥ĩà¤Ĥ ?
Ġb rain
Ġl ess
à¥Ī ,
if e
ot al
ul es
Ġde tection
Ġch ange
Ġme as
iv ed
pon ents
Ġpy tts
olum n
Ġcol or
Ġra ise
Ġtk inter
Ġyear s
wit ch
Ġhum an
Ġpytts x
A l
b ies
m ary
r am
s ocket
Ġf ace
al yz
ar ge
Ġin f
Ġm edia
ic ient
Ġd ouble
Ġb est
Ġ( \\
Ġh im
Ġ' -
Ġus ers
Ġg u
ĠS o
Ġst ore
Ġst atic
ver ting
Ġà¤ħ à¤µ
ir s
Ġret rie
he ad
ect or
ser v
form at
Ġbe h
Ġ[ \\
]) ?:
low er
Ġreal ity
Ġtrans form
Cl ient
Ġdec or
Ġmem b
Ġ\\ ])?:
Ġunder stand
ecess ary
starts with
0 1
2 4
E NT
F alse
b da
m it
p ower
t il
Ġ ident
er ate
à¤² à¤°
Ġc ell
à¤¸ à¤ª
Ġm essages
as ync
Ġl oss
ĠT o
Ġde ep
Ġà¤¬ à¤°
Ġis s
à¥Ģà¤Ĥ .
Ġv ar
Ġres earch
Ġapp ly
ac y
av i
word s
Ġdis k
Ġadd ition
Ġwork s
Ġreg ist
Ġlo ad
Ġitem s
loc al
dat aset
ograph y
Sh ow
Ġav ailable
Ġfollow ing
! '
8 7
F rame
I tem
O T
S D
V D
c opy
c uss
z on
Ġ ke
er ies
Ġth ink
Ġc ap
à¤¤ à¤°à¤£
ro t
ro id
Ġin v
ch ain
ex port
ĠC al
ĠI P
ĠI s
ist ance
ĠM onitoring
Ġà¤Ĩ à¤Ī
Ġres pon
à¤¼à¥ĩà¤Ĥ à¤ĥ
ire wall
Ġsh ell
Ġlog ging
sc ore
Ġro bot
Ġperform ance
Ġdevelop ment
Ġdep end
Val id
ĠLic ense
A ct
[ :
c lose
h ello
n p
p art
s a
t le
} ...
Ġ ?
à¤² à¤¤
Ġc ourse
Ġf ac
Ġt imes
à¤¤ à¤µ
al t
Ġan other
Ġre ce
Ġh ttp
ĠT rain
ul ate
Ġde ter
Ġà¤° à¤¦
Ġà¤ľ à¤¨à¤ķ
Ġpro ject
à¤ħ à¤µ
Ġex er
Ġex am
cl ip
ĠG oogle
Ġà¤Ĺ à¤²à¤¤
Ġdef ine
Ġapp ro
ail y
iv ity
ug g
ĠIn ter
Ġat tribute
enc ies
Ġse e
so ft
Ġcor respon
Re ader
Ġmax imum
trans l
Ġscra ping
Ġchang es
Ġtem perature
Ġelect ron
Ġtech n
' {
F ind
S M
U p
a de
c ed
f ield
l ength
m d
o ad
s oup
in ce
à¤° à¤¶
à¥ĭ ?
Ġt r
Ġp erson
it al
ar m
Ġm ed
Ġl ines
ĠP l
Ġ' __
id th
ad ata
ri p
ab ility
Ġ1 2
pl t
Ġex ecution
__ ':
Ġman ip
ens ions
Ġad ded
ĠIn st
ting s
Ġhe alth
Ġfe ed
Ġdif f
Ġbet ter
Ġrem ov
Ġvalid ation
Ġtyp es
Ġcontain ing
ĠAutom ating
Ġtrack ing
Ġsequ ence
Ġprev ious
esser act
# #
5 0
S ub
a i
b utton
g round
Ġ Â
Ġ version
on t
Ġa ir
or ial
at est
at ely
es c
Ġf n
Ġf ix
Ġf ocus
Ġt er
im il
à¤Ł à¤ķ
Ġd ay
à¤¼ à¥į
à¤ľ à¤°
Ġl imit
Ġ' ))
ra ction
Ġg re
ri eve
Ġst or
and le
Ġreturn ed
Ġ" /
Ġex ist
os is
ĠU I
url s
00 0
ant s
ff ect
av ig
read er
Ġun ique
Con vert
Ġdis abling
Ġdi ct
pre h
main loop
isk it
pr ice
Ġrequire ments
vo id
Ġsuccess ful
Ġow n
ivers ity
imil ar
' ;
I NT
S ource
Y our
b u
r ics
Ġà¤ ĳ
es h
de vice
de code
an k
Ġm onth
ic les
Ġb el
ch ron
Ġn ow
ex cept
ex ecute
ag s
() ')
rit er
Ġon line
Ġà¤ı à¤®
à¤Ĩ à¤ª
ĠL ob
à¤ī à¤Ń
Ġmanag er
Ġac qu
ĠCon t
Ġà¤Ń à¤°
Ġact ive
Ġstate ment
Ġstruct ure
ĠHow ard
irc u
dep end
Ġmat plotlib
ĠSimul ating
Ġmen u
Ġpress ure
L oc
M odel
R E
R un
] [
c count
m ark
u c
Ġ quest
er gy
Ġs ingle
Ġs uper
Ġf am
le x
à¤ª à¤¬
ro ss
al ly
Ġo ld
Ġin iti
ut ure
Ġto o
à¤Ĺ à¤¤
Ġd id
Ġb ro
Ġn ext
il t
Ġh ard
ĠC alcul
ri x
à¤¥ à¤®
ext ract
Ġwe ight
con n
Ġapp l
Ġare a
Ġpl ugin
ĠCon verting
Ġresult s
Ġcre ated
Ġcalcul ates
Ġass ist
Ġarg uments
Ġocc ur
% %
3 4
A T
S end
[ ]
d isk
o ot
p ost
s g
t ra
in ary
at ial
at ory
Ġs ep
Ġs ave
Ġs ize
Ġs orted
Ġc ategory
le ctions
Ġm ouse
ur acy
Ġd on
om al
à¤ı à¤Ł
am ing
Ġn ull
Ġn ecessary
ĠP ar
Ġh ost
if orn
ot ential
id s
ĠC or
ĠD N
à¤· à¤¸
Ġcon nection
Ġ" $
ĠH TML
âĢ ľ
process ing
ĠG et
to col
Ġma k
Ġsh ow
Ġper iod
te in
urr ic
Ġse lect
sh ape
ock er
ud o
ms g
right ness
model s
Re quest
web driver
Ġvari ous
Ġass ign
tem pt
Ġupd ated
Ġstud ents
Ġpack age
Ġpropert ies
Ġinclud ing
ĠLob bies
) ]
F i
I G
J ava
M et
P L
T k
Y ou
a f
c pp
m edia
v olume
Ġs ound
Ġc types
à¤¹ à¤°à¤£
Ġto gg
Ġb u
Ġb ody
Ġb asic
st rip
Ġh int
ĠA udio
op er
pl ic
Ġcom preh
à¤Ĩ à¤ķ
âĢ ¦
Ġà¤ī à¤¦
Ġ< =
Con text
ak ing
Ġbut ton
Ġread er
anc es
Ġim g
St ate
Ġstud y
Ġtrain ing
à¤°à¤® à¤£
Ġaut onom
Ġaw ait
Ġoption s
iforn ia
2 00
4 0
6 6
A S
F F
F ield
H TML
I P
M essage
T ube
] ]
b it
c el
e g
f loat
j ava
q tt
r andom
s age
w indow
x ml
} '
Ġa st
at form
Ġc r
Ġc am
Ġt ri
Ġo il
Ġm uch
Ġw in
Ġl ook
Ġh ome
ĠA s
à¤¬ à¤ļ
(' .
Ġg row
se lect
ub lish
com p
ĠB luetooth
os p
Ġà¤Ĩ à¤Ĺ
ial og
ĠN etwork
Ġres ource
lic ation
ĠO n
Ġcl ip
Ġprocess es
Ġat tributes
ĠEx tract
Ġset s
ob ject
Ġkey board
ĠâĢ ¦
Ġtest ing
ĠĠĠĠĠĠĠĠ ĠĠĠĠĠĠĠĠ
Ġvari ables
Ġmin utes
ĠOpen CV
Ġback up
Ġsec onds
pert y
Ġincl ude
point Volume
icro soft
ĠYou Tube
ĠUp date
Ġorig inal
Audio End
Ġacqu aint
Ġautonom ous
AudioEnd pointVolume
7 8
A ction
C ode
M y
t ry
t osis
} )
Ġth ings
Ġc ent
Ġc lear
ar p
us age
Ġd rive
Ġl ight
à¥Ī ...
qu al
ist ory
à¤« à¤°
Ġpro per
ĠM anager
pro duct
ĠU sed
lic e
ibr ary
Ġà¤¶ à¤¬
ĠV era
Ġpl an
sc ript
sc ores
An d
Ex plain
Ġtrans lation
Ġact ual
ach e
atter y
anc ial
rec ognition
Ġ> =
Ġbo ol
Ġloc ation
Ġeffect s
ĠWh at
Ġsur face
16 8
ĠDevelop ing
Ġagain st
Ġiss ues
Ġke ep
Ġcorrespon ding
Ġsep ar
, "
5 6
B lob
D et
G it
T est
T able
b ased
c ursor
e ded
g roup
h a
h our
l imit
p op
s ible
t a
à¤ ĳ
in ition
th is
à¤¨ à¤®
Ġc lean
Ġc ursor
Ġf ree
Ġm ust
Ġw indow
us ing
Ġl ow
Ġl ength
(' :
ĠC A
ĠC alculate
ĠS p
Ġst ream
ver n
lo od
Ġcon vert
Ġcon version
Ġ1 6
ĠR ec
ĠE rror
à¤Ĩ à¤ĩ
ĠU S
con sumer
val ues
Ġsh ort
)) ;
Ġà¤ī à¤ªà¤°
av ing
Ġlog in
ĠTh en
Ġcomm on
Ġser vices
Ġdat aset
count s
Ġhand les
lay ers
Ġrem ove
Ġcomple ted
qr t
Ġactiv ation
Ġchang ing
Ġfield s
---- ----
Ġfre qu
ĠText Blob
à¤¯à¤ªà¤° à¤²
Ġà¤¸à¤¬ à¤µà¤°
Ġpartic ular
8 0
C R
W idget
d s
d um
e e
l en
l ess
m ar
m emory
s lot
Ġ id
Ġs he
re f
Ġf older
Ġp resent
Ġp attern
ar r
ur ther
Ġan omal
Ġb atch
el se
à¤ĩ à¤°
Ġre d
à¤ļ à¤¯
Ġn on
ĠT ensor
(' /
ce ed
ĠD o
Ġe ar
ĠE ditor
Ġà¤ĩ à¤¸à¤ķ
ĠL og
ip ient
ĠO ption
In st
ĠIn di
ph one
read y
urr ency
An chor
à¤ıà¤ķ à¤²
Ġob j
Ġmod ified
Ġread ing
Ġ& &
Ġco ordin
cho ice
Ġinitial izes
Ġcontain s
De f
Ġblock chain
Ġthread ing
Ġsn ippet
mod ule
Ġcondition s
ipel ine
, âĢĿ
1 4
B o
F low
N o
O n
R em
T itle
W e
b atch
f rame
g ra
l n
m and
o ff
r ust
s udo
t esseract
y t
à¤ Ĭà¤ªà¤°
Ġà¤ ¥
Ġa verage
à¤ķ à¤¸
à¤¨ à¤¤
Ġf it
Ġto ol
Ġb ase
Ġb alance
Ġof ten
ĠP h
ra int
Ġg reat
qu it
ĠS an
Ġst and
Ġpro gress
Ġpro tein
od er
Ġà¤µ à¤¹
ĠF unction
ĠL et
yp er
Ġà¤Ĩ à¤īà¤Ł
ĠW orld
Ġknow n
Ġme an
Ġapp rop
Ġà¤¤ à¤ķ
oo lean
Ġimp ro
sc reenshot
Ġmodel ing
à¥Īà¤Ĥ ?
Ġother wise
Ġreg ular
pr ise
olog ical
inst ance
Ġmark eting
dis play
Ġfin ancial
ĠVal ue
apple ts
Ġdoc ument
Ġphys ical
Ġapprop ri
1 3
9 0
D iff
G TK
J ohn
M onitor
P er
P ython
R I
S ystem
a ther
b lock
g o
g re
g ment
k w
m ic
p us
y ah
} .
à¤¾ à¥¤
Ġa ug
er as
Ġc lo
Ġf inal
Ġp rom
im er
Ġm ut
Ġd f
Ġd ue
Ġfor ec
à¤¼ à¥ĩ
à¤¦ à¤¬
am ples
st ep
Ġ' <
') [
(' {
ol ation
Ġg tts
um ing
ĠC PU
Ġde bug
Ġst yle
ĠD ict
ith ub
Ġpro tocol
ea p
Ġe valu
Ġex ecute
Ġspecif y
Ġj ob
bo ot
Ġà¤Ĩà¤ª à¤ķ
Ġkey s
à¤ĩà¤¸ à¤°
Ġreg ister
19 2
miss ions
co ver
Ġrel ations
Ġind ust
Ġparamet er
Ġinte g
Ad d
Wh at
ĠAnd roid
ĠCal ifornia
Ġexam ine
yah oo
" ;
+ +
A ccount
B alsa
P lay
b ar
f n
p or
t ilities
t otal
Ġf lu
Ġt ake
it test
de vices
an vas
Ġto ols
Ġb t
Ġb it
Ġl and
id ual
ul f
Ġde lete
Ġe cho
Ġ" %
Ġcom ment
Ġcom ponents
ĠG e
Ġres ources
ĠW ork
Ġdef ined
def ault
out ube
Ġma int
Ġsc ores
PI O
Ġne g
Ġrec ogn
so le
Ġinter act
ater ial
Ġinst alled
Ġev ents
Ġà¤ªà¤Ł à¤²
qr code
Ġart icle
wit ter
sw er
Ġgen etic
Ġzip file
Ġexp ected
à¤Ĩà¤ĩ à¤ķà¤¨
ĠTensor Flow
( {
3 0
D I
E lement
U T
W ith
a utom
b alsa
c ase
c ise
d ic
e ad
f act
l tk
m atch
o ol
p rivate
r and
s es
s ession
w ays
Ġ util
Ġà¤ §
Ġs at
Ġs quare
Ġà¤ķ à¤¨
à¥Ģ %
Ġp ur
Ġm ot
Ġm ap
Ġm onitor
ent iment
Ġd ig
Ġl ock
Ġl arge
Ġre du
ĠP ol
ĠP ublic
Ġus ually
ĠC AL
Ġà¤¬ à¤ļ
Ġr isk
Ġr ender
à¤Ń à¤°
ĠF ind
à¤Ī à¤²
ĠR ep
Ġch annel
Ġà¤Ĩ à¤²
ĠW i
lic k
print ui
ill s
Ġad v
Ġtime out
av es
Ġar ch
ĠEx ception
Ġro le
Ġass oci
Ġbo x
Ġback ground
Ġsome thing
ĠEn ter
rib e
ĠWh en
reg ister
Ġ8 0
gtk html
Ġpr ice
LE CT
SE LECT
ĠSet ting
sm tp
cis co
Ġstep s
Gtk HTML
ighb or
ĠRun ning
Ġbeh avi
kw args
autom ake
. âĢĿ
A N
A utom
B ook
D ec
L S
M an
Q TT
S ec
T ask
c pu
d ig
m at
n n
s ite
Ġ ve
Ĳ à¤¸
at ist
en ded
Ġs imilar
Ġc aus
Ġc ert
re ction
Ġf alse
de v
ro y
al es
à¥ĩà¤Ĥ ...
ic ious
à¤Ĺ à¤¨
as on
Ġl ib
Ġn ormal
Ġh ours
ag ed
ĠA t
ou th
id d
id ing
Ġg lobal
ĠC a
est art
ĠS ending
Ġas sert
Ġà¤ļ à¤°
Ġcom par
Ġà¤ĩ à¤¨
com ing
Ġch o
Ġal ready
di ctions
per cent
ire d
Ġper cent
Ġar r
ari able
ĠCon fig
Ġsimul ator
Ch rome
apt er
ann er
Ġcomple x
ik it
AL L
libgnome printui
Ġwrit ing
Ġcons ider
Ġcrypt ography
At tribute
Ġvisual ization
Ġproble m
labor ate
à¤ıà¤® à¤ıà¤²
Ġmeas ure
ĠValue Error
Ġappropri ate
E N
P lease
c alculate
f aces
j ust
k now
m an
m ut
m ig
n o
n ames
t y
t ax
w alk
y d
Ġ est
Ġa round
er net
à¤¿ .
Ġth row
Ġth ree
Ġs w
Ġc ause
Ġc ases
re l
Ġf ull
Ġp res
ar n
Ġm sg
à¤Ĺ à¤¹
Ġd am
Ġd aily
om ic
Ġb inary
à¤ļ à¤°à¤£
à¥Ī à¤ĥ%
ol ve
ĠC D
Ġà¤¬ à¤ľ
Ġst ill
à¤ĸ à¤£
Ġà¤ľ à¤Ĺà¤¹
Ġr ating
Ġà¤ħ à¤ª
ter s
Ġret rieve
ĠM QTT
ĠR E
pa ir
com ple
Ġ+ /
ĠB io
âĢ Ķ
Ġfunction ality
ĠG od
ĠO ct
load s
Ġpl ot
Ġcont inu
Ġpar sed
Ġse ver
par amet
En um
set tings
Ġrec ord
à¤¸à¤® à¤¯
Ġgo vern
Ġz ero
List ener
rib ution
Ġcomple te
ĠApp ly
ĠX ML
Com ponent
Ġspe ed
ynam ic
Ġoptim ization
rem ove
Ġlic ense
Ser ial
For est
ĠFran cisco
gener ate
Ġlicens ing
SM TP
ĠCont rol
ircu it
ĠCalcul ating
Ġaug mented
( $
A G
A lice
C L
E m
E laborate
N ew
P N
T ra
U S
U RL
U tilities
W indows
b lob
c y
k is
t ensor
} :
or th
à¤ķ à¤«
Ġf ew
à¤¤ à¤ļ
le y
le vel
is on
is ed
Ġin fo
et c
om s
à¤ı à¤Ĺ
el s
Ġ' {
ĠT ask
à¤ĩà¤² à¤°
à¤ĩà¤² à¤¨
est ure
Ġà¤¬ à¤ķ
Ġas k
urn al
Ġà¤ļ à¤°à¤£
ter n
ĠM ed
ĠR ed
Ġà¤ĸ à¤£
com e
ĠL oad
ĠU RI
ip her
ĠN L
ĠN o
ĠG UI
à¤¼à¥ĩà¤Ĥ ...
iv ing
Ġen ergy
Ġcl imate
Ġstr ateg
we ek
Ġpy tesseract
act iv
Ġpar sing
tr ue
py plot
Ġqu ick
Ġtrans fer
ĠQ R
Ġ4 0
Ġcre ates
ĠSt art
fil ename
Ġgo ogle
OS T
Cont ent
que ue
Ġscra pe
Ġdist ance
Im plement
à¤¸à¤° à¤²
Ġge osp
Ġlabel s
Ġexception s
Ġconstruct or
ĠTrans lator
Ġens ure
Res ponse
Ġallow ed
Ġcharact ers
Ġmemb ran
Ġtogg ling
Ġclip board
Ġanomal y
Ġgeosp atial
. )
: '):
D ate
F orm
H TTP
K eys
L ay
L ine
P h
R O
S ocket
U se
b e
b ase
b ody
c er
c ord
c all
i qu
k ens
m m
m ost
m ask
m anager
r c
s n
t ain
y outube
in c
Ġs plit
Ġc ur
à¥ĭ -
Ġt ag
Ġp otential
ut ting
Ġm or
ed er
Ġw ra
Ġd im
Ġb lood
Ġl it
Ġl ife
Ġre view
ch annel
Ġh app
ag ent
ĠT k
ĠT witter
Ġg tk
Ġst op
ĠD ec
pp ed
ab ilities
Ġà¤¦ à¤°
ĠM e
ĠR OS
à¤ī à¤¨
ug ht
Ġat tempt
ard s
sc an
cul ar
Ġqu e
set up
ne ctions
press ion
Ġà¤ĺ à¤Łà¤ķ
Ġag ent
Ġsign ific
des c
loc ation
auth or
ĠSc ra
ĠX lib
ĠCl ass
opt ions
Ġhead ers
Ġleg is
ka j
dest ination
ĠSo ftware
serv ation
Ġfix ed
Ġacquaint ance
(': ')[
Ġrelations hip
Ġbehavi or
" {
5 5
C or
C ell
C alculate
D o
E vent
I T
P S
d im
g ithub
l ike
m ode
o T
s ay
s qrt
t ag
t ab
u k
w s
w ind
} "
at ient
à¤² à¤Ń
Ġs ince
Ġà¤ķ à¤¡
Ġc ast
re port
Ġf un
al le
is es
à¤® à¤¤
Ġm ill
Ġm ask
Ġm ight
Ġw ar
Ġan g
Ġd ate
Ġd one
et y
et ition
Ġb ir
Ġb all
Ġb uffer
st atic
ĠA fter
à¤ģ à¤ĥ
() ['
ri es
ri de
ib ility
ass ert
Ġe as
ĠF etch
Ġ+ .
ĠL ea
ip s
ĠN et
In t
In put
Ġlist s
ac count
Ġpl atform
Ġcont in
Ġcont ract
ph a
ĠTh ere
ĠEx cel
Ġpar rot
tr uct
ĠImplement ation
Ġro und
ĠK eys
Ex ecute
ĠâĢ ĵ
à¤¾à¤ĥ %
aus s
Ġgo od
Ġeff icient
inter face
cho ol
ĠAr t
Ġauth ent
ĠCl ient
Ġatt ach
ĠHow ever
Ġacc ording
Ġinte ger
Ġsequ ences
ĠGener al
Ġframe work
ours es
Ġcommun ication
ĠAss uming
opt im
Ġexper i
Ġpropert y
Ġdem onstrates
Class ifier
mer ic
Ġpract ice
Ġdynam ics
spe ech
omet ry
Ġbu ilt
yt ics
' '
A P
A s
C ase
L O
O INT
P l
S u
V ideo
b uild
f c
f irst
g es
h older
l ur
p ub
r b
w eather
w riter
x el
Ġ ide
à¤ Ĳà¤¸
Ġa ctions
Ġa void
Ġth erm
at ar
à¤ķ à¤Ī
Ġs ide
Ġs ys
Ġs ense
Ġf all
Ġf ood
Ġo pp
ic y
ic ult
ur y
Ġd jango
Ġb ig
Ġb lack
Ġb oolean
ch ild
Ġn ear
Ġn ltk
ex ists
Ġh urric
Ġ' ,
à¤¶ à¤¬
à¤¬ à¤¦
() `
ul ner
Ġg as
Ġà¤ľ à¤®
Ġà¤ħ à¤Ń
Ġcon ditional
he ther
pl or
pl ate
ĠM essage
Ġex ecut
ĠB e
ser vice
Ġal ong
os es
ĠG PU
con nection
à¤Łà¤° à¤«
ens ity
ĠIn te
Ġpl ace
Ġautom ated
ĠJ o
ĠJ ohn
ĠAn y
Ġkey word
Ġext raction
ĠâĢ ĺ
Ġsm all
riv ing
atter ns
Re g
Re ad
Ġreg ion
Ġgo ing
ĠRe place
cont rol
apt op
Ġinst all
Ġdet ect
Ġsec urity
ĠPro cess
rib ut
ĠPy Qt
Ġdiffer ence
Ġph one
ipp ing
Ġ6 0
De lete
Ġcall back
sw ift
oug ht
à¤Ĩà¤īà¤Ł à¤ª
ĠGener ating
cis es
ene o
Ġec onom
leg ate
Ġcharact er
Ġpair s
alyz ing
local host
Ġdeter m
Ġneg ative
$ {
( &
A B
A ll
C H
D ense
E M
E S
F il
F rom
I f
I AudioEndpointVolume
R A
S ome
c aw
d uration
d raw
d omain
f ric
g raph
l st
r ing
r ange
u ded
w idth
} ',
Ġa x
à¤¿ -
at ra
re lu
Ġf ri
Ġf uture
le op
Ġp hot
it ude
im ages
ro du
ro sa
an es
Ġm onitoring
Ġw arning
Ġd ir
et er
as ing
as ting
Ġb ad
Ġl ower
Ġre action
ch ange
ĠP OINT
Ġ' %
Ġ' .
ĠT ra
ĠT ime
ul er
Ġg ames
ĠC ol
ĠC LS
ĠI oT
ĠD ep
ir us
end l
ĠF inal
ĠE T
Ġex ists
ĠB y
Ġal ways
ĠG ame
Ġres pect
Ġle arn
ĠThe y
Ġman age
Ġprocess ed
Ġpy game
act ive
Ġse ction
Ġcomm it
Ġadd s
ĠAn alyzing
comm it
Ġget ting
ĠAd ditional
pre c
Ġtest s
Ġcol lections
old ing
Ġfe atures
12 34
Sc an
Ġdep loy
Ġ200 8
Ġsum mar
Ġprogram s
ĠUn iversity
train ed
Ġmark down
book s
CT X
Ġens ures
med i
chem a
lam bda
Ġcell s
Ġaddition al
Ġappro ach
ĠÂ ·
avig ate
ĠAudio Utilities
oper ations
Ġindust ry
Ġcert ain
Ġmembran e
Ġlit tle
leop atra
ĠPOINT ER
ĠCLS CTX
" .
' m
' re
1 5
6 0
C all
L e
M ake
N N
P E
S H
a ded
c v
c out
d one
e v
i ers
k it
n ormal
r ag
s chedule
t ree
y cle
Ġ ...
Ġs leep
Ġf ib
Ġf urther
Ġp ix
Ġp atient
al f
al ar
Ġm ove
Ġto w
ent ly
us ion
Ġd ownload
à¤µ à¤µà¤¤
Ġn n
ĠA meric
ĠA fric
à¤¬ à¤¤
em ber
ra ke
Ġg rid
ist ic
Ġde cl
Ġà¤¬ à¤«à¤°
ĠD et
ĠD isk
Ġis instance
op e
Ġà¤ħ à¤¦
à¤ħ à¤Ń
pa red
ĠL oc
ĠG TK
ĠO ther
ĠO ptim
à¤ī à¤ľ
Ġsc an
Ġlist en
Ġad just
ther n
av or
Ġimp l
Ġper mission
Ġpar ent
Ġpar am
rol l
ak s
Ġpre vent
Ġsu ff
Ġne eded
Ġne ighbor
Ġanal ytics
ĠCon vert
Ġdi agn
ĠAd ding
Ġgener ated
Ġgener ator
Ġab le
onstr ate
Ġbuild ing
** :
** **
Ġfe el
ĠEn vironment
rypt ed
Ġsec ure
Ġam ong
Ġconst ant
col or
Ġcall s
Ġright s
Ġpop ulation
Ġu pper
div idual
ĠSer ver
Dis cuss
ĠDis play
Ġver dict
cor rect
Ġconnect ed
met adata
transl ated
Ġgre ater
Ġselect ed
Ġear ly
Ġcoordin ates
Ġdebug ging
DI R
Ġve h
Em pty
kis i
Ġque ue
auss ian
( _
C opy
E X
E Y
G roup
M od
O FF
P A
R ET
S O
T ree
U L
X lib
b rightness
c os
c ement
e q
j or
l ight
m ath
m ov
p ol
p loy
r al
s ort
s rc
u ro
w b
w indows
} %
Ġ vector
Ġa pi
Ġc are
Ġc olumn
Ġf ive
Ġt uple
Ġp ay
im est
ro le
à¤® à¤ķ
Ġin sert
Ġm ail
Ġm aterial
yth ing
Ġto day
Ġd u
Ġd ays
ort s
om an
Ġl atest
Ġre vers
st op
Ġh ot
ag ing
Ġ' (.
em b
ad min
ĠC ount
est ed
se qu
qu ential
ĠI I
ĠS ur
Ġst atist
ĠD es
Ġ` (.
Ġpro f
Ġpro file
Ġe ver
ĠM odel
Ġcom ments
Ġcom ponent
ĠH ind
ap s
ĠN ot
Ġbe g
Ġ} );
Ġle ad
Ġsc ient
ry ption
ill ing
ĠIn t
)) ,
ĠV iew
Ġj o
Ġun til
are d
Ġob tain
Ġqu eries
yn chron
Ġstring s
Ġcre ation
ĠList ing
net sh
ĠRe ad
Pro cess
Ġim medi
Ġstd out
Ġsec ond
send mail
Sc ript
Ġpos itive
Ġsupp ly
Ġvalid ate
Ġarg s
Ġprogram ming
Ġrel ated
Ġind ic
dat abase
ograph ic
Ġdest ination
UR N
Ġinclud es
cat en
Ġ+) '
Gtk Source
Ġproble ms
ĠRem ove
Col or
Ġsyn tax
Ġretrie ves
Ġdecor ator
Ġident ify
Ġrece ived
Ġexer cises
Ġfam ily
Rem ove
Ġassoci ated
ĠEnter ing
Ġlib rosa
know n
alle l
ĠLea ving
1 7
= (
= ['
> ();
I O
M in
N U
P erform
P oint
Q u
U sage
W eb
[ -
c a
c sh
c ss
d d
n etwork
o om
o ols
p atch
s d
s pace
} \
Ġ qrcode
th es
on acc
er ing
at t
at aset
Ġs it
Ġs witch
Ġc a
Ġc al
Ġp ublish
ro om
ar es
Ġà¤¸ à¤¨
à¤¹ à¤¸
Ġin dividual
Ġm us
Ġm ig
Ġm ole
Ġw x
us p
Ġd uration
Ġd raw
Ġb i
à¤ľ à¤¬
Ġl arg
Ġre fer
Ġn et
ex p
Ġà¤¹ à¤¸
') ')
Ġy ield
ĠC ustom
ĠC enter
ĠC leopatra
ĠS ec
Ġas ynchron
Ġv ulner
ir es
à¤ħ à¤¸
he ight
ĠM anag
ĠM icrosoft
ĠF ernet
Ġcom b
ĠL ang
ip edia
ĠW est
ide os
ang le
con text
Ġme ans
ĠO ne
Ġà¤¤ à¤°
Ġen v
able d
Ġsc reenshot
Ġsc anning
Ġlist ener
we ight
Ġac cept
Ġdis e
Ġqu ality
Ġext ern
Ġ5 87
Ġtrans action
log ging
Ġcount y
Ġcount ry
Ġwork ing
Ġcommand s
ĠY ork
new s
à¤¸à¤«à¤² à¤¤
Ġag ents
Ġvis ion
Ġvis ited
Ġsign al
ik ipedia
ĠPy game
Ġupd ating
Ġextract ed
Ġed itor
Ġtop ic
Ġacc uracy
Ġwrit er
Control ler
'} )
Ġdiv ide
Ġmat rix
ĠSimul ate
Ġincre ase
Ġprodu ction
Ġrepresent ing
Ġte le
Ġunderstand ing
Ġelectron s
Ġdiff icult
Ġà¤ĳ à¤¡
Ġassist ant
Ġmak ing
Ġassign ment
Ġforec asting
Man age
Ġlegis l
Ġexperi ences
Le vel
RET URN
imest amp
csh arp
onacc i
Ġasynchron ous
! ("
( __
+ ')
. __
> '
C D
C tr
C apture
D es
F unction
H E
L ib
M A
P DF
] +
a im
c ap
f ix
h ere
k g
k o
r m
r ations
s ol
t om
v is
v olution
à¤° à¤ħ
à¤° à¤Ĺà¤¤
er ial
Ġs ending
à¤¨ à¤ľ
ing er
Ġc ost
Ġc lose
Ġc apture
à¤¸ à¤ıà¤®à¤ıà¤²
Ġt ree
à¤¤ à¤ľ
Ġp ipeline
Ġin str
Ġw hether
us ed
Ġan t
Ġan not
Ġan swer
Ġb urs
à¤µ à¤¯à¤¨
Ġre le
Ġre main
un e
ch e
ĠP lay
ĠA lex
ĠT uple
ol ine
id ence
Ġà¤® à¤Ī
Ġg aming
ĠI d
Ġst ock
ĠD iff
ĠD jango
ith er
op andas
ab out
à¤ħ à¤ķ
end ar
Ġ1 8
ĠM iss
ĠR uss
ĠR estart
Ġà¤ªà¤° à¤¸
ĠB ut
ser ies
Ġk ind
à¤ªà¤° à¤¸
'] ['
__ )
Ġsc ikit
ĠIm port
ff ic
ys c
Ġtra ditional
Ġse em
Ġdis cover
Ġhe ight
Ġoper ator
ov ing
ĠQ iskit
à¤ıà¤¸ à¤¡
Ġgener ation
Th read
pe ech
Ġra di
lay out
ĠAPI s
Ġlo ading
Sc alar
Ġrem ind
trans form
train er
Ġport s
Ġed iting
Ġmark et
Ġcorrect ed
Ġbook s
Ġsupport s
Ġlay er
chem y
Ġà¤ľà¤¬ à¤¤à¤ķ
Ġinf lu
power ment
Ġmed ical
Ġmanip ulate
Ġquest ions
Ġappl ied
Ġfit ness
por ary
Ġmaint ain
Ġdig ital
ĠFind ing
Tra ce
Ġwra pper
Ġsignific ant
ĠOptim izing
Ġextern al
Ctr l
- %
. %
2 9
C ustom
D eb
F act
F ound
F IL
K it
L M
N E
T rack
_ ,
b alance
c ast
c ript
f ree
g n
g en
g ery
l ers
m ove
n ext
n AI
p ush
r s
r ar
t mp
t ls
w ater
y r
Ġ ign
in ess
er apy
à¤² à¤¸
Ġs ession
à¤¨ à¤Ł
Ġc ult
Ġf low
Ġp ap
Ġp ast
Ġp ick
Ġp aint
à¤Ł à¤µ
Ġin vo
Ġd ialog
imp l
am bda
ch at
Ġ( "
Ġ( '
ĠP tosis
Ġh ind
Ġh old
Ġh ouse
Ġà¤¹ à¤²
ĠA ut
Ġà¤² à¤Ĺ
ĠS imple
Ġde lay
Ġv ia
Ġ1 5
for cement
pl icate
Ġ" -
ĠF TP
ĠR andom
Ġch em
art ment
à¤Ĩ à¤ªà¤°
ip e
ĠG I
ĠG NU
à¤µà¤° à¤ķ
In ter
Ġsc ore
Ġlist ing
Ġà¤ī à¤²à¤Ł
Ġimp act
ĠTh ese
Ġtra ffic
Ġpar allel
Ġse en
sh ore
sh util
Ġdis cuss
Ġpre d
Ġser ies
Ġser ial
list s
Ġhand ler
ĠCh at
olum ns
ĠK ar
vent ory
Ġoper ating
Ġdo or
df File
Ġcurrent ly
atter Bot
string s
Ġemail s
rec ent
ĠY our
12 8
Ġstart s
Ġpos sible
Ġsent ence
Ġextract s
Ġstruct ures
Ġfl ask
ĠAr ray
Ġinte gr
Ser vice
Wh en
Ġenum erate
std out
asc ript
Ġlicens es
Ġhash lib
alyz er
head ers
Ġdecor ators
ĠIs olation
Sub ject
Ġiniti ative
Ġcr ude
ĠUS B
Bo x
Autom ate
ĠRE ST
Ġmor ning
Ġhapp en
desc ription
truct ure
GtkSource View
usp icious
Deb ug
. ',
1 8
C urrent
F etch
I ON
M aster
N one
P T
R OM
] ['
] ])
b b
b ound
c d
d iff
h anc
j av
k es
l i
l at
l ast
m usic
p erson
s ql
t we
x y
Ã ©
in f
à¤° à¤²
on es
es ar
Ġf inally
Ġf ailed
à¥Ģ .
Ġt ell
Ġt reat
à¤ª à¤¹à¤²
à¤¯ à¤¬
ro ute
ar ation
Ġin j
Ġin depend
Ġm ob
Ġw or
Ġw ays
Ġan im
om es
om en
Ġb attery
Ġl ater
Ġl aptop
à¤ĩ à¤µ
Ġre direct
Ġre verse
am ent
ch ar
st ack
ex ception
Ġh aving
ĠA N
à¤¬ à¤¹
') ;
em ents
ol ler
ot ify
um Py
ĠC all
ĠI NT
ist ry
ĠD i
ĠD r
ĠD ist
ab lish
Ġà¤ħ à¤ªà¤¨
Ġcon vers
Ġcon duct
Ġe y
pl ac
pl ane
ĠM ode
ĠR oller
ers ion
ers hip
ser ve
ĠL ear
to ols
Ġprint s
iv irus
à¤Ľ à¤°
oc ity
Ġad min
te am
par am
par ams
rol ler
Ġpre dict
Ġne ver
Ġmod ules
ĠCh atterBot
Ġout side
Ġext ends
Ġ5 0
Ġdirect ly
start tls
riv es
ĠSt ep
Ġstate ments
Ġsimul ations
Pro gress
St ack
Ġplay er
Ġ19 9
tem p
Ġwho le
Ġcomple t
Ġsum mary
pack ages
Ġdesc rib
point s
Ġed ge
Ġactiv ities
Ġpass ed
dat etime
Ġoptim ize
Ġfilter ing
Ad min
Ġpost s
Ġlevel s
Ġdiv ision
Ġfin ish
ĠDevelop ment
Ġent ry
su ite
App lication
resh old
ighb ors
Ġremov ed
Ġter ms
af ka
Ġproper ly
Ġfrequ ency
ĠOption al
yper clip
ĠRep ort
ĠCa esar
Ġgovern ment
Lay out
Ph one
optim izer
Ġwarning s
Ġhind i
jav ascript
. ")
E qual
G Object
I t
O Auth
O UT
a u
b on
c p
c am
c ore
h andler
i B
j esh
m app
m sc
m ak
m onitor
o ver
p attern
r as
y ear
« Ð
Ð «Ð
Ġ ur
Ġà¤ ł
in forcement
à¤° à¤Ń
Ġa ff
or ing
or row
Ġs ix
Ġs ays
Ġc atch
Ġc lick
Ġf ig
à¤¸ à¤«
Ġp atterns
à¤¯ à¤µà¤¸
ar ity
Ġin valid
Ġin coming
Ġm ount
ic i
as p
ort un
Ġb r
ch an
Ġn odes
il io
ĠP ost
ĠT em
em ble
ad o
ĠS D
ĠS w
Ġde code
Ġà¤¬ à¤¢
ĠD ouble
Ġv el
and a
à¤§ à¤°
Ġe po
Ġ1 4
ĠM ark
ĠE mp
pa ign
ĠB l
ip es
ĠH is
ĠN umPy
Ġprint ln
à¤Ľ à¤ª
Ġà¤¤ à¤ķà¤¨
Ġà¤¤ à¤°à¤¹
Ġen g
oc a
Ġcl oud
à¤ī à¤ªà¤²à¤¬
Ġnot es
Ġad ult
Ġ0 2
Ġsh ows
)) )
Ġà¤ī à¤Ń
av ed
ph p
Ġx ml
Ġclass ification
Ġem ploy
Ġimplement s
Ġ< /
ud ents
Ġmod ify
ĠCh ile
Ġà¤Ń à¤£
Ġtrans port
Ġinter n
ech o
pre d
Ġcol lection
Ġcol labor
ĠRe g
ĠĠĠĠĠĠĠĠ Ġ
ensor s
rec ogn
rec ipient
Ġpart s
urs ion
Ġps y
valid ate
ĠURL s
ĠâĢľ %
ĠUn ion
Ġstud ent
Ġformat ting
pack age
num s
qr Met
sp ec
types cript
Ġtwe ets
Ġ20 12
Ġenc ryption
SS L
Ġexpress ions
host name
Ser ver
Ġcommun ity
ĠVal id
Ġdesign ed
Ġpoint s
Ġlay ers
Ġq iskit
Ġdepend ency
Ġdepend encies
Act ive
Ġexer cise
Ġtechn ology
Ġquest ion
ĠDN A
plic ates
Ġcam paign
Ġsepar ate
56 78
Def ault
Ġredu ce
Ġdam age
Ġstrateg ies
kaj ha
ĠInte gr
ĠJo urnal
ribut ed
prec ated
avor ite
EX T
Ġrevers ed
jesh kajha
" >
6 5
= $
> (
C anvas
D AT
G ame
K EY
N etwork
P ix
W ork
W ait
b ell
c ate
c ell
d rop
i eve
k ind
l ate
m t
m os
n el
p in
p id
q c
r est
r ating
s z
s ign
s orted
t ar
z A
Ġ esc
Ġ etc
in sert
th ers
Ġa ch
at ives
à¤ķ à¤¤
à¤ķ à¤ł
Ġs d
Ġs un
Ġs ite
Ġf u
Ġf lo
Ġf olding
Ġt erm
à¤¤ à¤¸
Ġp ut
it is
à¤¯ à¤¦
de c
an a
al yze
Ġm al
Ġm ice
ed itor
Ġto uch
us ers
Ġd en
Ġfor ms
Ġfor ward
Ġb ind
Ġl ive
el ay
Ġre ach
il it
ĠP OST
Ġh ea
Ġh istory
ĠA ll
ul ated
Ġg l
Ġg round
ĠC an
ri zon
ĠS ome
ĠS ud
ĠS peech
ist or
à¤· à¤¤
ab ly
Ġpro t
Ġà¤ħ à¤¸
Ġcon f
Ġcon nections
ea ker
à¤ħ à¤ªà¤¨
Ġe ither
Ġ1 3
Ġ1 7
ĠM IM
ĠF irewall
ĠR ea
ĠR AM
pa per
pa che
ue ue
com press
Ġà¤ªà¤° à¤¤
Ġex ceed
ĠB rit
ser ial
ĠH ttp
ĠN OT
ĠG it
Ġ} ;
Ġme chan
Ġapp ear
ĠO b
ĠO per
Ġle aves
oc urrency
Ġ[ "
ire fo
Ġare as
Ġsh op
ĠV PN
Ġspec ial
ĠIm pro
ph et
ous ly
Ġun its
Ġun ittest
Ġclass es
PI PE
Ġpre c
Ġint rodu
Ġro om
list dir
vent ion
à¤ļà¤¯à¤¨ à¤ķ
po se
Ġra dio
ĠĠĠĠĠĠĠĠ Ċ
Pro perty
ĠPro gram
Ġmet rics
Ġeffect ively
Ġsa f
Ġpr im
Ġcorrect ly
ĠCom mand
Ġreport lab
Ġenc oding
à¤®à¤¦à¤¦ à¤Ĺ
Ġpol it
Dis play
me thod
ĠZ IP
doc ument
Ġfact orial
Volume Level
à¤¯à¤ªà¤° à¤Ł
Ġequ al
Ġvisual ize
Ġlink s
25 6
asc ade
Up date
Ġà¤ıà¤® à¤¡
Ġhard ware
Ġinteg ers
Ġflu id
Ġcho ice
comple te
ĠMed ic
ĠFetch ing
Ġeconom ic
Ġdeterm ine
uro pe
ysc ale
ĠKar uk
Master VolumeLevel
irefo x
MasterVolumeLevel Scalar
( ('
/ .
0 4
: \\
> >
B utton
C SS
D em
E mail
F e
H e
I C
J son
S L
S o
S imple
S QL
V ersion
a verage
c al
c ity
c md
d ll
e am
e qual
g z
l a
m o
m essages
s ys
s entiment
u fact
v f
w orld
w ait
x ls
y aw
Ġ )
Ġ ip
in a
on ly
on ial
or ed
or gan
er ic
er os
Ġs ort
Ġc irc
Ġf our
Ġf aces
Ġt ap
Ġp ages
it les
im read
à¥ĩà¤Ĥ )
à¤® à¤§
ct s
Ġin c
ut f
ut orial
Ġm icro
ent ion
Ġd irs
à¤ı à¤¨à¤¯
Ġb l
Ġb ar
Ġb us
Ġb urn
am ily
st ream
ĠP er
ĠP an
ĠP rom
ĠP ath
ex ec
ĠT ech
em pty
ra ft
ol at
ce an
Ġg c
Ġg if
Ġg ain
Ġg ran
ĠC G
ĠC o
est s
rit y
ĠS F
ĠS M
Ġde cre
Ġpro b
ig ning
Ġcon current
Ġà¤¦ à¤¬
Ġe le
pl ore
Ġ" ,
Ġ" __
ĠH andle
Ġwh ite
ĠG ulf
iv il
Ġle ast
Ġen ough
Ġma jor
Ġnot e
run And
Ġlog ged
Ġup on
sh ip
sc reen
Ġautom ation
rol es
ĠJ an
Ġser vers
Ġhe at
request s
ĠK DE
rain er
eld rake
ĠâĢ ¢
Ġinter actions
ĠDe bug
Ġcount ies
ĠSt atus
atter bot
Ġcol lect
ĠRe ading
cont ains
Pro duct
St art
Ġpart icle
ĠEn g
tem perature
ann ed
ann ot
sum mary
Ġ200 6
struct or
Ġà¤Ī à¤®
ends with
pert ies
ĠPy PDF
box es
Ġarg ument
wh ere
Ġbec ame
sp an
Gener ate
Ġpe er
ma zon
Ġdisplay ing
Ġsur prise
Ġatt ack
Ġdest roy
Ġpol l
Ġocc urr
Dis able
Ġaut o
Ġcomp iled
Ġconstruct s
IN G
Rec ord
gy pt
Ġver ify
Ġaccount s
Ġcrypt ocurrency
install er
Ġlay out
Sp ec
Ġdynam ic
spe ed
Ġ\ (
Ġte am
ĠQu antum
Ar ray
field s
ĠPl an
Ġmanip ulation
Ġbel ow
Ġappl ies
Ġcompreh ension
dum p
dum ps
Inst all
ĠIndi a
Ġà¤Ĩà¤īà¤Ł à¤ª
++ )
mat rix
RO OT
ĠMe thod
ĠTra cing
Copy right
ĠHind u
Ġannot ations
Ġpap er
OAuth Handler
Ġvel ocity
xls x
runAnd Wait
( -
2 3
4 4
8 5
B luetooth
C P
C PU
D O
E P
G L
G PIO
H ash
M O
N M
O ver
O ption
P assword
T E
U rl
V ariable
Z ip
] ):
b t
c lean
e le
e very
f tp
h ance
h anced
k i
l ang
l atest
l ibrary
o very
s id
s ample
t imes
u ck
v ity
v ious
w ay
w av
Ġ ir
or ig
er ry
Ġth ough
à¤ķ à¤¤à¤®
à¤² à¤ª
à¤¨ à¤¤à¤®
Ġc os
Ġc ity
Ġc oca
re qu
re po
Ġf ar
Ġf eder
à¥Ģ :%
Ġt ur
à¤¤ à¤¤
Ġp df
de lete
im ents
al ind
is f
à¥ĩà¤Ĥ %
à¥ĩà¤Ĥ ,
ct ools
Ġin sp
ut down
Ġm er
Ġm id
Ġw ide
Ġw all
ic ial
as ons
à¤ı à¤ļ
Ġb ug
à¤ľ à¤¶à¤¬
Ġl ik
Ġl ambda
Ġre inforcement
à¥Ī à¤ĥ
ow ers
ĠP re
ĠP lease
ĠP dfFile
Ġh ear
Ġ' '
ĠA rizon
à¥Ĥ -
ĠT ri
ra b
(' ,
ul a
Ġg r
um e
um p
ĠC ar
ĠC eneo
qu ares
ist ration
ĠD ocker
lo id
Ġr ules
ib onacci
ter m
Ġe p
ĠM od
ĠM ay
ĠM ary
ĠM use
ĠE urope
ĠE gypt
oun g
ĠB lock
Ġk eras
cl es
Ġuse ful
ĠN e
ĠG all
ĠG raph
ĠG PIO
ult ip
'] ")
con f
Ġapp ends
res ource
ĠO ver
Ġle ading
In fo
Ġ[ [
Ġsc en
ens im
Ġstr ong
ant ity
Ġà¤Ķ à¤ľ
Ġsh are
Ġpl anning
Ġcont act
Ġper missions
ĠTh at
Ġtra ce
Ġpar ams
sh ort
sh ift
Ġtext blob
are a
sc ra
An y
par ent
à¤«à¤² à¤¤
Ġdis c
ak es
ĠJ son
Ġset up
Ġpre dictions
Ġpre pared
Ġro t
Ġro ute
list en
count ry
Ġi Phone
à¥Īà¤Ĥ ,
Ġperform s
Ġext rem
Ġtrans lator
Ġinter faces
les h
Ġsimul ating
rec ord
Ġdevelop er
Ġmin imum
Ġstart ed
à¤Ĩà¤Ī à¤¡
ific ations
Ġlet ter
Ġsec ret
result s
Ġ_ ,
ched uler
Ġdec ision
Ġsign ature
Ġsign als
Ġiter tools
Ġbec ome
Ġstud ies
Ġinitial ize
Ġmet adata
Ġeffect ive
Ġrel ative
ret urn
Ġactiv ity
Ġwebs ocket
Ġwebs ites
ric ity
Ġpack ages
Ġenc ounter
"" "
Ġoptim izer
ĠMy Class
Ġmov ie
Ġocc urs
Rec ogn
Rec ognition
ĠSQL ite
Ġexper ience
Ġrest art
dep th
Not Found
Ġ9 0
Ġfact ors
Ġdoes n
valu ate
Ġschedule d
Ġpract ices
task s
Ġtransform ed
Ġmemb ers
async io
Ġregist ry
Ġrobot ic
Ġdeter min
Ġtechn iqu
ĠPl ace
ĠExtract ing
Ġcent ury
ĠIndi an
Ġregister ed
({ '
Element Tree
ĠCAL s
SELECT OR
idd en
ĠConfig uration
rel ated
Ġsever al
Serial izer
Forest Classifier
US ER
ĠTk inter
wind ll
Ġfun ctools
Ġcontin ue
Ġround about
Ġexecut ed
Ġpatient s
ĠAfric a
PA TH
Ġindic ating
Ġlarg est
Ġtele path
FIL E
Ġmob ile
ĠLear ning
mos ph
ĠSud an
Ġpolit ical
ĠSF TT
ĠMuse um
Ġtechniqu es
) ):
/ {
3 5
4 7
5 2
< >();
A ccess
C y
C lose
C OM
C ircuit
D raw
D VD
D ialog
F ailed
G ET
I I
L o
M M
M ax
O per
T otal
W S
] (
a z
b uffer
c enter
d ays
d ouble
d riving
e ff
e ven
f g
g ent
g mented
g lobal
h old
h ood
i ation
k y
l in
m ount
m qtt
n d
p ad
t w
u pper
v ars
v anced
w mic
x l
Ġ ill
Ġà¤ Ĭ
er ke
Ġth ing
at tr
à¤ķ à¤£
à¤ķ à¤ħà¤ª
en um
Ġs on
Ġs ources
à¤¨ à¤µ
Ġc y
Ġc rit
Ġf und
Ġf ont
Ġf oot
Ġt each
Ġt itles
Ġt utorial
it ect
it ute
ar ing
Ġà¤¸ à¤ª
Ġin s
Ġin side
Ġin her
Ġin ventory
Ġm ix
Ġw ild
Ġto ward
ic ies
ic ated
Ġd ark
Ġb rightness
à¤µ à¤¯
à¤µ à¤¶
Ġl ove
Ġl iving
el per
à¤ĩ à¤¡à¤°
Ġre act
Ġre actions
Ġre asons
am ount
il ing
ĠP C
if iers
ĠA R
ĠA mazon
ĠT we
ol es
ce ived
ul ating
ĠS ay
Ġde ath
Ġde precated
Ġst ats
rom ko
ver ts
ĠD VD
lo ve
pp ing
ab ases
Ġcon cept
Ġcon sole
ĠM r
ĠM in
ĠM et
ĠR oman
Ġcom pare
ĠB ar
ĠB ot
Ġch art
cl f
di ent
à¤Ĩ à¤Ł
ĠU sage
ip y
yp es
Ġwh ites
ĠN ational
Ġsp eak
Ġres olution
'] .
con s
con v
Ġme et
ĠO r
ĠO CR
Ġle d
all ow
In sert
ug s
ens emble
ĠIn cre
Ġat mosph
Ġsh utting
Ġspec ies
Ġà¤ī à¤¤
av ian
act ly
Ġj oint
Ġclass ifier
time out
Ġopen py
ell ing
Ġac ross
sc ale
sc ribe
class es
Ġpre pare
ash ing
Ġhe ader
Ġà¤Ĩà¤ª à¤¨
ĠCh ar
ĠK afka
Ġrec ipient
Ġperform ing
Ex tract
ov ed
Ġdirect ories
Th ere
Ġread s
Ġcalcul ated
St atus
Ġnum er
Ġà¤ĺ à¤°
quire d
Ġplay ed
Ġpath s
Ġcomple tes
à¤ħà¤ª à¤¡
Ġarg parse
ĠUn ited
Ġcustom er
Ġcontain er
red dit
Ġind ices
pos it
Ġfind ing
Ġpr inc
Ġscra per
Ġtrain er
ĠFor est
Ġneed s
Ġtrack er
iod iversity
fl ict
Ġaddress es
Ġgroup s
ĠDis cord
ĠFile NotFound
Ġsn iff
const raint
Ġnames pace
ĠWeb Socket
Config uration
Col lection
agn ost
ĠReturn s
ipel ines
Ġregist ration
Ġinv est
Ġrespon sible
Valid ate
transl ate
ffect s
Ġmonth s
mark s
Ġoccur red
ĠCor rection
Ġmak es
IG H
comp ile
ĠNetwork X
Widget s
Ġinteg rity
Ġsat i
Ġadv anced
Ġcompar ison
paramet ers
ĠNL P
activ ated
Ġattempt s
ĠScra ping
assert Equal
Ġauthent ication
Ġtherm al
ĠAmeric an
Ġdiagn os
ĠDisplay ing
Ġveh icles
mov ie
Ġstatist ical
caten ate
Ġpublish ed
ĠManag ement
ĠGI S
ĠChat Bot
Ã© e
Ġcollabor ative
Ġesc ape
ĠSpeech Recognition
ĠRea ct
Dem onstrate
olat ility
ĠQuantum Circuit
ĠGall ery
erke ley
Ġopenpy xl
ĠFileNotFound Error
) `
2 8
: \
> ';
? .
B uild
D C
D im
E O
F l
G db
G PL
H O
L ock
M icrosoft
N um
P age
Q ueue
R ed
T O
V er
b re
b an
b ed
b attery
d ot
d istance
e el
e ction
f ol
f lu
f etch
g ray
h as
h ome
i ant
i ost
k ill
l ong
n t
s ound
s amples
s ensors
t uple
u x
u id
v p
th ost
à¤° à¤ĸ
or ded
Ġth ought
Ġth reshold
es p
à¤ķ à¤ļà¤°
en ed
en ous
en ames
Ġs v
Ġs lic
Ġs chool
Ġà¤ķ à¤Ī
à¤¨ à¤Ī
Ġc odes
à¥ĭ ,
Ġf ill
Ġt ally
à¤¤ à¤¬
à¤ª à¤¦
Ġp yperclip
im Ã©e
ro ub
.. ..
à¤Ł à¤ħà¤ª
à¥ĩà¤Ĥ /
Ġo ct
Ġin fl
Ġm ood
Ġm qtt
Ġw ins
ic o
Ġan c
Ġd ro
Ġd ock
à¤¡ à¤ľ
à¤ı à¤ª
à¤ı à¤¡
à¤¼ à¤ĥ
Ġb py
à¤ľ à¤®
Ġl aw
Ġl iter
el ves
el come
à¤ĩ à¤ªà¤°
à¤ĩ à¤¥à¤¨
Ġre pe
Ġre lease
un ittest
Ġof fer
à¥Ī ?
ĠP i
ex ico
Ġh alf
ĠA re
ĠA ug
ĠA imÃ©e
ĠT w
') ,
() [
ol ved
ul ations
Ġà¤® à¤¤
Ġg ay
se lection
ĠS elenium
ĠS VD
ĠS SH
Ġst imul
Ġst orm
à¤ĸ à¤¤
ver ity
lo ok
Ġà¤° à¤ľ
op h
Ġ` __
Ġas pect
pt ime
od cast
Ġcon c
ter ed
ir d
ay es
à¤ħ à¤°à¤ķ
Ġreturn ing
he et
ĠM on
ĠM at
ĠM al
ĠM oses
ĠM iB
ĠM exico
ĠF ROM
ĠE con
up load
com ment
ĠB ase
ĠB ook
Ġch ain
Ġch atterbot
os ition
ĠH ash
Ġà¤Ĩ à¤¸
ial ly
ap an
per iod
Ġsp read
ĠW ith
Ġdef inition
to kens
res ize
def ined
ĠO S
à¤ĩà¤¨ à¤ķ
In itial
In dex
Ġà¤ıà¤ķ à¤²
Ġsc apy
row s
print ln
we ights
Ġà¤ī à¤¸à¤ķ
ĠTh read
Ġ* /
app lication
Ġtra vel
à¤¾à¤ģ à¤ĥ
enc rypted
Ġse lection
Ġse gment
Con nect
Ġautom atic
rol ename
ge thost
ĠJ apan
PI D
Ġser ve
vers ions
ob er
ĠImplement ed
Ġdat abases
EA P
gr id
ER T
Ġgener al
Ġab ilities
vir tual
Pro gram
ĠY acc
Ġass ess
ton y
Ġcomput ational
Ġjson ify
Ġà¤ĺ à¤Łà¤¨
Ġdet ailed
Ġev olution
Ġev idence
my loid
Ġstart up
Ġiter ate
To ken
Ġart ist
Ġart icles
ipp ed
label s
Ġed uc
Ġdist ributed
Ġcorrect ing
AR Y
à¤ĺ à¤Łà¤ķ
acc uracy
Ġfilter ed
CVS ROOT
à¤¤à¤ķ à¤ļ
Se gment
me an
Ġlong er
sub ject
Ġgra yscale
ĠFran ce
Ġprodu ce
Ġorig in
25 5
det ect
Sp eak
Ġà¤īà¤ªà¤¸ à¤°
Ġà¤ħà¤µ à¤§
Ġregist rar
Ġcap abilities
Ġsuccessful ly
Ġmonth ly
uc lear
Ġplugin view
Ġperiod ic
Java Script
Ġcam era
Ġwin reg
Ġclear ing
Det ector
-------- --------
raint s
Ġprotocol s
eap est
paramet er
ĠRed dit
Ġrelationship s
Ġhurric anes
plor er
Ġfri ends
Ġlower case
ĠAdditional ly
Ġimpl ies
}% ')
Ġmail ing
Ġmig ration
ĠRandom ForestClassifier
5678 90
ĠBrit ish
ĠImpro ving
equal To
ĠArizon a
Recogn izer
iost ream
( *
: ]
> <
A ut
B uffer
B lur
C ourses
D est
D ep
E ditor
H andle
O r
P re
P ol
V is
\ ']
b l
c ache
d p
e es
f in
g s
g it
g ames
h ex
h ib
i epy
m onth
r ist
r ated
r ong
t ml
u ation
u ction
u ary
v ariable
} /
à¤° à¤¦
à¤° à¤«à¤²à¤ķ
à¤° à¤¥à¤®
Ġa myloid
er ation
at lam
à¤² à¤¡
en viron
Ġs l
Ġs ample
Ġs ensor
Ġthe ms
à¤¨ à¤¨
Ġc et
Ġc our
Ġc raw
Ġc riter
Ġc ache
re lease
Ġf ish
Ġt re
Ġt ax
à¤ª à¤²
à¤ª à¤¢
Ġp ub
Ġp etition
it ution
im show
al ing
al ary
is or
is ing
is ec
ar ck
Ġà¤¸ à¤«à¤²à¤¤
Ġo thers
Ġin it
Ġm ass
ent ry
ur ations
as te
Ġb ound
Ġb ene
à¤ľ à¤ķ
Ġl ot
Ġl ights
Ġre ason
am pl
am ma
un ity
st ract
Ġn x
Ġn ation
Ġn uclear
il er
ĠP res
ĠP andas
ĠP lot
ex ecution
Ġh tml
ess or
Ġ' --
Ġ' +')
ĠA c
ĠA ct
ĠA ir
ĠT V
ĠT EXT
ra ys
ra vir
ra jeshkajha
Ġg ive
Ġg ym
ad a
ad io
se ction
à¤£ à¤§à¤°
ĠS U
ĠS entiment
ist ics
Ġde v
Ġst ri
Ġst age
Ġst ory
ĠD EAP
lo it
Ġà¤° à¤ķ
Ġv i
Ġv acc
ext ension
Ġcon verts
ir m
à¤ħ à¤²
à¤Ń à¤µ
for d
pl ication
ĠM an
ĠM usic
ĠM aking
Ġit self
com ponents
Ġà¤ı à¤¨
Ġ2 4
Ġal pha
cl one
Ġcan vas
di ction
ĠL in
ĠL ink
ip ment
ain er
ĠH and
ĠH igh
Ġwh y
ap es
ĠN ode
Ġbe gan
ĠG ET
Ġsp qrMet
Ġres istance
ang es
Ġdef ines
iv ate
__ `
__ ()
__ ":
Ġ- =
à¤¯à¤¨ à¤°
à¤ī à¤¤
à¤ī à¤ª
ill a
Ġsh ape
Ġpl ant
Ġar m
app y
Ġà¤°à¤ĸ à¤¨
Ġup load
Ġem powerment
ud ent
En able
ĠJ ul
Ġsu it
port s
Ġro ad
ĠAn tony
Ġi OS
ĠK ey
à¤ĩà¤¸ à¤ķ
Ġrec orded
Ex ecution
ĠCon nect
Ġoper ators
à¤¸à¤¬ à¤«
Ġgener ating
Ġgener ative
pre dictions
ĠDe vice
Ġcor re
ax is
Ġgo al
Ġvo xel
Ġra ises
ond on
arch ive
Ġinst ead
ron es
rypt o
pr ing
Ġwho se
ĠPro phet
Ġrem ote
find all
Ġdep th
trans lator
ik o
Ġdiffer ences
Ġincl uded
19 8
train ing
ĠApp lic
ĠSc anning
ker nel
Ġdist ances
Ġenvironment al
Ġtwe et
ma de
Ġdisplay s
ah o
of s
Ġge oc
Ġmov iepy
Ġzip f
download s
fl ix
Log ger
Ġsr c
ism arck
Ġdr ag
Ġexper iments
Ġgraph ics
cor pus
Ġfact or
Ġequ ations
det ails
leg ro
Ġpartic ip
AC K
Qt Widgets
Ġorgan is
let ter
ĠSh eldrake
ĠData Frame
thread ing
Ġref in
Ġmeas ures
Ġgu ide
Ġrespon ses
Ġfac ial
Ġfac ilities
ugg est
ĠInter net
Ġperson al
ĠInst itute
avig ation
bu f
Loc al
ĠDN S
Ġgrow ing
Test Case
Inst ance
Def inition
Ġmean ing
Ġprom pt
Ġevalu ation
Ġarch itect
dig est
Ġconsider ed
AG E
Ġgoogle trans
Ġdim ensions
Ġmill ion
Ġang le
Ġbir th
LO G
Video Capture
AB LE
Fil ter
1234 567890
Ġsummar ization
sequ ence
ĠSur gery
Ġbeg in
thes is
Ġmole cular
weight ed
ĠRuss ell
Track er
Ġpred icate
ĠDist ribution
recogn ize
Ġhea v
Ġprim ary
Ġbus iness
ĠEurope an
lesh oot
Ġrestart ing
ĠTwe epy
ĠSay ing
agnost ic
IGH T
roub leshoot
ĠMat plotlib
atlam i
Ġthems elves
ravir atlami
- {
- ]+
. '
2 1
: /
= \
> ,
> </
A NT
B O
B ack
B ase
B ob
B lock
B SD
C lick
D i
F A
F amily
G I
H ead
I TH
L Y
L oad
N ote
P rint
R ep
R ender
R elay
S w
S um
S ign
S imul
S witch
S tructure
V ector
W indow
] }
] ...
] ]:
b ind
c ar
c op
c ustom
c olumn
d t
f i
f ri
f ly
f ect
g t
h igh
i us
i am
i ate
i ra
i id
j s
l ta
m on
m ood
p ip
p ending
r tr
r atch
r ames
s k
s olution
s uff
t d
z e
z one
Ð Ŀ
Ð ł
Ġ rig
th ough
on al
on ym
Ġa str
Ġa bo
er g
Ġth erapy
at io
en u
en ess
Ġs f
Ġs ens
Ġs outh
Ġs aved
Ġà¤ķ à¤Ń
Ġc at
Ġc enter
Ġc ross
Ġc ourses
re act
Ġf ron
Ġt end
Ġt ts
le arning
à¤ª à¤¶
Ġp ers
Ġp ain
Ġp ict
Ġp lease
Ġp ipelines
de ed
ro s
ro py
an it
ar c
Ġà¤ª à¤¬
Ġw on
ent ation
Ġd ign
Ġd rones
et ary
et ree
ort on
om ew
à¤ı à¤¨
Ġfor ces
Ġb al
Ġl ab
à¤ĩ à¤ķ
Ġre ference
un ique
à¥Ī %
... '
Ġn il
il es
Ġ( )
Ġ( -
ĠP e
ĠP ort
ĠP ower
ĠP eter
ĠP anda
Ġh yd
ĠA er
ĠA pr
ĠT able
ou thern
() );
ot or
Ġy oung
Ġg w
Ġg ray
um ar
ĠC ould
ĠC SS
ĠI AudioEndpointVolume
ĠI cons
ĠS O
ĠS k
ĠS he
ĠS end
ĠS ample
ist ant
Ġde le
Ġst ar
ĠD ataset
Ġà¤ħ à¤ľ
Ġcon sum
Ġcon flict
end um
ĠM onitor
ĠF ace
ĠF irst
ĠF ree
Ġà¤ĸ à¤¦
Ġcom types
Ġcom bin
ĠE ach
ĠE cos
pa ca
up d
com ponent
pro perty
ĠB ismarck
Ġà¤ı à¤¸
cl us
à¤Ĩ à¤Ĺ
ĠL ibrary
Ġà¤Ĩ à¤¯
ap sed
ĠG o
Ġres izing
Ġ} ,
'] [
'] }
Ġprint f
ĠO k
Ġà¤¤ à¤¹à¤¤
Ġcl aim
Ġman ufact
à¤ľà¤¨ à¤ķ
à¤ľà¤¨ à¤°à¤²
ep ad
à¤ī à¤ľà¤°
Ġsc ience
ug ins
path s
ens ive
ant ic
ĠIn cl
ĠV is
ĠV ideo
Ġpl aces
Ġpy caw
read lines
Ġlog s
Ġtra it
sh op
sc ious
py game
py caw
ak er
ge ometry
Ġob servation
Ġprov iding
") ,
ĠK romko
ĠK umar
Ġrec overy
Ġperform ed
Ex ample
Ġfiles ystem
play er
pre dict
pe ed
arg ument
Ġ$ {
ify ing
ĠĠĠĠĠĠĠĠ ĠĠĠĠĠĠĠĠĠĠĠĠĠĠĠ
web site
Ġsub sc
Pro ceed
Pro perties
ym er
SI G
Ġnum s
Ġmin ute
Ġmin imal
test s
Ġ19 2
Ġstart ing
à¤ĵ à¤¡
ful ly
send er
token ize
Ġdec imal
Ġsupp orted
back up
cc ording
Ġco ver
Ġtak en
Ġtak ing
Ġthere fore
pack et
Ġover ride
Ġoff icial
lean up
Ġsa fe
by tes
Ġhigh er
Ġoutput s
Com p
Com mand
De legate
vo xel
AR T
AR RA
ĠCom mit
Ġfl ight
Ġ. =
Ġbot o
ĠDef ender
Id ent
Ġwrit ten
ĠRes ult
ĠRes earch
Get Speak
Ġdr one
ĠSQL Al
Ġgraph s
Ġgra vity
Ġcrypt ographic
Ġaw ay
Ġmatch es
Ġequ ipment
Ġec o
ĠSe e
ĠSe quential
amp oline
ĠRem oving
Ġsol ar
Ġsyn chron
Ġ\ )
Ġspa ces
Ar g
Ġless on
copy right
Act ivate
Ġlimit ed
Ġstor age
Ġexist ing
Ġhost s
âĢľ %
Ġtri als
Ġsepar ated
Ġclean up
ĠSp otify
ref ix
Ġstand ard
Per mission
ĠWork ing
Ġcaus es
mig ration
Ġest ablish
ĠOct avian
esture Detector
Ġball ot
Ġaccording ly
Make files
Ġlisten ers
Ġimmedi ately
Min imal
Ġdise ase
Ġlegisl ature
ĠMiss ing
Ġchem ical
Ġhappen ing
Ġindepend ence
Ġdescrib ed
ĠTem ple
ĠEmp ire
istor ical
Ġexceed s
ĠJan uary
MO DE
requ ency
Ġsv n
Ġcet ane
ĠApplic able
cop g
Ġabo ve
ĠEcos ystem
GetSpeak ers
ĠSQLAl chemy
! '...
' \
' ve
) }
. """
9 8
> )
A ss
A gent
B alance
B erkeley
C K
E G
F O
G raph
G ood
H ub
I s
I con
I ST
L ink
M ulti
M icro
N umber
P O
T uple
W x
W ID
] );
b c
b est
c pl
c xt
c ategory
c ounter
c fg
d ar
d om
f alse
g h
g ood
h at
h ub
h andle
i ver
k u
l ating
n on
p ag
r r
r im
s sh
t x
w atch
x HE
y l
z he
Ġ er
Ġ ord
Ġ ];
ĠĠ Ċ
in v
in ated
à¥ĩ ?
à¥ĩ à¤ĥ
or thern
er ed
à¤¿ à¤ĥ%
Ġth us
at re
at om
Ġs imp
Ġs ure
Ġs uspicious
Ġthe ory
Ġc apt
Ġc ircu
Ġc ipher
Ġc ivil
Ġc cxt
re le
Ġf irewall
Ġf avorite
Ġt alk
Ġt imestamp
Ġp ush
Ġp aho
it ch
it iz
à¤¯ à¤ķà¤°à¤£
al ert
.. /
Ġo cean
Ġm o
ed irs
Ġw idget
Ġto kens
ur i
ur face
Ġd a
Ġd rives
à¤¡ à¤²
om iting
à¤ı à¤¤à¤¨
Ġl ack
à¤ĩ à¤ľ
Ġre qu
Ġre ward
Ġre plac
Ġn orth
Ġ( $
Ġh or
Ġh yper
ag ram
if orm
if ference
ĠA v
à¤¬ à¤°
à¤¬ à¤¢
') ]
Ġy et
Ġg ender
Ġg yr
ĠC opy
ĠC ounter
ri ed
ĠS plit
ĠS lack
ĠS EO
Ġst ates
ab a
Ġv ot
Ġv ac
Ġà¤ħ à¤¬
urn ament
Ġon ce
and s
à¤ħ à¤Ł
à¤ħ à¤°à¤¬
put er
Ġe th
ĠM ake
Ġ" "
ĠF e
ĠF ound
ĠE lect
pro gram
pro fit
Ġex c
Ġex port
Ġex pect
Ġex plain
ĠB ool
Ġà¤ı à¤ª
Ġal most
ĠL e
ĠL ight
ĠU K
Ġwe ights
ĠN a
ĠN orth
ĠN aba
process ed
Ġfunction al
ĠG M
ĠG erm
per mission
per missions
res ents
iv ision
ĠO ff
out es
Ġ[ (
Ġstr ength
row n
Ġby tes
ress ion
Ġweb page
oo se
te ch
ph ot
ph ones
Ġtra de
Ġopen ed
enc ode
Ġpar ser
sh utdown
ign ment
Con nection
ĠJ ane
Ġob ser
ob ot
Ġmod ern
Ġanal yz
ĠAn alyze
ms i
error s
Ġrec ording
Ġrec ipe
Ġext ension
ĠIt em
iss ion
Ġreal ly
Ġtrans formation
à¤¸à¤¬ à¤ķ
à¤ıà¤¸ à¤ª
Ġgener ally
Ġab ility
Ġso on
open ai
pre trained
Ġcount s
Ġread y
cont ract
Ġra ised
ĠĠĠĠĠĠĠĠ ĠĠĠĠĠĠĠĠĠĠĠĠĠĠĠĠĠĠĠ
line ar
ick er
Ġcalcul ation
ond ay
Ġsub mit
Pro v
Ġ> >
ĠY OFF
Ġcomput ers
direct ories
Ġ10 24
Ġpath lib
Ġ19 8
12 3
ific ial
amet ers
à¤·à¤® à¤¤
Sc anner
Ġsign atures
ik to
à¤¦à¤¨ à¤¶
col n
ĠX OFF
fore ver
Com ple
Ġpr ices
Ġchar ge
à¤ĺ à¤°
Ġreport ed
ĠAl so
sec onds
dis able
Ġatt ention
Ġtem plate
Ġtem porary
OR T
gress ion
Ġthread s
Ġpol icy
Ġmov ement
Ġbot tom
ĠNew s
ĠSer vice
ĠSer vices
ĠGener ate
Ġelect r
Ġ100 0
ĠRes ources
Log in
ĠTrans form
Ġcommun ities
ĠAss istance
Control s
Ġens uring
sm art
Ġhead lines
Ġow ner
ber g
TH xHE
ĠFran k
At tributes
Ġsymbol ic
Ġpatch es
ĠSe q
det ail
By tes
Ġenter ing
do or
Ġorgan ized
Par am
Ġsol ve
Ġturn ing
omet imes
Ġloop s
Ġtransform ers
ĠTo ol
Valid ator
Act ivity
Ġrece ive
ĠTrain ing
ugg le
Up load
Ġremov ing
Ġstor ms
bu fs
Ġbel ie
Ġiniti atives
ĠGet ting
Request Handler
Ġcompreh ensions
AS A
Det ect
à¤ĳ à¤ª
GTK mm
Ġclo sed
dic ates
Ġ80 80
Dec ode
Ġpres ence
ĠBio python
Ġcontinu ed
Pl ugin
Ġide as
Ġhurric ane
Reg ister
Delete Dialog
ĠCol or
Ġpix bufs
ĠOther wise
Ġfeel ing
Mod ule
Ġinsert ions
Ġdu plicate
att ach
Ġswitch ing
Ġmus cle
Des ktop
sol ute
Ġburs a
Ġrele ased
Ġseem s
move To
Ġinvo k
ĠArray List
ĠREST ful
Debug Context
Ġtreat ment
mak edirs
Ġfig ure
ĠSD L
Ġadult s
ĠIntegr ated
Pix buf
Ġprot ect
ĠGit Hub
Ġshop ping
Ġgc j
ĠDebug Context
ĠMary land
Ġscen ari
Ġwhites pace
posit ory
Ġslic ing
Ġconc ern
Ġbene f
ĠLin coln
Sw ap
WID THxHE
zhe imer
Ġcircu its
WIDTHxHE IGHT
! (
! ',
' %
. *
0 5
0 9
3 3
3 00
5 00
6 9
8 00
> ")
B ay
C an
C ON
D oc
D uration
F irst
G l
H ost
H elp
H ero
I V
I TK
M D
N e
N et
N ow
N ames
N avigate
O f
O ne
P air
P otential
P ACK
Q R
R F
R EAD
S ample
T em
W OR
[ ::
\ .
a e
c ule
c ourse
c ipher
d ub
d ocker
e th
f ound
f requency
g u
g ments
g pu
h and
i i
i os
i ology
l on
m c
m k
m ime
n orm
n odes
p d
p ay
r yth
r atic
s chema
t m
t led
t ology
u ples
v ar
v ec
w n
w arning
y les
in x
er od
Ġs amples
Ġs ometimes
à¤¨ à¤«
Ġc ir
Ġc ounter
Ġc ards
Ġf ail
Ġt imer
Ġp ri
Ġp tosis
de cor
an alyzer
ion al
is Active
à¥ĩà¤Ĥ âĢ¦
ar b
Ġin correct
Ġm m
Ġm ur
Ġm ind
Ġw omen
ent ication
Ġan n
Ġd ire
Ġd fs
Ġd riving
om in
om ial
Ġb at
Ġb ill
Ġre place
am m
un k
st or
st ub
st ock
st udio
st yle
Ġn ature
Ġn avigate
ĠP r
Ġh our
Ġh ope
if ies
ĠA ccess
ĠT ABLE
ou ch
ra p
ec ially
ad b
ĠC oding
se cts
ĠS u
ĠS ub
Ġà¤¬ à¤¡
lo ss
lo aded
ig ma
Ġcon sumer
ir ing
ly ing
Ġe Bay
iz ations
for ce
pl atform
ĠM ar
ĠM ath
ĠM emory
ĠF ibonacci
Ġcom press
Ġcom pression
ĠE ar
ĠE rr
pro f
Ġex it
ĠB ooth
ser vices
Ġal tern
Ġcan not
di ents
ĠU t
ip al
ĠH urric
âĢ ĺ
Ġsp atial
Ġres et
ĠW ashing
Ġ} )
Ġà¤Ĺ à¤¹à¤°
ang ed
à¤¼à¥ĩà¤Ĥ .
con vert
res et
Ġprint er
ĠO OM
ran ch
ack ing
Ġ[ ])
00 00
ug ged
Ġdes erial
Ġad apter
Ġsh own
ject s
Ġinput s
Ġà¤ī à¤¨
av atar
act ivity
Ġmanag ed
ys ql
Ġ3 00
Ġun it
enc ing
Ġse ed
tr ampoline
ell ig
Ġac com
aut o
En v
ĠJ ames
PI trampoline
Ġpre par
Ġpre fix
Ġob serv
Ġqu al
Ġint v
Ġro s
). __
ĠCon nection
Ġnetwork x
Ġdo ing
ĠAd vanced
ov en
Ġinter est
Ġgener ic
Ġmy zip
Th ese
Ġcre d
Ġcre dit
log ger
Ġwork out
Set tings
ĠSt ates
ecut or
Ġcol le
du ction
rec ipes
ym bol
Ġim m
Ġmin ing
(). __
12 0
cre te
ĠEn hanc
inter est
([ [
Cl ip
board s
Ġ200 4
order ed
Ġloc ated
Ġline ar
Ġpos s
wh ats
Ġsk ills
co ordin
Ġoff ers
Ġmet al
Ġmet als
Ġcontain ers
ĠWh y
Ġrel ig
ential s
Gener al
Ġno thing
AL U
Ġpr ime
Ġdist ribution
PU T
20 22
uff le
Ġpop ular
Ġfl ush
ĠAl zheimer
ET ext
Ġfilter s
rem ind
Ġpol ymer
ren ch
Ġview er
Se quential
IN S
ĠTrans lating
Ġexper iment
Not es
Res ult
={ '
ru pt
ĠWeb D
Ġsubject s
Ġà¤¸à¤¬ à¤¸
Par ser
Ġspa cing
Ġspa Cy
Ġauthor ized
Trans action
Trans actions
Trans late
Ġphys ics
Ġchatbot s
Ar t
Ġhim self
Ġgu ard
power cfg
Ġresearch ers
Ġapply ing
Ġtr uth
ĠInst all
Ġremov es
Ġfocus ed
ank Account
depend ency
Loc ate
RE G
Ġbro ker
ĠPar se
Ġsound s
plic ated
40 4
Ġbackup s
Action Group
Ġstream ing
ĠRec ognition
Ġparticular ly
Ġcoordin ate
gra de
Ġimpro ve
go ing
step s
++ ;
ĠGe opandas
Ġrecogn ize
Ġpur pose
Ġmot or
Ġmot ion
Sec ond
Ġcaus ed
mig rations
ĠURI s
week day
HTTP RequestHandler
sn ippet
Ġeas ily
Ġauthent icated
Ġplace holder
ĠProcess ing
Some thing
ĠTime out
ĠDep artment
Ġdeploy ment
Call back
Ġdecl aration
ĠLoc ating
Ġadjust ment
correct ed
Ġscient ists
Ġvulner ability
ĠLang uage
MA X
Ġremind ers
ĠSimple ITK
ĠIsolation Forest
ĠDi agnostic
ĠMark eting
Ġemploy ees
Ġintern ational
Ġpsy copg
Ġach ieve
Ġfu el
Ġmechan ism
Fe ature
So ftware
Ġcirc le
ĠTech Soup
ĠEng lish
Ġpoll ut
Over ride
Zip File
Ġlik ely
Ġtrace back
ĠPlace holder
eff icient
Ġatmosph eric
flu x
esp ecially
Editor Insert
isec onds
ĠPres ident
ĠspqrMet ric
Ġgeoc oder
ITH OUT
Ġdign ities
ĠIncl uded
Ġsimp ly
rele ases
PACK AGE
WOR D
decor ator
ĠWashing ton
ĠEnhanc ing
ActionGroup EditorInsert
# [
% ...
. ");
/ ;
9 6
: ",
> /
A ge
A pi
B R
B ar
C ourse
D ict
D ataset
D WORD
E B
E ach
E ven
F ree
G B
H K
H older
J S
J SON
L I
L ab
M e
M ode
M ask
N D
P ost
P refix
R est
S C
S ay
S peed
T op
T orch
U P
V irtual
W orld
W AR
Y ear
] ))
a plib
b r
c m
c ut
d en
d aily
d ynamic
e f
e qu
e valuate
g ree
h n
h ow
h ours
i et
k p
l im
m gr
n c
n ed
n ers
n amed
o ch
o ader
p ix
p ite
s ell
s quare
s heet
s pring
t imestamp
u a
w l
w rit
w ide
y ing
Ġ especially
in itial
in ner
à¤° à¤ªà¤Ł
à¤¿ )
en ers
Ġs ender
Ġs aving
Ġs ales
Ġs cheduler
Ġc d
Ġc ut
Ġc ook
Ġc lock
Ġc ircuit
Ġf oss
Ġf aster
Ġf lex
Ġt m
Ġt un
Ġt ick
Ġp x
Ġp in
Ġp an
de bug
im ize
an ded
al ysis
al pha
al oader
is ode
ar row
à¤® à¤¨
Ġo dd
ct l
Ġin ner
Ġm is
Ġm ar
Ġm atter
ed In
Ġw indows
Ġw idth
Ġw rong
Ġto ge
ent al
ur a
à¤Ĺ à¤ķà¤°
Ġd b
Ġd ri
om ec
Ġb ed
Ġb ul
Ġb orn
à¤µ à¤§
Ġl at
Ġl im
un ordered
ch a
ch rome
st ore
à¤ļ à¤ķ
Ġn ight
Ġn orthern
ĠP rint
ĠP ark
ĠP aint
ĠP erson
Ġh ero
Ġh idden
ess ions
Ġ' ).
ĠA ust
ĠT ags
ra pe
() ))
ol id
ol ver
ot a
Ġà¤® à¤ķà¤¡
Ġg pu
ec ause
um ul
ĠC lear
ĠC apt
ĠC ategory
ĠC apture
ĠC leanup
ri al
se q
int eg
ction aries
ĠS n
ĠS elf
ĠS oci
ĠS IG
Ġst ores
ĠD irect
Ġ` _
ab it
pt oms
Ġv ol
Ġv omiting
Ġà¤ħ à¤²à¤Ĺ
and er
Ġe q
pl ish
ĠM er
ĠM ap
ĠM ax
ĠM arch
ĠM aps
ĠF A
ĠF urther
ĠF inger
ĠF rench
Ġcom e
ĠE X
pa irs
à¥ĩ. ?
Ġex plore
Ġex actly
ĠB ash
Ġ2 3
Ġ2 5
Ġ2 55
ind ices
Ġal loc
Ġk ids
os h
à¤Ĩ à¤µà¤°à¤£
ip able
Ġsp ent
Ġsp eaker
Ġres ize
ĠW ar
ĠW ill
Ġà¤Ĺ à¤¨
ang er
Ġme eting
Ġapp end
Ġor g
Ġle aks
Ġà¤¤ à¤¯à¤¶
à¤ĩà¤¨ à¤ª
Ġen viron
Ġma pping
In cre
text ure
ep s
à¤ī à¤£
Ġsc ipy
lib gn
Ġdes ired
print er
ĠIn c
own er
load ing
ĠV ALU
Ġpl ans
Ġpl ants
ff ee
oo st
ost at
Ġun pack
app ly
ĠEx ecute
=' +
Ġtra iling
enc er
Ġse ason
Ġse gmented
sh a
sh ell
ign ore
der ly
Ġel derly
An alyzer
ud es
En gine
ob s
Ġhe el
ĠAn chor
EA TE
Ġhand s
ĠCh rist
low ing
ĠK ing
ĠK eras
rain ing
Ġext ra
Ġ5 6
Ġ5 00
à¤¡à¤° à¤²
Ex ecutor
Ġ/ >
Ġdi ctionaries
Ġinter pre
Ġinter net
ler t
Ġ4 4
add ing
Ġab s
Ġact ually
Ġwork ed
Set MasterVolumeLevelScalar
ĠSt ate
Re gression
ĠRe quest
Ġra il
Ġra fter
Ġcalcul ating
Ġcalcul ations
Ġim ag
Ġim aplib
Ġdevelop ing
Ġass ass
St ream
Ġeff ort
Ġinst ances
Ġag re
Ġplay ing
jo hn
ĠEn gine
List Item
Ġhow ever
rypt ing
Cl oud
Sc rape
Ġserver less
Ġsupp l
Ġconst raints
Ġcontrol ling
Ġbec omes
Ġinitial ized
Ġed ges
Ġfind ings
Ġà¤ªà¤¹ à¤ļ
ST R
ng Scanner
Ġpack ets
sec urity
Ġoptim izing
Ġrep resents
rem ote
Ġexpress ed
orn hub
ĠSer ial
me ans
Ġlong est
ĠRet rieve
Object s
fe ed
fe atures
tt y
Ġav g
Ġpower ful
state ment
sub scribe
Ġfre igh
OM E
UR I
Ġcons ist
Ġrow s
Ġincre ased
Ġincre asing
Ġprodu ced
install ing
ru ction
Ġhum ans
Ġent ire
Ġmac ro
AM E
met rics
Ġdoc uments
Ġcopy right
Ġspa cy
ĠQu ant
Auth or
Ġgu ess
Ġretrie val
Item s
Ġthink ing
Ġinv olved
part s
ĠInst agram
Ġfeed back
Ġstor ed
Ġold er
AT ION
disk part
ĠCor rect
Ġ"$ {
Ġtogg le
Ġacquaint ed
Ġcent ral
à¤ĳ à¤¡
CR EATE
ref resh
Ġforec ast
Ġevalu ate
rand int
Ġutil ity
Ġsat isf
Ġlock ing
Ġrender ing
ĠCa rol
Ġpercent age
Ġest im
Ġcontinu ously
Ġask ed
Line ar
Ġreview s
ĠScra py
IT Y
Int ensity
Ġplatform s
Ġefficient ly
Su pp
Su ccess
Ġopp ortun
pol arity
Ġmaterial s
Ġimmedi ate
Usage Tracker
sd k
Ġdise ases
Ġdivide d
Ġant ivirus
Ġburs itis
Ġradi us
Ġremind er
Ġign ore
Ġcult ural
twe et
ĠINT O
Ġcomplet ion
Ġcomplet ely
mapp ing
ici ency
ĠBl ender
spec ified
Ġflo or
Ġsaf ely
Ġburn ing
Ġele v
Ġoccurr ences
Install er
Option s
Ġfeder al
ĠTri pp
Ġextrem ely
Ġencounter ed
Ġoct ane
Ġanc ient
Ġstimul us
Dest ination
ĠSentiment Intensity
Ġvacc ine
Ġarchitect ure
Rep ort
Vector izer
suff ix
Ġastr onom
ĠApr il
ĠSO HO
Micro phone
Prov ider
ryth ngScanner
Ġmur der
Ġaccom plish
whats app
INS ERT
ĠWebD river
Ġfoss il
Ġtoge ther
omec anvas
ipable View
libgn omecanvas
ĠVALU ES
ĠAnchor Type
ĠSentimentIntensity Analyzer
" ))
' ll
) ['
, ))
0 2
3 6
A F
A fter
B G
B J
C ore
C olumn
D ynamic
E ffect
G V
G PU
G RA
H ttp
L C
L a
L ang
L eg
M ove
P osition
R andom
S A
S ize
S yn
S urface
T i
V Box
W T
\ '
_ %
_ {
b urn
b and
b ols
c an
c ial
c mp
c ross
c eneo
c raft
d ist
f resh
g a
g le
g aussian
h ell
h ook
i ot
j ac
l p
l r
m g
m ore
m ix
m onitoring
m etic
n es
p x
p ed
p ass
p andas
p owers
r f
s l
t run
u kaj
v d
v ement
y al
z z
z ero
| |
Ġ ]
Ġ ic
Ġ 00
in ity
th r
th metic
à¤° à¤ªà¤¤
à¥ĩ à¥¤
Ġa ware
Ġa ffect
or a
en n
en ch
en abled
Ġs im
Ġs ust
Ġs ock
Ġs ud
Ġs ong
Ġs ites
Ġs qrt
Ġs ampl
re al
re boot
re quired
à¥ĭ %
Ġf i
Ġf ast
Ġf ixing
Ġf rames
à¥Ģ :
Ġt rig
Ġt ags
Ġt uples
Ġp i
Ġp et
Ġp un
Ġp iv
Ġp ause
Ġp alind
de lta
im m
im ed
im med
im ately
an ish
al chemy
ar ily
Ġà¤¸ à¤ļ
ct ypes
Ġm ic
Ġm ist
Ġm ural
Ġm outh
Ġw id
Ġw est
Ġw ood
ur ch
Ġd lib
Ġd ash
à¤¡ à¤¤
Ġfor ce
Ġfor est
Ġb rack
à¤µ à¤ľ
Ġl ost
Ġre ve
Ġre pository
am a
un der
import s
st ro
à¥Ī !
à¥Ī )
à¥Ī ..
Ġn u
Ġn ut
Ġ( !
Ġ( `
Ġh it
Ġh yp
Ġh eld
Ġh eap
Ġh omes
Ġh oles
Ġh istorical
Ġ' ',
Ġ' </
Ġ' ''
Ġà¤¨ à¤Ī
if fer
ĠA ction
ĠA SD
ĠT esseract
') }')
ra ise
(' \
ol iv
ot s
ce eded
ul ing
Ġg lob
Ġg reen
Ġg esture
ec ast
ad es
ad os
ĠC O
ĠC olumns
ri thmetic
se ek
ĠI F
rit ual
ĠS ort
ĠS team
Ġde li
Ġà¤¬ à¤¹
Ġst ars
à¤« à¤¸
ver ter
ver ify
ĠD ate
lo sing
lo sed
op s
Ġpro c
pt ical
Ġv ideos
ext end
Ġcon vention
ea ce
ir is
Ġe val
iz on
iz able
for ward
for Each
ĠM ill
ĠM edia
ĠM organ
Ġ" )
ĠF our
ĠF OR
ĠF eder
ĠF IT
ĠF irefox
Ġimport s
à¤Ī à¤Ł
ĠR P
Ġcom plicated
ĠE d
ĠE PO
com puter
ĠB iodiversity
ord s
Ġal tered
os ystem
di ctionary
art icles
à¤Ĩ à¤¨
ĠL ondon
Ġà¤Ĩ à¤µ
Ġà¤Ĩ à¤ªà¤°
ĠN ext
ĠN ote
ĠG u
ĠG PS
ĠG ensim
Ġsp ect
Ġsp ell
Ġres ized
ĠW ild
ĠW ARRA
ide d
get window
con sole
Ġapp s
Ġle ave
Ġà¤¤ à¤¤
Ġcl us
à¤ł à¤¹à¤°
à¤ī à¤²
à¤ī à¤ļ
Ġsc ale
Ġpo em
ĠIn dex
ĠIn valid
ĠIn iti
Ġsh ut
Ġsh ip
Ġsh aring
Ġsh apes
ĠV irtual
Ġà¤ī à¤¸
:// {
Ġtime delta
av id
Ġpy dub
Ġpy getwindow
ard en
Ġar ms
act er
ient ation
Ġun d
Ġclass room
ĠEx plorer
Ġtra vers
enc rypt
ual ization
Ġem erg
Ġà¤ļà¤¯à¤¨ à¤ķ
Con st
Ġautom atically
Ġpre fer
Ġpre tty
Ġser ving
ob e
Ġint ake
Ġint ended
ĠAn t
fer net
ĠK now
gr ind
Ġrec ent
Ġget s
Ġdo ctor
Ġtrans actions
ĠQ M
Ġresult ing
Ġform ula
ugh ter
input s
pre v
riv ed
ĠSt udents
arg o
ach ine
ĠRe ader
du plicates
ick s
Ġthrough out
rec v
Ġdevelop ers
St yle
Ġeff orts
Ġpart ition
Ġag encies
ĠOpen NM
Ġ19 7
File Clip
OS E
jo ke
Ġsome one
List eners
tem plate
valid ation
ĠPro duct
Sc ale
min ute
à¤Ĩà¤° à¤ıà¤²
Ġdep os
trans action
Ġam end
ĠPy Torch
Ġvalid ating
Ġco efficient
Ġco ffee
Ġformat s
Ġover all
loc ations
Ġoff spring
Ġdesc ript
ĠSc ient
Ġmulti processing
ie ce
à¤ªà¤Ł à¤²
map s
Ġind icate
pos es
Ġblock s
Ġà¤ĩà¤¸ à¤²
Ġpop ulate
ĠCom m
Ġfl ag
Ġreport s
Ġempty ing
ern ary
Ġpack et
ĠAl legro
ĠAr ts
Ġsym bols
Ġge opandas
Ġatt ract
ĠMy SQL
ograph ical
Ġpol icies
Ġmov ing
Ġmov ies
oss ible
erm ine
Ġsql alchemy
Ġhelp s
Ġgen omic
fl ush
Ġcomp any
Ġdefault dict
Search CV
IN E
[" \']
Get ter
ĠZ one
Ġdr am
Ġdr ug
state ments
sm Handler
Ġnamed tuple
Ġgra dients
Ġcons ists
User name
Ġdem onstrate
Ġspace craft
Ġtab s
Ġenum eration
rid ge
Ġfetch ing
Ġorgan ization
Ġsol vent
Ġdomain s
Ġrepresent ation
ĠAdd ress
Ġweek ly
ĠQu Ti
Ġinf ras
format ted
Ġiss ue
Ġrobot ics
sa fe
ugg lers
ĠInter n
Ġfeed parser
Ġair plane
Ġter rain
Ġexist ence
bu y
Ġà¤ĳ à¤«
Ġà¤ĳ à¤ªà¤°
à¤Ĺà¤¤ à¤¤
Ġbro ught
tra der
Ġshow ed
Ġsound device
Ġcompreh ensive
Ġast ro
Ġtri al
Ġgrow th
ĠOn ce
Table View
ĠLog ging
gra d
ĠPh ys
Ġclo sing
Ġprom ote
Ġmut ing
Ġrecogn izer
dic User
ĠPol and
ĠPol ish
à¤Ńà¤° à¤¨
Autom atically
Task s
idd le
yd ra
ĠNL TK
Ġstrateg y
Event Log
Ġang les
Ġbir d
Ġeas y
ĠNet flix
Ġcontin ues
Ġopp os
Ġgas oline
plor ation
ĠGPU til
Ġcallback s
Fil es
Ġax es
normal ized
rag ment
Ġtow n
ĠDet ect
Ġimpl ied
aks i
Ġupper case
Ġveh icle
SO CK
Ġdu plicates
Ġhot key
emb ly
ĠDes igning
Ġprof ession
Ġever ything
Ġcal endar
Ġdraw ing
Ġrefer endum
exp ected
Ġcomb ination
Ġinflu ence
Fact ory
Ġcult ure
chat bot
ĠAut o
Inter val
Ġdiscuss ion
bound ary
ĠAN Y
ĠSw ift
DAT E
drop out
sz ukaj
Ġtouch pad
ĠCan ada
ĠMIM EText
Ġprec ision
ĠProm pt
Ġprob ably
Ġattack s
Ġdestroy ed
à¤ıà¤ļ à¤Ł
ĠPdfFile Reader
Ġgr ass
ultip art
ĠSFTT rainer
nd array
Ġill ust
Ġinher its
Ġchart s
ĠOr der
Ġdiagnos ing
ban ana
ĠEcon om
ĠLink edIn
Sign ature
Ġfron t
ĠFace book
Ġcombin ed
Ġsynchron ization
Ġhyper parameter
ĠElect ricity
ĠOff shore
Decode Error
[:: -
erod ynamic
Ġdire ction
Ġpollut ants
integ ers
Ġenviron ments
ĠCarol ina
GRA Y
powers hell
Ġsust ain
Ġpiv ot
ĠMorgan a
ĠWARRA NT
Ġemerg ency
ĠOpenNM T
ĠQuTi P
) "
) [
* )
+ )
4 8
5 8
6 7
: ")
= [
? ,
A V
A v
B e
B ut
C E
C lear
C OL
C ENT
C md
D D
D ay
D ifference
E lect
F T
H OME
I AL
L ibrary
M AC
N O
N ING
O ut
P ower
P ool
P icker
P OSE
R ow
R ad
R ea
R ole
R obot
S ession
T w
T rainer
V M
V S
V PN
W idth
a ff
a pache
b d
b k
b ro
b row
b asic
c il
c ost
d ados
f ast
g lob
h int
h ide
i or
i at
l arge
l aration
m al
m enu
n x
n an
o x
p m
p ri
p ile
p ipeline
r st
r ich
r atio
s y
s pa
s ive
s quares
t rack
t ags
t Color
v m
v an
v ant
v ision
w est
x Diff
z eros
Ġ ion
Ġ et
Ġ ess
Ġ ::
à¤¾ !
in y
in ct
or ation
or ity
en vironment
Ġs ed
Ġs word
Ġs quares
Ġs outhern
Ġc ame
Ġc op
Ġc pu
Ġc nt
re p
re et
re fs
à¥ĭ /
Ġf ine
Ġf lower
Ġf ulf
à¥Ģ ...
à¤¸ slot
Ġt rib
Ġt rie
Ġp a
Ġp ing
Ġp eace
im onial
ro ts
al ice
is ofs
à¤Ł à¤²
ar ter
ar ial
Ġm on
Ġm om
Ġm ock
ed ges
Ġw ake
Ġw ish
Ġw ait
Ġw alk
Ġw ife
Ġto urnament
ic ing
Ġan ything
Ġd ot
Ġd ies
Ġd ocker
as a
Ġfor each
Ġfor ens
Ġb ra
Ġb unch
Ġb ranch
à¤ľ à¤µ
Ġl st
Ġl ate
el lect
el ines
Ġre q
Ġre lay
Ġre boot
Ġre pair
st ats
st udents
Ġand roid
Ġn xt
Ġn avigation
ĠP atch
ĠP UR
ĠP ART
Ġh on
Ġh elper
Ġh abit
ag ents
ag raph
ag ues
à¤¶ à¤¤
ĠA b
ĠA uth
ĠA ccount
ĠA WS
em at
em powerment
(' #
(' [
() ).
ol ving
ot es
id x
id ers
ce led
Ġg ot
Ġg old
Ġg ather
Ġg rand
ad am
ĠC rypto
ri ct
se verity
qu ence
int e
int ake
ĠI O
ĠS chool
ĠS SL
ist ure
Ġde ap
Ġde limit
Ġde legate
à¤ĸ à¤°
ĠD omain
Ġis n
Ġ` $
ab bit
ig ible
Ġà¤ħ à¤ĸ
Writ er
ext ra
Ġcon volution
ir th
ir ation
Ġwith draw
à¤ħ à¤Ĺ
Ġ1 1
pl an
ĠM ost
ĠM ER
ĠM ov
ĠM AR
Ġ" (
ĠR adio
Ġcom ets
ĠE st
ĠE vent
ĠE bb
pa int
Ġà¤ĩ à¤¤
Ġà¤ĩ à¤®
com pare
pro ject
ine ar
Ġex pen
ĠB ack
ĠB ert
ĠB lack
ĠB ugs
Ġà¤ı à¤ļ
Ġ2 1
Ġ2 2
Ġ2 6
ind iv
Ġal arm
cl i
Ġcan celed
os sh
à¤Ĩ à¤µà¤¶
ĠL a
ĠL eg
ip config
ĠH istory
Ġà¤Ĩ à¤¨
Ġà¤Ĩ à¤ı
ĠN ative
ĠN atural
ĠN ASA
Write Line
âĢ ¢
Ġbe am
ĠG mail
per f
per atures
Ġsp am
ĠW ikipedia
ĠW ITHOUT
key word
'] }')
'] },
get Page
con catenate
Ġme al
Ġdef e
Ġor b
ure d
iv al
ĠThe ir
à¤ĩà¤¨ à¤²
oc c
ran ty
Ġma pped
00 1
à¤ī à¤¸
Ġsc ratch
Ġnot ification
ry ing
val ence
ac s
ĠV o
ĠV ec
Ġpl ate
Ġcont em
we et
Ġweb cam
:// <
Ġnew line
Ġà¤¸à¤® à¤¸
Ġj ud
Ġx r
ĠTh ink
ĠTh erapy
Ġun ivers
work ing
enc oding
enc oder
Ġse ek
ell ow
Ġac id
ock ing
Ġcomm ission
Ġdis pen
ĠJ ava
ĠJ une
bo se
Ġpre diction
Ġpre dicates
Ġqu ite
Ġqu antity
Ġprov ider
vers arial
rect angle
Ġne ur
Ġint ensity
Ġint ellig
Ġro ut
Ġro pe
Ġmod ifications
AI L
ĠCh ild
Ġrec ursion
Ġext end
Ġext ended
Ex tern
Ġà¤¬à¤¦à¤² à¤¨
ml ink
ĠQ Label
ĠQ Widget
ĠQ Application
ĠQ VBox
start ed
Ġform ed
Th at
log s
system s
Ġcor ner
ĠSt ud
arg v
ĠRe al
du c
cont act
Ġra dar
web socket
Ġcalcul ator
rec ording
Pro file
Ġfe et
gorith m
Ġeff iciency
ĠPerform ance
dition s
ĠOpen AI
ĠOpen GL
Ġdet ail
Ġbo ot
ĠEn um
ency List
ful l
Ġscript s
Ġvis itor
Sc ores
Ġdep ends
Ġ200 7
trans port
Ġ_ )
Ġtw ent
Ġtw ilio
ik a
Ġiter ation
Val a
cho ices
ĠCre ates
Ġsk y
ĠSc i
ĠSc ience
ĠSc ikit
Ġmulti plication
Ġhigh est
ĠWh ile
output s
IL ITY
Ġ8 00
Ġno ise
Ġcall ing
Im ages
Ġfl ags
sec ond
ĠAr gs
Ġ20 11
Ġchang ed
connect ed
rem oved
Check er
Ġmov ements
command s
Ġgen e
Ġgen re
fl ip
Ġcar dio
Ġcomp iler
ĠRes et
Data Frame
fe ature
Get MasterVolumeLevelScalar
Ġver bose
Ġhead phones
Ġdiv isor
Ġfre ew
element s
filter ed
Ġdem onstr
Ġincre ases
Ġconnect s
ĠUp d
mod ules
stand ing
Ġexp and
Ġent ity
Ġec osystem
det ected
AC LE
Ġenter ed
gener ator
rid SearchCV
IM AP
Par ameters
Count s
Ġturn ed
Ġà¤ľà¤¬ à¤ķ
Ġwant ed
Trans form
à¤ıà¤® à¤¡
Ġà¤¸à¤° à¤²
01 12
Ġdeep f
dataset s
Ġinv ite
Ġà¤Ĩà¤Ī à¤¡
Ġhttp s
Ġproject s
à¤ħà¤µ à¤§
Ġappro val
Ġprevious ly
## #
ĠÂ ©
ont Family
Ġlimit ing
Ġbel ong
Ġfam ous
Ġhost name
ĠAudio Segment
oper ation
Ġwin ning
object s
object ive
ĠĠĠĠĠĠĠĠĠĠĠĠĠĠĠĠ ĠĠĠĠĠĠĠĠĠĠĠĠĠĠĠĠ
Ġplan et
ĠSp anish
Ġfrequ ently
frame work
Monitor Listener
Ġflu x
Ġland sc
Ġmaint ains
ĠWi Fi
Dec laration
Ġnormal ized
Ġà¤ĩà¤¨ à¤ª
Ġcomplex ity
Ġmeasure d
Ġrecord s
CL A
week ly
Ġquick ly
ĠStart ing
Form at
ĠDec re
author ized
Cor rect
dim ension
Ġwar ranty
LO C
Ġide a
Ġtherm ostat
Ġfall s
child ren
Ġdeterm ines
AB ILITY
CH ANT
Ġphot os
Ġ'. /
ĠDep loy
Ġrespect ively
cv tColor
Ġdownload s
ĠAfric an
ĠDet ermine
ĠLoc ation
Ġsuff ix
UL AR
ĠCount Vectorizer
Ġprof essor
Qu ery
Ġvulner abilities
Ġà¤¤à¤° à¤«
vis ualization
Ġinstr ument
Ġremain ing
ĠPlay ing
Ġdiscover ed
NE SS
Ġpick le
Ġintegr ate
twe ets
ĠAN D
ĠDi ctionary
Ġconvers ational
mapp ed
orrow ed
ortun ately
Ġepo ch
Ġepo xy
Ġpsy ch
Ġcampaign s
DAT A
Work ing
sz bd
ĠHttp Response
ĠMedic are
IC ULAR
Json Path
vf irewall
wait Key
ĠPan el
ĠSM S
Ġdecre ase
orig inal
Ġcos mic
Ġinsp ect
ĠMod ern
ĠNe ural
ĠGraph QL
Ġrot ation
COM M
Oper ation
]( #
hold ers
Ġcrit ical
Ġfund s
Ġconcept s
Ġnumer ous
Ġprinc i
Collection Prefix
Fl ag
fetch all
Ġinfl amm
look up
ĠHash Map
gethost name
ĠJapan ese
Ġeduc ation
hex digest
Ġcour t
Ġcriter ia
Ġpict ure
Ġhyd ro
Ġà¤ıà¤¸ à¤²
Ġmanufact uring
IST S
Ġrequ ires
Ġgyr atory
Ġelectr ical
ĠSeq IO
ĠColor ado
CON F
Ne ighbors
ĠUt ah
ĠHurric ane
oven ant
Ġcred entials
ĠCapt uring
ĠSoci ety
ĠEX ISTS
BG R
jac encyList
mg mt
mix er
trun cate
Ġic ons
imm olation
ĠFIT NESS
ĠIniti ative
Ġinfras tructure
ĠEconom ics
ĠWARRANT Y
COL OR
brow se
ĠPUR POSE
ĠPART ICULAR
ĠMER CHANT
indiv idual
ĠQVBox Layout
ĠMERCHANT ABILITY
" \
" ):
4 9
4 32
7 5
8 6
9 9
: .
> "
> {
? ...
A verage
B C
B a
B ash
C al
D B
D irect
G ir
G Type
H KEY
H appy
I ss
K EN
L ength
L esser
L GPL
L ua
M ute
N ull
O utput
O BJ
P e
P p
P r
P ublish
P OST
P RO
P xDiff
R W
S U
S qu
S plit
T urn
T ake
U sing
V ec
W i
W ay
W elcome
Y acc
_ (
_ )
a fter
b ur
b et
b lack
c ur
c irc
d l
d n
d rive
f r
f u
f inal
f old
f avorite
g est
g reg
g aming
h i
i el
k d
k ph
l ows
l ied
l ie
l ng
l antic
m id
m ulti
m emb
m otor
m ysql
n ecessary
o es
o ct
o ke
o val
p kg
p aste
r sh
s at
s ft
s uch
s imilar
s fc
t or
u er
u ctions
v it
v rythngScanner
w d
w t
w x
w ages
w ikipedia
y es
y ou
y ond
z er
} }
× Ķ
Ġ ,
Ġ ])
Ġ rain
Ġ river
Ġ vert
Ġ ends
in o
in ing
in et
in ite
in etic
à¤° à¤ª
à¤° à¤ľ
à¥ĩ %
Ġa rithmetic
Ġa erodynamic
or ry
er ve
er Setup
Ġth ird
à¤ķ à¤¹
à¤ķ à¤¸à¤®
en et
en aming
en omen
Ġs ing
Ġs ea
Ġs ac
Ġs ends
Ġs ides
Ġs alt
Ġs ought
Ġs recent
Ġs alary
Ġthe atre
ing re
Ġc m
Ġc le
Ġc ou
Ġc ore
Ġc math
Ġc ovenant
re lay
Ġf tp
Ġf ight
Ġf ru
Ġf ather
Ġf inger
à¥Ģ )
à¥Ģ ?
à¤¸ à¤Ł
à¤¸ à¤¦à¤¸
Ġt cp
Ġt ernary
le my
le ading
Ġp urs
Ġp ron
Ġp raw
Ġp ull
Ġp kg
Ġp odcast
Ġp adding
de velop
ro tt
an ies
an iam
al ination
al gorithm
is Empty
à¤Ł à¤¤
à¥ĩà¤Ĥ !
à¥ĩà¤Ĥ à¥¤
à¤® à¤Ĺ
à¤® à¤ļ
Ġà¤¸ à¤¸
Ġà¤¸ à¤¦à¤¸
ct x
Ġin form
Ġin ference
Ġm ult
Ġm other
Ġm agn
ed in
ed Diff
ed nes
Ġà¤ª à¤¡
Ġw b
Ġw ent
Ġw ea
Ġto m
Ġto ok
ent ropy
à¤Ĺ à¤¤à¤®
à¤Ĺ à¤Ĩà¤īà¤Ł
à¥ģ à¤ĥ
Ġd og
Ġd ry
Ġd ump
Ġd anger
et ry
et ically
as ub
om b
om m
à¤¼ .
à¤¼ à¤¿à¤Ĥ
Ġb in
Ġb an
Ġb as
Ġb luetooth
Ġb lur
Ġb anned
à¤¦ à¤¹à¤²
à¤µ à¤ľà¤¨
el i
el id
à¤ĩ à¤Łà¤¨
un t
un ded
ch ing
ch erry
ch anges
st at
à¤ļ à¤µ
à¤ļ à¤°à¤ķ
Ġn ll
Ġn ational
Ġn ested
il os
il led
ĠP art
ĠP to
ĠP ress
ĠP ER
ĠP assword
ex cel
Ġh el
Ġh its
Ġà¤¨ à¤ı
if ite
à¤¶ à¤²à¤°
ĠT ype
ĠT ower
ĠT imes
ate gor
à¤¬ à¤ķ
à¤¬ à¤¸
à¤¬ à¤§
à¤¬ à¤«à¤°
Ġà¤« à¤Ł
ra ight
ra pped
(' --
(' .')
() ...
() ):
ol ing
ot ed
ot lin
ul ates
Ġg db
Ġg pd
um in
um an
ĠC ent
ĠC NN
ĠC VS
se i
se gments
ĠI ll
ĠS um
ĠS ound
Ġst em
Ġst able
à¤« à¤Ł
op les
à¤¥ à¤²
à¤¥ à¤Ĺ
à¤¥ à¤¡
à¥Ģà¤Ĥ à¤ĥ
pp orted
ke ep
ab s
ig enous
Ġr ule
Ġà¤ħ à¤°
Ġà¤ħ à¤ªà¤°
Ġcon cise
og en
and id
ir ror
ir esh
put e
for ge
pl ugin
ĠM ult
ĠM qtt
ĠF eb
ĠF air
ĠF raction
ĠF uture
ĠF PS
Ġimport ance
à¤Ī à¤®
ĠR O
ĠR ome
ĠR asp
ĠR iver
Ġcom es
Ġcom plement
ĠE m
ĠE mail
pa city
up s
pro b
pro ps
pro pag
Ġex plic
Ġex hib
ĠB ay
ĠB rain
ĠB utton
ĠB ankAccount
ĠB ecause
Ġà¤ı à¤²
Ġà¤ı à¤«
Ġch all
Ġch ance
Ġch eapest
Ġch oose
cl s
à¤Ĩ à¤²
à¤Ĩ à¤¸
à¤Ĩ à¤ªà¤ķ
ĠL ee
ĠL inear
ĠU CLA
ĠH im
ĠH ere
ĠH ugh
Ġà¤Ĩ à¤Ł
Ġwh om
ĠN ever
Ġbe yond
process es
Ġfunction ing
ĠG l
ĠG al
ĠG aussian
ĠG ridSearchCV
per form
Ġres ist
ĠW ater
ĠW ars
'] :
'] ):
Ġfile Path
ang ing
Ġapp oint
ure ment
ail ability
res ized
res olver
Ġprint ed
iv ation
str uction
à¤Ľ à¤ķ
à¤Łà¤° à¤ª
Ġen able
Ġen hanced
oc ation
oc ratic
ran ce
à¤ł ActionGroupEditorInsert
In s
ep och
à¤ī à¤¨à¤²
à¤ī à¤ªà¤¨
Ġsc anner
Ġnot ice
ug ar
ire base
row ave
ĠIn side
ac cept
ac counts
Ġsh ot
ĠV ideos
ĠV olatility
Ġcont ents
av ailable
Ġimp ossible
top ic
ft ime
Ġmanag ers
à¤¨à¤¹ à¤²
Ġ* :
Ġ* =
Ġun c
Ġun known
ace ae
app ed
à¤Ĺà¤² à¤¤
ĠEx pression
Ġtra verse
Ġopen ai
enc ed
Ġpar ents
Ġ== =
Ġfil enames
Ġem acs
An swer
par ator
Con f
Ġdis cord
py net
class ifier
']) ,
']) ')
rol ling
ĠJ ust
Ġob vious
Ġsu c
Ġser ious
") .
Ġint ro
Ġro ck
Ġhe art
EA M
led so
ĠCh rome
Ġout er
à¤Ĺà¤° à¤ª
à¤ĩà¤¸ à¤¨
à¤ĩà¤¸ à¤¸
ER E
Ġrec all
Ġrec urs
Ġrec ently
so ftware
ari an
à¤¡à¤° à¤¸
ĠCon duct
ĠCon sole
Ġreal ism
ĠAd am
ĠQ P
Ġ4 00
à¤¸à¤¬ à¤¸
Ġgener ates
à¤ħà¤¨ à¤²
Ġso il
Ġsm ugglers
ogn it
pre processing
pre ds
Th en
Th ink
Ġwork er
ne ighbor
Ġcor rection
ĠSt and
ĠSt ack
ĠSt ance
ĠSt ream
ecut ive
Re ceived
Ġcol on
Ġcol ors
Ġcol onial
à¥ĩà¤Ĥà¤ĥ %
cont ents
Ġra w
Ġsimul ation
Ġsub st
Ch ar
Ch erry
ĠY ear
Ġim aging
Ġass word
apt cha
à¥Ģà¤ĥ -
Ġrun s
Ġà¤®à¤¦ recent
Ġà¤ĺ à¤Ł
Ġplay s
Ġplay list
jo y
à¤Ĩà¤Ī à¤ª
Ġbet a
unc iation
sum mar
à¤ĵ à¤«à¤¸
Ġlo aded
ĠPro f
ĠPro v
ĠPro perty
rib ute
Ġvis it
Ġdep artment
à¤ħà¤ª à¤µ
Ġ200 0
Ġ200 3
Ġloc ations
ched uling
ĠPy C
olog ies
Ġdiffer ential
Ġarg parser
Ġco vers
Ġph enomen
wh at
ĠUn der
19 7
aw n
aw ait
Ġover lay
Ġoff ice
Ġoff shore
Ġdesc ribe
Ġport ion
Ġmet a
Ġsa ver
ĠApp le
ĠSc apy
Ġhigh ly
Ġconfig urations
ader board
sp ot
Ġindex row
Ġmark ed
IL abel
Ġpe oples
Ġ6 5
Ġind entation
Ġind igenous
pos ed
ote Record
Ġscra py
20 12
ĠCom ponent
Ġaccess ed
Ġfl ash
ST M
à¤Ķ à¤°
ĠAl b
ĠAl paca
Ġdisplay ed
sec ure
Ġenc oder
chedule d
Ġsym ptoms
ose ki
Ġtem p
Ġrep etition
ĠBuild er
OR ACLE
Ġacc el
Ġdest ruction
à¤ħà¤¸à¤«à¤² à¤¤
Sh ell
Ġmov ed
Ġtasks Per
ĠDef ault
ĠSer ies
Ġaut ogen
Ġcar bon
Ġcomp et
Ġcomp anies
ĠRes ponse
100 0
IN ET
Ġcommun icate
fit ness
ĠAss oci
Ġsource forge
Ġdescription s
à¤¿à¤ĥ -
Ġdr ink
Ġrest ore
Ġsay ing
Ġdiv iding
Ġfre ed
ber ry
Ġroot s
Ġallow ing
Ġà¤®à¤¦à¤¦ à¤Ĺ
={ "
Py GTK
Ġec ological
cle us
mer ger
Ġpython http
Sp ider
Ġleg al
Ġorgan izations
Col lections
Par se
à¤·à¤¯ à¤µà¤¸
ĠReturn ed
link s
Ġevery one
ĠHe alth
thread s
Ġbrain s
ram aniam
Ġretrie ving
Ġbeh ind
SD L
rot ated
Ġà¤Ĩà¤Ī à¤ª
Ġà¤Ĩà¤Ī à¤¬
Ġfac ilit
Ġhttp d
Ġhealth y
esc ription
Ġfocus able
Ġstor ing
ĠUI View
ĠUI Kit
Ġfam il
Ġbro ther
tra de
tra ce
Ġshow ing
Request Serializer
Ġbu y
200 7
product s
à¤ĳ à¤¨à¤²
Ġclean ing
Ġclean ed
ĠSp ec
Ġimpro ved
Ġmut ation
Ġjob s
Add ress
bar a
Ġbit wise
Ġrecogn ized
Ġpur ch
Ġrisk s
Ġrender ed
Ġtimeout s
Ġarch ive
Sec onds
dig enous
Ġsimilar ity
Ġcaus ing
mut ations
ĠRE G
comple ted
Ġsever ity
Serial ize
New s
Ġ'{ "
ĠMed ical
Ph ys
call back
sn iff
Ġdim ension
Ġmill iseconds
ĠNet cat
writer ow
EM AIL
Ġfri end
Ġphot o
Ġrespect ive
Ġlearn ed
ĠAmeric a
ĠGTK mm
Mod als
ĠII I
ĠModel ing
Ġscient ific
Process or
Point s
Ġca pacity
Ġindividual s
Ġmus ical
Ġmig rations
Ġbi ological
ĠSec urity
ĠWest ern
Ġinstr uctions
ĠId ent
Ġpaint ing
Ġimpact s
hanc er
Ġwor st
Ġanim ations
Ġconvers ation
Ġey e
ership s
Progress MonitorListener
Ġaff ected
asp loit
Ġbr ush
ĠSD K
cate gor
sign ature
Ġach ie
Ġmal ware
Ġreach ed
ĠOper ating
Ġsaf ety
ĠProm ise
exec vp
ĠCo it
Ġele m
Array List
à¤ıà¤ļ à¤ª
ĠEgypt ian
ultip ly
Ġdetermin ed
Ġtelepath y
ĠSFTT raining
tw ilio
ĠAR P
allow ed
Dim ensions
TO KEN
bre ak
Ġwins ound
Ġdro ught
à¤ĩà¤ªà¤° à¤ª
à¤ĩà¤ªà¤° à¤ķà¤¡
Ġaspect s
Ġevolution ary
Token izer
Aut o
Blur b
Dep end
month ly
ĠHand ling
Ġcorre ctions
Ġorganis ation
Instance State
Ġbegin ning
roubleshoot er
=\ "
Back up
FA Q
Render er
Ġbal asub
ĠPower Shell
ĠVis ual
ĠVideo FileClip
scious ness
SIG INT
Ġofficial s
Arg ument
Ġestablish ed
ĠEcosystem s
Ġhor izon
ĠFound ation
Ġfunctional ities
ĠGM s
Param Spec
Doc uments
RF COMM
mk dir
yles Object
stor age
prof its
Ġdeserial ization
auto complete
Ġobserv ations
Ġros py
Ġcolle agues
coordin ates
Feature UsageTracker
WAR NING
à¤®à¤¨ à¤ªà¤¸
Ġalloc ate
Ġsuppl ies
STR EAM
Leg ged
Ġsud ossh
Ġmic rowave
Ġwid ows
Ġbrack ets
Ġnu cleus
Ġheap q
ĠFour ier
Ġtravers al
Ġamend ment
ĠDetect ing
Ġprofession al
iat ric
Ġion ization
Ġdies el
ellect ual
Ġdelimit er
ĠMAR K
occ urr
ĠSci Py
Ġepoch s
CONF IG
Bash ir
Iss uer
Squ ash
Way Relay
memb ers
similar ity
ilos oph
ĠPto lemy
Ġà¤ħà¤ªà¤° à¤ķ
iresh ark
ĠRasp berry
Ġexplic it
ĠVideos Search
ledso e
ĠAssoci ation
Ġbalasub ramaniam
" ],
% .
) ?
+ -]+
/ "
0 3
3 9
3 64
4 1
4 5
4 6
6 8
6 00
8 1
> &
> ',
? "
@ [
A b
A is
A card
A ccording
B r
B in
C A
C G
C O
C d
C DF
C ategory
C ache
C annot
D one
E V
F M
F it
F ocus
F irefox
G o
H i
H ide
H igh
H ole
H istory
J card
K p
K card
L D
L imit
M P
M al
M ost
M AN
M PItrampoline
N AME
O rig
O ptim
O ps
P o
P ing
P erson
P QR
Q card
R a
R estart
R outes
S k
S n
S ound
S olve
T ouch
U sed
V Log
W in
\ )
] `
] {
] }')
] ],
_ ;
` )
a its
b n
b ill
b ust
b box
b oolean
b ayes
c s
c raw
c ascade
d ds
f st
f ill
f oo
f uture
f ford
g res
h ist
h ab
h aps
j an
k ins
l ip
l ife
m ist
m ac
m atically
m aking
n put
n ear
n old
o y
o z
p ul
p ers
p ast
p ages
p atterns
r is
r um
r ender
r da
s ur
s ers
s lack
s ymbol
t ion
t age
t log
t imer
t icks
u for
u cl
u istic
u uid
v ideos
w ash
w ast
w ner
x label
x imately
y label
z en
¨ ÐĿ
Ð Ĳ
Ð Ĵ
Ð ĵ
Ð ķ
Ð ľ
Ð ŀ
â Ĩ
Ġ ut
Ġ Write
Ġ );
Ġ ql
Ġ ÐĿ
Ġ âĨ
ĺ Ðĵ
à¥ ħ
à¤¾ :
à¤¾ à¥ħ
in vert
in come
th ere
à¤° à¤¡
à¤° à¤ªà¤¥
Ġa im
or ah
er r
er min
er ves
à¤Ĥ ...
at i
at ers
at trib
at omic
es lot
à¤ķ slot
à¤ķ à¤¬à¤°
en a
en th
Ġs ex
Ġs low
Ġs lot
Ġs ugg
Ġs chema
Ġs uggest
Ġs omew
Ġs bc
à¤¨ à¤¸
Ġc urrency
Ġc ycle
Ġc olumns
Ġc ategor
re ach
re du
re verse
Ġf b
Ġf at
Ġf an
Ġf usion
Ġf illing
à¥Ģ /
à¥Ģ à¤ģ
à¥Ģ ).
Ġt or
Ġt eacher
à¤¤ slot
le ak
à¤ª à¤¡
Ġp iece
à¤¯ à¤§
ro ad
ro ck
ro set
ro utes
an alysis
ion Manager
al og
al oud
is c
is ions
is nan
à¤Ł à¤¹
ar le
à¤® à¤Ľà¤²
à¤® à¤ķà¤¡
Ġà¤¸ à¤²
Ġà¤¸ à¤¡
Ġo dds
ct uation
Ġin fer
Ġin complete
ut ures
Ġm ag
Ġm ess
Ġm ira
Ġm ental
Ġà¤ª à¤ł
Ġà¤ª à¤ķà¤¡
Ġw atch
Ġw ikipedia
Ġto l
ic ip
ic ity
ent ity
us b
Ġan ton
Ġan sw
Ġd p
Ġd ou
Ġd rop
Ġd ns
et ta
as ure
as Flag
à¤¡ à¤¹
à¤ı à¤¥
Ġfor g
Ġfor ests
Ġb ond
à¤¦ à¤¹
Ġl ives
Ġl iqu
Ġl anes
el ine
un a
st ation
st ylesObject
à¥Ī ;
à¥Ī à¥¤
ow ing
Ġn ib
Ġn ative
Ġn orm
il iate
ĠP en
ĠP oint
ĠP EP
ĠP ornhub
ex c
ex pr
Ġh ar
Ġh ug
ag ue
ess us
Ġ' #
Ġ' \
Ġà¤¨ à¤®
à¤¶ à¤¤à¤°
ĠA M
ĠA pi
ĠA ES
ĠA pache
ĠA rab
ĠA ccording
ĠA lert
ĠT E
ĠT rack
ĠT CP
Ġà¤ķà¤° à¤ķ
ation Error
à¤¬ à¤°à¤¬
em arle
à¤ģ %
à¤ģ ,
ra it
ra el
(' /')
() ]
() }
() `.
() ["
ol a
ul erships
Ġà¤® à¤ķà¤¬à¤°
Ġg it
Ġg al
Ġg ave
Ġg ensim
Ġg love
Ġg amma
ec urity
um my
ad vfirewall
ĠC irc
ĠC losing
ri an
ri age
se en
qu antity
ĠI x
ĠI y
ĠS V
ĠS a
ĠS tr
ĠS outh
ist r
Ġde let
Ġde gree
Ġà¤¬ à¤Ĺ
Ġst at
Ġst ake
Ġst eam
à¤ĸ à¤²
ĠD ense
ĠD ivision
ĠD avid
ĠD awn
lo om
Ġà¤° à¤ļà¤¨
Ġ` ${
Ġà¤ľ à¤¨à¤°
à¥Ģà¤Ĥ ...
ab orn
Ġpro position
pt una
Ġv ote
Ġr an
Ġr ank
Ġà¤ħ à¤²à¤¬
ub y
ub ernet
od d
od o
Ġcon verting
ter ing
Ġon es
Ġon to
and atory
ay out
ass es
he art
Ġe ast
Ġ1 50
pl ing
ĠM A
ĠM us
ĠM ass
ĠM ich
ĠM any
ĠM aterial
ĠM NE
Ġ" <
ĠF all
ĠF ix
à¤Ī à¤¸
ĠE l
ĠE po
ĠE ven
ĠE ffect
Ġex ecuting
Ġex ploration
ĠB ayes
Ġ2 7
Ġch ess
Ġch os
Ġch amp
Ġch ains
Ġal ert
Ġk ing
cl ave
cl oud
cl usion
Ġcan cer
di a
di ke
art s
à¤²à¤Ĺ à¤¤
à¤Ĩ à¤ł
à¤Ĩ à¤°à¤ķ
ĠL aw
ĠU N
ain Text
ĠH er
Ġà¤Ĩ à¤¸à¤ª
ĠN ame
ĠN orton
form ed
form ats
ĠG reen
Ġsp i
Ġsp ot
Ġsp orts
ide an
key board
get All
get Balance
to ck
res erves
iv ative
def inition
str ftime
ĠO ak
à¥ĥ à¤Ĥ
Ġen em
Ġman ual
ire less
Ġstr uggle
Ġpo or
Ġpo ison
ations lot
Ġad op
Ġad apt
ĠIn v
ĠIn deed
Ġat om
Ġ0 5
ac ing
Ġsh all
ff ff
oo f
Ġval ence
Ġpy roset
one y
top Anchor
Ġper fect
Ġar rived
ph inx
son g
Ġ// /
Ġ// =
Ġlog its
Ġlog ger
Ġlog istics
Ġun necessary
app s
=' ')
Ġtra cer
Ġopen s
Ġpar rots
Ġse q
sh are
sh ips
sh uffle
Ġem r
Ġem bed
Ġcomm as
Ġel apsed
Ġel igible
par ents
Con v
ud a
En c
En hance
à¤¤à¤° à¤¤
(" /
(" <
Ġpre processing
Ġpre valence
Ġqu ant
Ġqu ote
ON E
ON G
ob ab
ob servation
]) ,
Ġne ut
à¤°à¤ķ à¤®
à¥Īà¤Ĥ ;
ĠCh anged
Ġuser data
ĠK lon
ĠK otlin
ĠK VLog
user Id
Ġrec ipes
rig ation
ari as
ari ables
Ġ/ **
iss ors
Ġnetwork ing
Ġà¤Ń à¤°à¤ķà¤®
ĠAd obe
with draw
Ġtrans c
Ġtrans pile
Ġinter view
ler iot
add r
add Widget
à¤ıà¤¸ à¤²
aus ing
aus lot
Ġgener ators
Ġab stract
Ġform er
à¤ķà¤° card
play list
pre vious
ish ing
log ical
Ġwork shop
ne ighbors
pe ople
ĠSt ar
fil enames
api Key
ach arias
ĠList ener
und le
Ġreg ulations
Ġreg ression
Ġgo es
ĠRe volution
du ck
Ġsub string
anc el
Ch ild
Ch ange
Ġvari ety
Ġdevelop ed
Ġass um
St udent
10 24
Ġinst ant
Ġag greg
ĠOpen V
Ġbo ard
File Name
12 7
ĠEn c
ĠEn abling
ĠEn ergy
ĠDem onstr
([ ^
pr ices
eb e
ĠPro file
Sc ore
Sc roll
Ġ200 5
Ġ200 9
Ġgiv es
struct ed
Ġà¤Ī à¤¸
atic Dynamic
Ġprogram matically
Ġco ast
Ġph ilosoph
Cont ains
To ol
des ired
à¤ĩà¤Ł à¤¹
miss ing
Ġover time
loc ated
inst alled
Ġoff set
Ġart ificial
lean er
Ġmet er
ĠApp lied
by name
Ġconfig uring
ĠWh o
Ġtry ing
sp ine
Ġtrain ed
vo ke
20 21
Ġright Controls
à¤ĺ à¤¡
Ġpop ulated
ĠCom p
ern el
Ġengine ering
ĠAl though
Ġu ptime
ĠAr rays
Ġ20 13
dis connect
ĠCl imate
Ġsur g
Ġsur gery
Ġtable View
connect or
bin ary
ĠFl ash
Ġacc ur
db db
Ġbre ath
Ġbot tled
ift i
ps util
Ġgen es
Ġfol lows
Ġelect ed
Se q
Se lect
Se verity
Ġconstruct ed
ĠRes ource
Ġcommun ic
ĠAss embly
SE L
fe at
ĠDis abling
Ġver ification
cor por
TH E
Ġà¤¬à¤Łà¤¨ su
Ġfollow ed
Ġ7 0
ole cule
Ġmatch ing
ru ck
ru ption
Ġexp anded
Config s
Ġent ers
Ġpress es
det ector
su ccess
leg ates
Ġà¤Ĩà¤° à¤ª
Ġmath emat
gener ated
iter ations
any Id
Par ent
Ġ| |
aster n
aster s
check point
Ġdynam ically
spe ction
table auslot
eak Multi
ĠLic ens
Ġwant s
Ġweek s
event Name
Ġretrie ved
head lines
Ġident ity
ĠTo ast
Ġload s
87 04
Frame Provider
ĠIs lam
Ġ? ,
Ġfac ility
clip board
Ġtr ends
Ġgre p
Ġgre et
ĠUI Image
Ġà¤Ńà¤° à¤¨
Loc ation
Loc ated
Ġsingle ton
ĠCalcul ator
Ġweight ed
%% %
%% %%%
Ġdon or
ĠPar ent
ĠPar sing
Ġselect ors
Ġassign ed
Met rics
Ġlook s
Ġlook ing
Ġlook up
osp ital
limit ations
pop ulate
à¤ĳ à¤¸
Ġstream s
Ġanomal ies
ĠDo e
ĠDo ing
ĠOption Type
Anchor Type
Ġgreat est
Ġstand ing
System Parameters
gre p
pus Trainer
Ġclo s
Play er
With Title
Ġutil izes
Ġmap s
Ġbox es
Sec urity
ĠAt lantic
Ġcho ices
Ġdam aged
Ġà¤ħà¤ª à¤µ
ĠOct ober
Ġspeed s
ĠControl ling
Windows WithTitle
tensor flow
Ġquick sort
Ġsplit s
Ġsplit ting
Ġsignific ance
Cor pusTrainer
Ġnear by
ĠInte ger
Ġsmall er
Ġax is
ev tlog
Ġfib onacci
Ġtow ing
Ġparam iko
Ġneighbor hood
**** ****
ĠEnvironment al
Ġcare er
ĠCount y
ĠSur prise
ĠInt rodu
Ġobtain ed
Ġsit u
Ġcomb ust
ĠLang ley
news api
kg d
Ġrele vant
ĠPlay er
29 40
Ġhouse hold
Ġdelay ed
Ġdoor bell
Ġintegr ation
Current Version
PT R
cd n
Ġtell s
Ġinj ection
Ġwor ship
exception s
ĠINT EG
ĠDr one
Ġey elid
ĠChatterBot CorpusTrainer
Progress View
ĠReport ing
ĠReport Lab
Ð«Ð ķ
Ð«Ð ¨ÐĿ
Ð«Ð ĺÐĵ
Ġmount ed
ado op
Ġintern al
ĠValid ate
ĠValid ating
Ġmal icious
Ġprot ected
compress ed
ĠOb ject
ĠMedic ine
cal endar
eros pace
Ġsort ing
Ġmicro phone
Ġgain ed
Ġgran ts
Ġgran ted
Ġdecre ases
ĠEng land
annot ation
Bluetooth Socket
Ġir rigation
Ġcos ine
Ġtur tle
Ġinsp iration
Ġwide ly
(', ')
Ġep isode
Info W
scra per
Ġdisc us
Ġrot ate
Ġtelepath ic
Lo ading
WS GI
Ġcrit ic
Ġreact or
ĠBar bara
ĠChar les
ĠChar acter
Status Code
Ġinvest ment
Ġdiagnos ed
Red irect
Ver ify
Ġrepe at
ĠAre a
ĠAug ust
ĠTw o
Ġà¤®à¤¤ à¤²à¤¬
Ġdefinition s
Initial ization
gethost byname
Ġtre es
Ġbound aries
à¤īà¤ª à¤ľ
ĠJul y
ĠKey board
Ġcorre lation
Ġheav y
-]+ \.
Print er
fri end
fri ends
Ðł ÐĲ
Ðł Ð«Ð¨ÐĿ
Ġrig s
onym ous
anit ize
Ġdele ting
Ġconsum ption
upd ater
ĠGo ing
Ġsubsc rib
ĠApplicable Not
itiz ens
Ġda ughter
ĠAv atar
ĠGerm an
Ġanalyz ed
ĠTransform ing
attach ment
Ġinvok ed
Ġscenari o
Gl Canvas
found ationslot
pay load
stock slot
Ġrelig ion
Transaction FrameProvider
ĠInstall ing
BR ARY
HK LM
JSON DecodeError
LI BRARY
equ als
square d
Ġdri vers
Ġbul k
ĠAust en
ĠSIG N
Ġsegmented Control
Ġ44 100
ĠCorrect ed
Ġestim ated
La unch
Lang uage
cross entropy
Ġ00 25
Ġtrig ger
Ġreve al
Ġhyp o
oliv ia
ĠCO X
Ġdeli very
ĠRP i
Ġoppos ite
Elect ron
NO W
basic Config
sy mlink
Ġess ential
Ġmom ent
Ġrepair ing
Ġhabit at
ĠBlack Hole
Ġcontem porary
dimension al
Ġinflamm ation
Ġcle ared
ĠPER CENT
andid ate
Ġchall eng
ĠHugh es
Ġsuc ceeded
ĠConduct ing
ĠAlb emarle
Ġfreed om
Serialize Field
WARNING S
+-]+ @[
364 5
Ais leriot
fst ab
pages izes
rda o
ufor ia
ucl idean
wast eslot
ÐĴ Ð«ÐĺÐĵ
Ðķ ÐłÐĲ
Ðľ ÐķÐłÐĲ
Ðŀ ÐľÐķÐłÐĲ
ĠÐĿ ÐŀÐľÐķÐłÐĲ
reach able
Ġanton ym
Ġansw ers
Ġdelet ion
Ġstake holders
Ġà¤ľà¤¨à¤° à¤²
Ġà¤ħà¤²à¤¬ à¤°
ubernet es
Ġchos en
reserves lot
ĠOak land
Ġpyroset ta
ĠKlon dike
ĠKVLog List
aticDynamic Dim
Ġmathemat ical
eakMulti Map
8704 28
SystemParameters InfoW
ĠINTEG ER
-]+\. [
ÐłÐ«Ð¨ÐĿ Ð«Ðķ
ÐĴÐ«ÐĺÐĵ ÐłÐ«Ð¨ÐĿÐ«Ðķ
! "
! **
$ '
$ (
' ^
' d
( |
( ())
) ',
- ${
/ **
2 7
3 1
4 3
4 00
6 55
7 4
9 2
9 3
; /
> ;
> ()
? '
? )
? ',
A ir
A ctions
A ML
B S
B U
B rake
C o
C UR
C ascade
D S
D u
D id
D ist
D ouble
D rag
D Kit
D ivision
E ST
E dit
E ffects
F ace
G e
G r
G oogle
G estureDetector
H ERE
H asFlag
I F
I mp
L L
L ear
L ight
L ower
M C
M S
M p
M er
M ain
M ult
M ore
M ENT
N B
O D
O wner
P ur
P op
P ublic
P tosis
R U
R et
R ating
R aw
R ENT
R ober
S im
S ort
S tr
S uspicious
S team
S olid
T ick
T cp
T EXT
U ID
U til
V AR
W A
W ant
W ords
X Anchor
Z Value
Z IP
] ',
a el
a id
b a
b as
b ers
b lur
b gt
b orrowed
c g
c ro
c url
f d
f ort
f all
f ron
f ps
f irewall
f ibonacci
f ortunately
g love
h ea
h ref
h eap
h yd
h alf
h adoop
i as
i ance
j obs
l t
l or
l ig
l ap
l ier
l inux
l ins
l aptop
m i
m ann
m esh
m olecule
n df
n ative
n ltk
n ifti
o P
p ublish
p yperclip
q us
r us
r ran
r ase
r uct
r ename
r ng
s ent
s un
s ig
s pl
s ome
s Map
s aved
s anit
s phinx
t f
t im
u ing
u ce
u um
u ous
u ages
w rap
x r
x ies
z a
z ing
Ã ±
Ø §
Ġ ..
Ġ ordin
Ġ roles
Ġ versions
Ġ ingre
à¤¾ %
à¤¾ :%
in omial
th at
on ents
Ġa rom
Ġa ffects
Ġa erospace
or ous
or ge
er ce
er ase
er Frame
at o
at tribute
at tributes
at tempt
es ides
en etic
Ġs al
Ġs up
Ġs ick
Ġs aves
Ġs orts
Ġà¤ķ à¤ļà¤°
Ġc urr
Ġc ities
Ġc ach
Ġc ru
Ġc ros
Ġc argo
re k
re q
re w
re vers
re kit
Ġf ul
Ġf ab
Ġf ire
Ġf ake
Ġf old
Ġf air
Ġf ails
Ġf tplib
Ġt el
Ġt ip
Ġt run
le pt
le ting
Ġp anda
it z
it ives
it ivity
it udes
de mo
im ation
im izing
ro us
ro aking
an juta
al er
is ation
is ect
à¤Ł à¤¬
ar ine
Ġo me
ct ors
à¤¹ à¤¬à¤¦
Ġin direct
Ġin structor
Ġin corpor
Ġm d
Ġm p
Ġm s
Ġm ort
Ġm ixing
Ġm esh
Ġm iles
Ġm irror
Ġm ultiply
Ġm oney
Ġw s
Ġw ave
Ġw inter
Ġw ireless
ic ode
ic search
us r
Ġan imal
Ġd c
Ġd ense
à¤¡ à¤¶
om ach
Ġb and
Ġb ud
Ġb log
Ġb ats
Ġb ank
Ġb ring
Ġb iodiversity
Ġb gt
Ġl t
Ġl id
Ġl ob
Ġl unch
Ġl ift
Ġl ived
el m
Ġre form
am ping
un ched
un known
un iform
ch k
ch ars
ch eapest
ch unk
st ag
st udent
ow are
Ġn ob
Ġn arrow
Ġ( ?,
ĠP ing
ex pect
ex actly
Ġh ello
Ġh arm
Ġh acking
ess on
ess ors
Ġ' @
Ġ' '.
Ġà¤¨ à¤ķà¤²
if th
ĠA S
ĠA ST
ĠA SL
ĠT r
ĠT op
ĠT yp
ĠT ues
ĠT uc
ĠT ele
à¤¬ à¤¡
em p
(' %
ol lowing
id al
id ity
ce de
ul n
ul atory
Ġg ir
Ġg ases
um n
um ps
um ulation
ĠC our
ĠC ap
ĠC ity
ĠC urrency
est a
ri a
se e
qu ota
ĠI ke
ĠI MD
ĠS m
ĠS at
ĠS ed
ĠS olution
ĠS pace
ĠS ingle
ĠS quare
ĠS witch
ĠS ince
ĠS chema
ĠS cheduler
ĠS cheduled
Ġde l
Ġde ed
Ġde com
Ġde ton
Ġde gre
Ġst e
Ġst ret
Ġst ories
Ġst raight
rom es
ver ything
ĠD on
ĠD el
ĠD est
ĠD oc
ĠD rive
Ġ{ "
Ġis ol
ment ation
ment Usage
ve y
op ing
Ġ` @
ab or
ab ri
Ġpro port
Ġpro ced
pt r
Ġv end
Ġv ap
Ġv ict
Ġv irus
Ġv olatility
Ġr id
Ġr ational
ext raction
od ict
Ġcon v
Ġcon catenate
Ġcon crete
Ġcon struction
og ram
ter cap
ea rek
Ġon tology
and box
ir ty
ay dn
à¤ħ à¤£
): ')
ew ing
à¤§ à¤¤
Ġe igh
Ġe bb
end Date
pl aces
ĠM ut
ĠM ON
ĠM ulti
ĠM AC
ĠM oving
Ġ" .
Ġ" :
ĠF iles
ĠF irebase
Ġimport ing
ĠR ad
ĠR est
ĠR outes
ĠR SA
ĠR DKit
Ġcom et
ĠE c
ĠE lement
ĠE valuate
pa use
oun cil
from string
pro c
pro t
pro gress
pro files
Ġex clude
ĠB o
ĠB in
ĠB it
ĠB ledsoe
ser a
ser ted
Ġch apter
Ġch urch
ord ers
ind er
ind ent
Ġal er
Ġal ph
Ġal ign
Ġk illing
os ing
os etta
di ag
ĠL ite
ĠL abel
ĠU ILabel
ip h
ip ulating
yp ress
ĠH ave
ĠH ydra
ĠH uman
ap h
Ġdata Structure
ĠN on
ĠN ov
ĠN map
ĠN arr
ĠN EST
form ula
ĠG old
ĠG ym
ĠG roup
ĠG reat
ĠG arden
Ġsp ider
Ġres olve
ĠW ord
lic ense
ide vice
'] )),
get Title
Ġà¤Ĺ à¤¤
Ġà¤Ĺ à¤£à¤¨
ang ular
con trib
con version
con nections
Ġdef ragment
to A
Ġapp ending
ure Action
Ġprint ing
str ptime
ĠO ut
ĠO UT
ĠO rekit
out e
Ġle af
Ġà¤¤ à¤¥
How ever
Ġen abled
oc ab
file Path
Ġcl s
à¤ł à¤Ń
In to
In line
Ġstr ess
Ġpo etry
Ġdes pite
Ġdes alination
Ġlist ed
val s
Ġad opt
ĠIn put
ĠIn digenous
ac ed
Ġsh ield
)) .
)) ))
ĠV er
ĠV LC
ĠV uforia
ĠV esta
ject ing
Ġpl ugged
Ġcont r
Ġpy t
Ġpy net
Ġpy nput
umb lr
Ġnew ly
Ġper m
Ġj unction
Ġ3 1
Ġ3 5
ĠTh rough
Ġun installing
app ro
ĠEx change
=' {
ator ies
Ġpar ses
Ġpar aff
word list
An other
par sed
Con verter
class Name
ĠJ ac
bo ol
Ġpre process
Ġpre defined
Ġob server
Ġadd r
Ġadd itives
Ġqu arter
Ġqu otes
yn omial
port State
ound s
") ]
ash ed
Ġne uro
Ġint ellectual
Ġro utes
Ġro oms
Ġro yal
Ġro bust
Ġmod es
Ġhe ating
EA R
tri p
list Courses
ast ype
set s
set ting
ms dt
ĠCh em
âĢĻ âĢĻ
low ed
olum es
Ġcheck point
Ġout l
ĠK e
ĠK Me
ĠK ubernetes
Ġrec ycle
so ver
Ġelse where
ĠIt al
comm erce
Ġ5 1
ĠCon gress
iss ing
Ġget WindowsWithTitle
Ġdi et
Ġinter ested
Ġ4 10
start Date
aus es
aus ea
Ġab solute
Ġform ation
Ġsm ooth
pre tt
df Reader
ne g
à¤¬à¤¦à¤² à¤¨
Ġcor ners
ĠSt udio
po ol
eng er
eng ue
eng lish
und ant
und red
Ġreg ions
Ġgo als
cont ainer
Ġra ther
Ġra jeshkajha
lay er
lay ered
web Link
Ġsub domain
Ġsub atomic
anc ing
Ġvari ant
rec ursion
Pro ps
Pro jects
St ation
St ep
St udio
Ġz lib
urs itis
Ġplay back
ĠOpen MC
Ġany one
Ġback test
Ġback ward
Ġback propag
jo int
cre ator
win reg
ency Error
([ ],
pr imes
loat ware
Ġsec ession
eb ay
Ġtotal Count
Ġtotal Transactions
Ġdep ict
trans actions
Ġgiv ing
ĠImage Ops
ĠImage Enhance
Ġdec ent
Ġdec ade
Ġsign s
ĠPy S
Ġvalid ates
plot s
view s
view port
Ġco verage
Ġco ales
Ġph arm
19 5
train set
Ġformat ted
Ġinitial ization
Ġmem ber
Ġsk ip
ĠCheck er
col lect
col lection
num py
ription s
ipp er
Ġsa le
red icate
red hat
by e
Ġhigh light
ĠWh ats
ie f
na ive
Com press
Com mit
Ġdist inct
Ġactiv ate
Ġpass ing
ĠCom mission
Ġaccess ories
Im port
Ġfl ipped
Ġ[] ;
Ġsmart phone
Node Type
Node Metrics
ma jor
ynam ics
ĠAr nold
Ġ20 10
Ġenc our
dis cover
Ġend point
rop ical
Ġsym py
Ġge omet
Ġsur faces
Ġcontext s
Ġcontext lib
Ġatt itudes
Ġrep el
Ġacc umul
ĠInitial izing
function s
iod ic
erm inal
Ġhelp ful
pper berg
reat ment
Ġbook mark
Ġbook marks
Dis c
Ġcar ry
Ġcar ried
Ġla unched
Ġelect ric
Ġelect ricity
Ġcomp at
Ġcomp ile
Se e
Ġwrit es
IN FO
Log ging
ĠAss istant
ĠRet rie
Rec ycle
Ġav atar
Ġav ailability
loy ee
ĠZ ero
Ġdr illing
Ġdr ugs
ĠID E
Ġevent Listeners
sub mission
sub mit
Ġrest oration
Ġurl s
Ġurl parse
Ġ!= =
Time Bar
Ġfin ance
At tempt
Ġincre ments
Ġprodu ces
ĠUp loading
Ġexp ans
Ġent rance
Ġjust ices
not es
ĠSe pt
ĠHTTP Server
By Id
leg al
Ġpartic les
AM P
Sp otify
respon sive
Ġleg it
do e
rid ay
Ġsol ving
Ġpract ical
asc ii
Ġ\ "{
Ġcopy ing
Ġcopy left
Ġturn s
Ġtoken izer
Trans aksi
dest roy
ok es
Ġref ers
Ġref lect
ĠQu ery
Image Source
Auth entication
Ġless ons
ENT LOG
ĠTo ken
Ġresearch er
rot ate
ĠCal f
ĠIs rael
Ġrespon s
part ition
Ġexam ples
Ġappro ximately
Ġmed ic
Ġmed ication
Ġexecution Counts
Ġter min
Ġlimit ations
chron o
depend encies
Run ning
Ġhard er
post s
66 0
66 66
AS CO
select ed
ĠOn ly
ĠOn line
Ġkeep s
Test s
ha arc
ĠCA PT
ĠSp ell
ĠUS A
Ġfrequ ent
Ġred undant
ĠDo es
On Click
off set
Ġfit z
ĠPh il
Ġgreat ly
Ġstand ards
block s
Ġdebug Context
ĠGe oP
ĠWork book
dic Default
Ġlock ed
ĠPol icy
Ġchannel s
register ed
register Student
Sec ure
idd ler
Ġcompar es
ĠConfig Variable
Ġconsider ing
mut ex
no on
Ġest ate
Ġthrow s
Ġsw ap
Ġpres ident
Ġsever e
AG EM
CL ONE
cy cles
agent a
Ġstop ping
Ġstop words
scan now
Ġlegis lation
assert Ra
Ġeas ier
Ġcontract s
Ġcontract ors
Ġattach ed
Ġattach ments
'' '
Ġopp onents
ĠMessage Definition
ĠâĢĺ âĢĺ
Ġregion al
Ġinstall ing
Ġcharacter istics
All Windows
EM ultipart
Ġsummar ize
Ġpix el
Ġdecl ared
roll back
Ġsuff er
ĠConvert ed
**** **
Ġfeel ings
mov ies
Ġcare ful
Ġpay ment
Ġstatist ics
ĠDes ign
ĠNot epad
Ġbeg ins
Ġscient ist
patch er
Ġsit uation
Ġca ption
Ġaccept or
rm tree
Ġcost s
ĠAlex a
ĠRuss ia
Ġmaintain ing
Fact or
Ġflow ers
Ġchem istry
ĠGI F
Ġinj ury
Ġindepend ent
Ġanim ation
Ġwhole Notes
OUT PUT
Ġsix ty
ici aries
Ġeng aged
Ġxml Reader
pred icate
=$ (
drop na
Ġden ied
Ġden ormal
Ġreach es
ĠMIM EMultipart
Ġmechan ics
Ġappear s
ĠOb server
Ġintrodu ced
ĠProgram ming
mo id
ĠSM TP
Ġconcurrent ly
Hash Map
NM ENT
clean mgr
ele m
library Name
Ġtur keys
isf ied
Ġmer ge
Ġwall paper
ĠPre dict
Ġhear d
short name
ĠJson Path
ĠJson Serializer
Ġwebsocket s
Ġdetermin ing
USER S
USER PRO
ĠSudan ese
Access Points
Ġcy cles
Ġcy bers
Ġmix t
Ġtoward s
ĠMet asploit
ĠBot o
ĠIncre asing
Ġprinc ipal
odcast s
Ġspread sheet
Connect ed
Ġassess ment
Ġeduc ational
detect Multi
Ġpluginview s
---------------- ----------------
Pol icy
Pol icies
Ġcriter ion
Ġtre ated
Ġtax es
ĠPlot ly
ĠAir plane
ĠAir Sim
ĠMan ipulating
ĠJul ius
Ġroad s
Execution Exception
Ġorganis ms
1234567890 12
roubleshoot ing
Di ctionary
Simul ate
Simul ator
omew ork
ĠPe pperberg
Ġdele ted
Ġconflict s
SIG NMENT
Ident ifier
Arg uments
MODE L
rim ination
itiz en
Ġvot er
Ġvac ation
Ġvac uum
Ġeth ical
ĠFe atures
Ġexpect ations
ĠLight FM
ĠNa ive
ĠGerm any
Ġobser ved
detail Transaksi
door bell
ĠTraining Arguments
Ġinvok ing
DebugContext Holder
Ġscenari os
Ġbenef iciaries
.* ;
Host sMap
Hero ku
gu ess
Ġcir cular
arb age
Ġann oun
omin ant
ĠEar th
ĠEar ly
Ġreset ting
Ġworkout s
Ġimm une
Ġposs ess
Art icle
Rest ore
cut s
writ elines
Ġpan el
Ġhero ku
Ġvol tage
ĠFinger Id
ĠWill iam
Incre ase
Ġinterpre t
ĠEngine ering
ĠSerial izable
feed back
Ġfreigh ters
Author ization
Supp ly
Ġopportun ities
Ġsampl ing
Ġmouth wash
Ġdash boards
ama zon
ĠASD s
ĠEd ge
ĠGu ide
ĠIndex Error
ĠKnow ledge
Ġdepos it
ĠScient ific
ĠIntern ational
ĠOrder Item
fast a
pri etary
Ġpa ired
imonial s
Ġforens ic
Ġreq west
ĠAuth entication
quence File
inte ger
ĠEst ablish
Ġexpen ses
perf mon
ĠVo ice
Ġunivers als
Ġfreew ay
Ġlandsc ape
Ba obab
Direct ory
Publish er
sat isfied
ednes day
Ġban ana
Ġhel ping
ĠSum mary
ĠMult inomial
ĠLinear Regression
ognit o
ĠStand ard
Char lie
ĠProf essor
Ġphenomen a
Ġfamil ies
Phys ics
Depend encyError
Renderer ID
ĠVisual izing
Argument Parser
occurr ences
Fit ness
MAN AGEM
PQR NodeMetrics
lip se
pul se
sur prise
ĠâĨ ĳ
Ġsomew hat
Ġmira cle
ĠTE EB
Ġgal ax
ĠCirc us
ĠSV N
Contains Key
Ġsitu ations
Ġcombust ion
kgd Color
ĠDrone Kit
Ġhypo thesis
CUR RENT
Cascade Classifier
Did Load
Gr Name
Pur ge
Rober toA
ZValue TimeBar
fron tal
rran jan
sig moid
spl ash
saved InstanceState
sanit ized
attempt s
Ġcros sover
Ġful ly
Ġome ga
stag land
ĠIMD b
ĠSwitch ing
Ġdegre es
Ġeigh th
ĠNarr ator
ĠOUT PUT
ĠKMe ans
prett ify
ĠWhats App
Ġgeomet ries
destroy AllWindows
haarc ascade
ĠCAPT CH
OnClick Listener
assertRa ises
USERPRO FILE
Ġcybers ecurity
detectMulti Scale
ĠMultinomial NB
MANAGEM ENT
PQRNodeMetrics Configuration
" -
" ]:
" ].
" \']
% !
% +-]+@[
) -
) `.
* =\
* ["\']
, %
. -]+\.[
/ *
/ ?
0 6
3 7
3 8
6 1
7 128
9 660
: -
: {
: ')
; '
; ')
= ')
= ',
> ",
A A
A D
A z
A smHandler
B l
C N
C are
C alled
D A
D N
D at
D own
D rop
D elay
E F
F L
F S
F our
F older
F aker
G D
G u
G rab
H ere
H ave
H elper
H INE
I OS
I SM
J ane
L A
L P
L U
L ondon
M Q
M Y
M r
M ut
M ail
M ath
M edia
M any
M oz
M issing
N umbers
O C
O ther
P M
P ort
P art
P open
P rivate
P aint
P dfFile
P redicate
Q U
R M
R el
R ect
R out
R ange
R OR
R IM
R CLONE
S Y
S m
S top
S ports
T r
T ile
T ap
T arget
T AR
T ypes
U N
V e
V oteRecord
W E
[ @
[ ...
] })
` ;
a j
a con
a ug
b at
b ing
b ra
b ac
b old
b ilt
b ee
b ench
c x
c lock
c lear
c odes
c rack
c ience
c wd
d k
d id
d og
d rives
d vd
e per
e lect
f w
f us
f un
f ail
f ontFamily
g if
g ender
g ins
g ather
g amma
h r
h es
h elp
h istory
h man
h appy
i ar
i ri
i able
i ans
j k
j ection
k its
l it
l arg
l ights
m b
m n
m ong
m ouse
m onday
n v
n ical
n ll
n map
n ote
p rom
p ir
p ron
p loit
r d
r one
s in
s ia
s parse
s chem
s alary
s ampl
t v
t as
t ity
t ains
t witter
t cp
t reatment
u v
u an
u ent
u int
v ot
v ue
v iant
v ariables
w r
w ra
x ic
x FF
y o
y lo
z y
{ '
} &
} </
Ù Ħ
Ġ il
Ġ ult
Ġ ions
Ġ ray
Ġ qr
Ġ ritual
Ġà¤ Ĳà¤¸
in box
in place
in ople
in ventory
th et
th ma
th etic
à¤° à¤¨
on Create
à¥ĩ )
Ġa id
Ġa pt
or ic
or ia
or ientation
er iatric
er ivative
Ġth ous
Ġth reat
Ġth irty
at in
at ivity
à¤ķ à¤¤à¤°
en ing
en values
Ġs y
Ġs il
Ġs lo
Ġs sh
Ġs ink
Ġs izes
Ġs udo
Ġs ulf
Ġs impl
Ġs ensors
Ġs sl
Ġs ugar
Ġs cheduling
Ġthe ta
Ġc ss
Ġc md
Ġc umul
Ġc roaking
re plac
Ġf s
Ġf em
Ġf ly
Ġf ft
Ġf avor
Ġf irm
Ġf lying
Ġt im
Ġt all
le as
le aderboard
Ġp ot
Ġp ul
Ġp ure
Ġp utting
Ġp itch
Ġp ika
it t
it an
de ad
de cl
de tection
im ap
ro te
ro po
ro bot
ro oms
an ical
an other
al d
al i
al lic
al arm
al legro
is o
is file
is ition
is odes
à¤® à¤¹à¤¤
Ġo ven
ct yp
Ġin ch
Ġin place
Ġin come
ut ip
Ġm arg
Ġm ilit
ed erate
Ġw al
Ġw ind
Ġw ages
Ġw eak
Ġw orth
Ġw oman
Ġw aits
Ġw rote
ic ed
ur b
ur p
ur er
ur ies
ur andom
us ual
Ġan onymous
Ġd y
Ġd ac
Ġd ied
Ġd type
Ġd ownloading
et ween
as m
as lob
as ma
om ing
à¤¼ ...
Ġb g
Ġb old
Ġb eautiful
Ġb order
Ġb ases
Ġb rie
Ġb ites
Ġb isect
Ġb loatware
à¤µ à¤ª
à¤µ à¤¹
à¤ľ à¤¤
Ġl n
Ġl ens
Ġl oud
el t
el if
el led
el apsed
Ġre v
Ġre con
am l
am ine
am ber
am aged
un ting
un install
un til
un sorted
st on
st able
st ud
st eam
Ġn th
Ġn est
Ġn one
Ġn lp
il s
ĠP L
ĠP S
ĠP ac
ĠP ier
ĠP DO
ĠP RIM
ex it
Ġh r
Ġh op
Ġh ole
ag ic
ag onal
ess ment
Ġà¤¹ à¤®
Ġ' ~
Ġ' ').
Ġà¤¨ à¤·
ĠA de
ĠA ff
ĠA ge
ĠA DC
ĠA smHandler
ĠT S
ĠT es
ĠT om
ĠT each
ĠT ik
ĠT rie
ĠT aking
ĠT orah
Ġà¤² à¤Ĺà¤¤
ation Data
') ])
em e
em ploy
à¤ģ /
(' *
ot ion
ce ive
ul in
ul ary
ul let
Ġg n
Ġg ro
Ġg ates
Ġg one
Ġg zip
Ġg pus
Ġg aussian
Ġg arbage
ec es
ec lipse
um ph
ĠC y
ĠC are
ĠC ards
ĠC EP
ĠC RU
est im
ri er
se p
se y
se ct
se Parent
ĠI ss
ĠI SO
ĠS on
ĠS ch
ĠS ave
ĠS ign
ĠS truct
ĠS outhern
ĠS tock
ist ed
Ġde al
Ġde compress
Ġst ub
Ġst ew
Ġst der
Ġst omach
rom ecast
ile o
ver aslob
ĠD ar
ĠD iv
ĠD uring
ĠD raw
ĠD rop
lo or
Ġis Valid
ve led
Ġà¤ľ à¤µ
Ġas ph
à¥Ģà¤Ĥ )
ab etically
Ġpro of
Ġpro tection
Ġpro ceed
Ġpro stagland
ig gins
ig envalues
Ġv ess
Ġv ast
Ġr anges
Ġr atio
ib ly
ib ling
ub es
od ome
od ings
Ġcon ven
Ġcon caten
ter y
ter ey
Ġon shore
and ria
ir q
ir by
ir cular
Ġwith Loading
ew is
ass ignment
he ader
he ights
Ġe Sports
ime o
Ġ1 87
iz ers
for ecast
pl ugged
ĠM D
ĠM or
ĠM ain
ĠM uss
ĠM PItrampoline
ĠM achine
Ġ" ..
Ġ" --
ĠF re
ĠF al
ĠF ast
ĠF ield
ĠF ocus
ĠR am
ĠR ender
ĠR NN
ĠR asa
ĠR abbit
Ġcom ing
Ġcom pared
ĠE V
ĠE ast
ĠE co
ĠE UR
ĠE duc
ĠE there
ĠE uclidean
ĠE dfReader
up grade
com ments
Ġà¤ªà¤° tableauslot
Ġà¤ªà¤° wasteslot
Ġà¤ªà¤° reserveslot
pro tocol
pro phet
pro duction
Ġex ec
ĠB all
ĠB ath
ĠB oot
ĠB owers
ĠB loom
ĠB ullet
ser ts
Ġch ron
Ġal one
Ġal location
Ġal paca
Ġk w
Ġk oseki
Ġk ernel
cl ause
os cience
à¤Ĩ à¤µ
ĠL ib
ĠL ord
ĠL ambda
ĠL esson
ĠL ASCO
ĠL ewis
ĠU T
ĠH aydn
ĠH OC
Ġwe alth
ap ed
Ġdata Map
ĠN S
ĠN Y
ĠN or
ĠN ight
ĠN ik
ĠN ormal
ĠN ikto
ĠG ust
ĠG ree
ĠG PT
ĠG iB
ĠG estureDetector
ĠG dk
ult ural
ult ane
per ly
Ġsp here
Ġsp iders
Ġres id
ĠW ait
ĠW rapped
lic ations
ide l
get size
get Logger
get GPU
get cwd
ang ling
Ġme ant
Ġor ientation
iv y
iv en
def ender
ĠO F
ĠO ur
ĠO Auth
ĠO wn
ĠO ptical
ĠO ptuna
__ .__
out box
à¤Ľ à¤¹
Ġle v
à¤Łà¤° à¤µ
à¤ĩà¤¨ à¤¬
How ard
Ġen hance
Ġen joy
Ġen hancer
Ġen clave
oc ial
all close
Ġman ually
In te
In iti
In gre
In vit
Ġ[ ],
00 60
ep h
Ġsc ans
Ġsc oring
ens itive
Ġprocess or
Ġpo inter
ant ine
ant inople
ates Aut
Ġad jacencyList
Ġad hes
à¤¢ à¤¨
ear s
ĠIn k
Ġat omic
Ġat oms
ac ity
Ġsh if
Ġsh atter
Ġsh ift
Ġsh arp
Ġsh ared
Ġsh uffle
Ġsh oes
)) ]
ĠV ector
ject ory
Ġpl us
Ġpl anned
Ġpl ugins
Ġpl asma
Ġspec im
:// /
Ġper man
Ġper ceived
Ġper mutations
te go
te enth
ph as
son ia
Ġmanag es
Ġj ail
Ġ3 65
Ġun like
Ġun used
Ġun defined
Ġun iform
Ġun expected
Ġun authorized
Ġun responsive
': '
=' .
Ġse at
tr ast
tr ends
Ġtext ure
Ġac quire
Ġac ade
Ġem phas
Ġcomm a
Ġcomm its
sc i
sc roll
sc issors
An jut
An gle
Con ditional
Ġdis count
Ġdis asters
class ifiers
cul es
ud acity
:: <
ĠJ ew
ĠJ WT
Ġset ter
Ġpre cise
ling uistic
atch ed
Ġser v
fig ure
ob server
ash ion
Ġint ense
Ġro unded
Ġmod al
Ġmod erate
ĠAn g
set active
ms config
à¤°à¤ķ à¤Łà¤¨
ĠCh ina
âĢĻ |
Ġkey Label
Ġout going
ĠK EY
gr asses
ER ROR
Ġrec over
ari um
comm unity
Ġ5 5
Ex t
Ex pect
Ex plore
ĠCon f
ĠCon text
ĠCon servation
ĠCon structor
ĠAd min
ĠAd versarial
Ġinter fer
Ġ4 2
Ġ4 44
Ġso ft
Ġform atter
pre f
pre t
pre pare
pre diction
Ġcre ator
ish ment
ĠDe ep
ĠDe vices
ĠDe leting
ĠDe viant
log Attribute
system ctl
Ġword list
Ġwork dir
Set ter
ĠSt ick
ĠSt reet
press ing
arg c
fil tr
Ġtest ed
Ġcurrent Node
Re fresh
Ġspecific ations
Ġreg ulated
Ġreg ulatory
ĠRe fer
ĠRe view
ĠRe ality
ĠRe fresh
du cer
Ġra pid
web s
Ġsub graph
Ġsub sequ
anc ell
Ġelement ary
Ch apter
Pro fit
Ġfe ver
gorith ms
St at
St ore
Ġz oom
Ġcomput es
face book
Ġpart y
Ġmin imize
test type
Ġag ree
Ġplay ers
Ġdet ector
Ġbo ys
Ġ19 90
my recording
cre en
cre ation
ĠEn d
inter val
inter net
bot tom
Ġlang uages
tem peratures
vert ising
rypt odome
pr ime
ĠPro gress
Sc ratch
Ġrem ember
min utes
Ġ200 2
token izer
Ġloc ate
Ġloc ale
Ġdec ryption
Ġdec ades
Ġdec isions
ik i
Ġ& [
Ġiter ating
Ġiter ators
Val ues
Ġco ins
Ġco oling
Ġph rase
wh ite
wh ich
ĠUn able
ĠUn installer
Cont ainer
To k
train ers
Ġextract ing
ek ly
que e
Ġcustom ers
col lator
Ġthem e
ĠJSON Path
round trip
Open Key
à¤Ĩà¤¯ à¤¡
ert y
Ġconfig ure
Ġconfig Map
ie th
sp ell
sp eaker
reg ular
reg ionManager
ores izing
Ġvoid s
Gener ating
Gener ated
Ġ8 000
Ġrandom ly
ote Objects
De vice
Ġactiv ations
air s
Ġblock ed
Ġspe zz
20 20
à¤ĺ à¤Ł
Ġpop up
Ġpop ulates
ĠCom pressing
Ġaccess ing
Ġaccess ibility
à¤°à¤¹ à¤£
Ġfl ights
._ %+-]+@[
ST OR
ST EM
ĠAl gorithms
ET E
OL O
Ġenc rypt
Ġenc aps
Ġenc losed
dis card
rop ol
Ġoptim ized
Ġge oscience
ĠCl ip
ĠCl oud
Ġrep et
ĠMy Model
Ġtop ics
ident ified
Ġsocket server
Ġ{} '.
=" {
=" $(
Ġbre ed
Ġmov es
div isor
host s
book marks
ps il
Ġhelp ed
Ġstatus es
Ser vices
oh en
fl ights
Ġcar la
Ġcar riage
Ġfol ium
ĠGener ative
Se lection
Ġmiss ion
Ġconstruct ors
Log ged
Ġlong itude
Ġrecomm ended
ĠAss ume
Control Set
Object Factory
SE QU
pdf gen
Ġsupport ing
ĠZ oom
ĠZ acharias
ĠDis c
show DeleteDialog
Ġver b
Ġgraph ical
ĠFile System
Not Verify
Ġsn mp
Ġgra d
Ġcons oles
ber duck
doc s
Ġroot ed
filter s
Ġdem and
Ġdem ands
Ġdem ocratic
med ian
Ġ7 5
env s
Ġprodu cing
Ġconnect ing
Ġequ ival
ĠUp load
mod ified
Ġent ities
Ġtab list
Value Error
11 1
not epad
Ġq utip
Ġfunc s
mer ged
Ġà¤¸à¤¬ à¤«
AC CE
Ġscreen info
do ctor
met a
any ListItem
Ġorgan ize
Ġorgan izing
App ly
App end
Ġsol id
Ġsol ver
Ġsyn thesis
Ġrepresent ed
UI Image
hash map
ĠSh ort
Ġauthor ity
Ġauthor ization
Ġevery day
uper vis
Ġcolor ed
Al lowed
ram ing
Ġinf inite
Ġtransform s
ENT IAL
Ġident ified
copy tree
Ġke ypress
Ġthink s
Ġcap ital
[: ,
hello fc
part icle
Ġ? )',
alt y
Ġappro ved
transl atesAut
Ġtechn ique
Ġtr ash
Ġtr ending
Ġperson s
ĠInst ant
Ġfeed forward
Sub view
Sub graph
Ġter rit
ĠUI TableView
bu ilt
Ġdid n
Ġbro ken
extract all
Met a
State ment
Message Definition
eg in
xml Reader
Ġtri ed
ĠAs k
comp iler
comp anyId
ĠNetwork s
Ġclip s
Ġclear ly
Ġplan etary
Ġkeep ing
limit ing
Ġconvert ed
Ġshort ener
Ġcommon ly
Ġparticular s
CR ET
ds k
Ġshe et
Ġear lier
ĠOption s
Bo ard
On ly
On line
ĠPh ill
Ġà¤Ĩà¤īà¤Ł à¤¬
Per missions
gre y
gre SQL
eap ObjectFactory
Ġevalu ating
boot rec
Ġindust ries
Ġflu ids
ĠGe ant
ĠGe ographical
ĠWork s
Ġneg ot
Ġinteract ing
Ġinteract ive
fact or
Ġutil izing
Ġpur poses
Ġmot ivation
Ġredu ced
ĠRep ublic
Ġadv ant
Ġarch iving
mat plotlib
dev mgmt
Ġnormal ly
ĠAt tribute
Ġcompar ing
Ġmeasure ment
EN V
know ledge
Ġsw elling
Ġsw apped
rel ative
pair wise
ĠBio Python
ĠApply ing
AG S
CL ang
US B
activ ate
activ ations
ĠStart up
Implement ed
Lay er
be at
sn ort
inc ipal
Ġwra pped
Ġdim en
Ġhapp ens
ĠDec ision
ĠDec oding
ĠDec ember
ĠMe as
Ġmask edDiff
static method
ĠThere fore
Ġattach ment
Ġframework s
As ync
Pl ugins
Pl ainText
Su ite
build ing
Ġbig gest
Ġexecut es
ĠBe fore
Reg istry
Ġinstall ation
(& "
Ġphot ograph
Ġphot ometry
ĠTra ditional
Ġcommit ments
prec ision
1234 56
Ġdeploy ments
Ġsummar izer
Ġfib ers
Ġpix els
Ġtow er
istic Regression
ĠDet ails
ĠLoc al
Ġadjust ing
Ġparent Map
Ġsuff icient
Ġdiagn ost
Mod al
UL T
cos ity
ral ized
ĠHind us
Ġjo in
Ġjo urnal
Process Error
Ġidentify ing
17 2
IO Exception
Qu eries
}\ "\
Ġsit k
Ġca ught
Ġmole cule
Ġmole cules
Ġbi ases
Ġbi ology
exp and
ĠCustom erFrame
ĠManag ing
Ġcomb ine
ĠLang ston
angle Surface
Ġaccept ed
news letter
Function s
Lib isofs
rm dir
erial ize
Ġremain ed
ĠAlex andria
Ġradi i
Ġmaintain ed
Ġsignificant ly
Ġign ition
Ġhold s
ĠAut ism
ĠAut oware
Ġ15 00
Inter rupt
Ġserial ize
Ġserial ise
Ġserial izer
Fetch er
lat ency
lat lng
sql ite
inf old
inf ected
inf odict
ament al
Ġconvers ations
Ġey es
Ġadmin istr
Ġpredict ed
Ġdescrib es
Ġfinish ed
au x
bon ded
cam era
mak ers
Ġur ban
Ġaff inity
Ġaff iliate
Ġsix teenth
Ġmount ain
ĠPost gres
ĠPost greSQL
ado x
Ġdecode d
Ġeng aging
Ġstudent Courses
spec ific
ĠValid ationError
"> </
Pix map
Work Station
pin ions
dec rypted
ĠHttp Redirect
ĠOper ations
Ġintrodu ce
((' ',
He ader
Ġinc ident
Ġbl ue
ĠCG Point
ĠCG ImageSource
Ġprob able
contains Key
Ġpoll ution
Ġoccurr ence
Password Manager
Ġcoca ine
Ġtur key
alind rome
Ġmer ely
Ġlik es
Ġscen es
scra ping
related News
Ġroundabout s
Access Exception
Lo op
tw o
attr s
Ġfund amental
Ġfont Family
Ġfoot er
Ġteach ing
Ġtutorial s
Ġins ights
Ġinher it
Ġmix ed
ĠBar rie
Ġatmosph ere
Extract or
Ġnumer ical
Ġsniff ing
Ġinvest ig
Lock WorkStation
Ver ifier
fol io
fol lower
Ġliter ary
Ġliter ature
Ġrepe ated
oph os
ĠMal i
ĠEcon omic
ĠHash Set
period Enum
ĠWith in
ĠThread Pool
Ġsegment ation
Program ming
Ġcraw ler
Ġreason ing
Ġdev oted
Ġstri kes
Ġsuit able
Ġdrag ging
Ġparticip ants
Ġrefin ing
Ġrefin ery
Ġmeaning ful
Ġheav ily
Block s
GI F
Sum mary
Ġsens es
Ġpers u
Ġpers pect
Ġwon der
Ġlab or
upd ates
clus ter
Ġclaim s
ĠVis it
Comp at
Ident ify
Ass ist
counter s
non Empty
watch ed
Ġmo isture
Ġreplac ed
Ġexplain s
phot ometry
ignment Status
Ġobser ving
Ġanalyz ing
Ġsubmit ted
Ġbelie fs
Ġconcern s
Ġconcern ed
Pair s
QR Code
course Name
tm ux
ĠPr ice
ĠSu ite
Ġaltern ate
âĢĺ ,
activity Monitor
Ġseed s
Ġprepar es
crete Signature
remind er
remind ers
Ġtruth s
REG ION
Mask Into
ND ER
Virtual Attribute
wl an
Ġcd record
Ġcook ies
Ġtun ing
Ġlat itude
Ġlim b
Ġlim its
ĠClear ing
ander bilt
ĠFurther more
Incre mentUsage
Ġimag ine
Ġassass ination
Ġagre ement
Ġfreigh ter
Ġincreasing ly
ĠQuant Lib
Success fully
Ġopportun ity
Ġelev ation
Ġastronom ical
Ġaccomplish es
Random Tick
Ġ] ];
Ġpi eces
Ġpun ctuation
Ġmist akes
Ġwest ern
Ġwood s
stro kes
ĠSort ing
Ġproc urement
ĠFeder al
ĠFeder ation
Ġspect rum
Const raints
ĠAnt ivirus
Ġdescript ive
["\'] ',
Ġdram atic
Ġdram atically
ĠAddress ing
ĠPhys ical
+) ["\']',
MAC HINE
Rad ius
Tw o
spa ces
track er
Ġtrib es
Ġbunch grasses
irth Day
Ġwithdraw al
ĠBack trader
ĠBert For
ĠLa unching
Ġdefe at
Ġjud gment
Ġcommission ers
Ġneur ons
ĠChild ren
ĠStud ies
Ġtwent ieth
Ġdemonstr ated
Ġdeepf ake
ĠDecre ase
LOC AL
Operation Exception
Ġprinci ples
Cal endar
circ le
×Ķ ×
Ġtcp dump
Ġpron unciation
develop ment
rott le
Ġtom orrow
Ġdanger ous
Ġrule d
Ġintro spection
Ġrecurs ively
summar ization
ĠPyC ryptodome
Ġrepetition s
Ġaccel eration
ĠtasksPer Hero
Ġpurch ase
categor ical
Br ute
Focus ed
Optim ize
Ping Error
Sk ip
Ġcategor ies
Ġtor que
leak y
Ġmess aging
Ġdou bt
Ġliqu id
Ġran ch
ĠMaterial s
ĠFix ed
Ġchamp ion
Ġspi ritual
Ġspot ipy
Ġadop ted
Ġneut ron
ĠEnc rypting
ĠDemonstr ating
([^ "\']
Ġsurg ical
Ġaccur ately
Ġgenes is
Ġcommunic ations
SEL CT
THE ISM
ĠLicens ing
Ġdiscus sed
'^ [
Du plicate
Division Error
Util s
bas ename
hea pp
lig and
lap seParent
lins pace
tim eline
revers ed
Ġfab ric
Ġtel esc
Ġlob es
chk dsk
exactly Located
ĠTuc son
ĠTele gram
ĠCour t
Ġalph abetically
ĠGold en
Ġshield ing
Ġcontr ast
Ġparaff in
ĠKe ep
Ġbackpropag ation
Ġdecent ralized
ĠZero DivisionError
Ġlegit imate
ĠEarly Stop
ĠCAPTCH A
*["\'] ([^"\']
Called ProcessError
FL AGS
Gu ess
Mut ationData
Moz illa
PdfFile Reader
SY STEM
TAR GET
[... ,
aj ax
bee f
Ġmilit ary
Ġdac bench
ĠPRIM ARY
ĠTik Tok
Ġstder r
veraslob bies
ĠRabbit MQ
ĠEthere um
ĠBullet in
Ġchron ic
ĠGust av
getGPU s
Initi ate
Ingre dient
Ġperman ent
Ġacade mic
Expect ations
ĠAdmin istration
Ġ444 4
ĠDeviant Art
bottom Anchor
Scratch box
oresizing MaskInto
oteObjects Record
Ġspezz ati
SEQU ENTIAL
NotVerify Qt
Ġequival ent
ACCE SS
hellofc ctyp
translatesAut oresizingMaskInto
built in
ĠThreadPool Executor
ĠEarlyStop ping
*["\']([^"\'] +)["\']',
MutationData Fetcher
translatesAutoresizingMaskInto Constraints
" '
" }'
" ));
' !
' #
( ')
) (
) ")
) ])
) **
+ '
+ ',
. ).
/ ',
/ ':
1 10
2 11
4 2
5 12
6 35
7 9
7 40
8 3
8 8
: "
: ])
: **
: )`
< '
< (),
= /
> ?
> `
> ')
> ("
> (&
? (
? ;
A cre
A mount
A lert
B i
B it
B ind
B ear
B IN
B asic
B inary
B ankAccount
B olivia
B etween
C S
C re
C ut
C aus
C ancel
C ultural
D ark
D isk
D uring
D omain
D Sh
D escription
E D
E K
E qu
E SM
E LM
E bb
E vrythngScanner
E verything
F G
F ake
F unc
F loat
F ull
F ont
F lat
F ontFamily
G if
G AN
G esture
G aussian
H A
H our
H ID
H idden
H eapObjectFactory
I on
I ENT
I ES
K D
L ike
L EA
L ift
M ill
M ark
M arch
M OS
M usic
M onitoring
M ouse
M onth
M onday
M achine
M iddle
N A
N G
N a
N ext
N ight
N OR
N ets
N odes
N ested
N orton
O ff
O UR
O wn
O THEISM
P en
P ress
P atch
P ages
P ause
P ole
P EN
P eter
P ORT
P alindrome
R ates
R ows
R ename
R AM
R ATION
R osetta
S Z
S an
S elf
S ide
S tri
S ince
S peech
S CP
S ND
S ibling
T A
T I
T om
T ag
T we
T CP
U pper
U AC
U SD
U sers
U WSGI
U NDER
W arning
W AS
W eakMultiMap
W ednesday
Y es
Y OUR
Z a
Z ero
Z Lay
Z illa
[ [
[ \
\ ",
] '
] ')
] ()
] )),
_ ='
_ ='+
a a
a ur
a ile
a ith
a led
a ware
a Host
b f
b i
b ut
b ass
b ine
b right
b ird
b ios
b oost
c ou
c art
c py
c make
c apture
c urrency
c ircuit
c math
c aptcha
d g
d os
d rain
d ark
d type
d jango
d antic
e in
e or
e val
e ther
e ffects
e zer
f p
f da
f ailed
f mt
f rames
f acing
g l
g ar
g age
g ers
g ene
g ativity
h w
h um
h pp
h ang
h ous
h icle
h avi
i en
i est
i ated
i ety
j ob
j pe
j ane
j wt
k in
k ah
k ills
k means
k ZValueTimeBar
l c
l ime
l ph
l ude
m em
m aries
m ute
m aint
m unity
m ultipart
n m
n one
n els
n layout
n ership
n ikto
n lp
o j
o on
o auth
o cean
p es
p ex
p ull
p olation
p unk
p ornhub
p ika
p elled
q ws
r ates
r ule
r ss
r ides
s ch
s ad
s ame
s per
s imul
s ions
s ym
s imple
s uspicious
s bc
s CollectionPrefix
t b
t n
t un
t ec
t urn
t ect
t art
t ip
t act
t aking
t une
u co
v est
v ents
v ote
v fs
v env
v ements
v uln
w ake
w idget
w elcome
y y
} `
} {
} .')
Ġ ;
Ġ ×Ķ×
à¤ Ĭ
Ġà¤ ĵ
Ġà¤ Ŀ
in ent
in ck
in valid
in ars
in cts
th yl
à¤° à¤¸à¤ķ
on der
on line
à¥ĩ ;
Ġa i
Ġa qu
Ġa ud
Ġa io
Ġa part
Ġa fford
or ious
er ating
er iff
er ved
er cial
à¤Ĥ /
à¤¿ %
Ġth in
at r
at yp
at App
ĠĠĠĠ ĠĠ
en is
en ew
en able
en thes
en hanced
Ġs us
Ġs urr
Ġs ell
Ġs cho
Ġs aw
Ġs ns
Ġs lice
Ġs light
Ġs arc
Ġs essions
Ġs weet
Ġs anitize
à¤¨ à¤ª
Ġc g
Ġc as
Ġc rop
Ġc amp
Ġc oding
Ġc utting
Ġc itizens
Ġc andidate
re mail
re lation
re ceive
re Off
Ġf ou
Ġf ant
Ġf ence
Ġf resh
Ġf lood
Ġf rust
Ġf mt
Ġf ellow
Ġt t
Ġt tk
Ġt ape
Ġt ribe
Ġt au
Ġt roubleshooter
Ġt ruck
Ġt ropical
à¤¤ stockslot
le ts
Ġp ed
Ġp ag
Ġp ip
Ġp ill
Ġp riv
Ġp ending
Ġp ots
Ġp ausing
Ġp ounds
it a
de legate
de precated
de posit
de gree
im b
ro vers
an z
an uk
an sonia
ion Error
al go
al LM
is a
is et
is ph
is ces
is dig
is patch
ar an
ar pen
ar ma
ar eness
Ġo mit
Ġo pinions
à¤¹ à¤®
Ġin n
Ġin line
Ġin deed
Ġin sects
Ġm os
Ġm yst
Ġm ute
Ġm Count
Ġm ysql
Ġm iddle
Ġm RendererID
ed it
ed ical
yth ropo
Ġw ash
Ġw ww
Ġw elcome
Ġw aters
Ġto ur
Ġto ld
Ġto ugh
Ġto Key
ic a
ent ed
ent ities
ent icated
ent inck
ur adio
us es
us ize
Ġan es
Ġan ger
Ġan chor
Ġd ct
Ġd ut
Ġd ol
Ġd under
Ġd engue
Ġd erivative
et ers
et te
et ix
et emp
as dg
à¤ı à¤«
Ġb ow
Ġb right
Ġb io
Ġb its
Ġb ored
Ġb rown
Ġb ench
Ġb kgdColor
Ġl r
Ġl in
Ġl ing
Ġl an
Ġl if
Ġl atter
Ġl ie
Ġl akes
Ġl osing
el ry
el grind
Ġre volution
am d
am ents
un g
un i
un ame
un its
un seen
un etix
ch ewing
st em
st ri
st imul
st ood
st atist
st ropy
à¤ļ à¤®
... )
Ġn d
Ġn f
Ġn ine
Ġn ice
Ġn eck
Ġn ecess
Ġ( (
ĠP a
ĠP u
ĠP ri
ĠP op
ĠP and
ĠP ass
ĠP hot
ĠP air
ĠP ID
ĠP ipeline
ĠP interest
ĠP odcasts
ex er
ex as
ex ist
ex pression
ex change
Ġh us
Ġh am
Ġh un
Ġh em
Ġh ide
Ġh all
Ġh olding
Ġh omework
ag er
ag ine
Ġ' _
if act
ĠA g
ĠA void
ĠA gre
ĠA SC
ĠA UP
ĠA stropy
à¥Ĥ à¤ģ
ĠT H
ĠT er
ĠT ur
ĠT ake
ĠT witch
ĠT ribe
ĠT HE
ĠT eam
ĠT roubleshooter
ĠT erminal
ĠT exas
ation Not
ate Name
') ))
ou i
ou l
em o
em q
em inars
ra di
ra dar
(' <
(' _
() }')
() ->
() }:
ol ly
ol ves
ot le
ot ation
ot ely
id ance
id ia
id ier
id isc
ul u
Ġy t
Ġy out
Ġy aw
Ġy rs
Ġy ellow
Ġy aml
Ġg all
Ġg ard
Ġg ithub
um per
ad jacencyList
ĠC T
ĠC ython
ĠC ur
ĠC ra
ĠC ost
ĠC ath
ĠC ourse
ĠC ivil
ĠC MD
ĠC ohen
ĠC ESM
est er
est ment
est roy
est ival
ri entation
se par
qu ote
qu eries
int ensity
ĠI S
ĠI van
à¤£ à¤¸
ĠS en
ĠS im
ĠS ol
ĠS yn
ĠS ource
ĠS uch
ĠS ID
ĠS TP
ĠS SD
ĠS imilar
ĠS aving
ĠS andbox
ĠS PQRNodeMetricsConfiguration
ist ribute
ist otle
Ġde b
Ġde aling
Ġde lta
Ġde grad
Ġde legates
Ġde eper
Ġst re
Ġst un
Ġst ation
Ġst ance
Ġst ability
Ġst ride
Ġst reet
à¤ĸ à¤ķà¤°
ile t
ver ning
ver ification
ĠD B
ĠD ise
ĠD escription
ĠD ummy
Ġ{ {
Ġ` -
Ġ` .
Ġ` <
Ġ` --
Ġà¤ľ à¤¹
Ġas thma
pp lication
ab c
ab ol
ab stract
ab solute
Ġpro te
Ġpro ton
Ġpro test
Ġpro files
Ġpro hib
Ġpro pag
Ġpro prietary
Ġv ary
Ġv ibr
Ġv ill
Ġv ocab
Ġr c
Ġr f
Ġr h
Ġr am
Ġr ated
Ġr ings
Ġr ises
Ġr enaming
Ġr ulerships
ib be
Ġà¤ħ à¤Ĺà¤²
ext ensions
od b
od ay
od ds
Ġcon fer
Ġcon sp
Ġcon ference
Ġcon duction
Ġcon sciousness
Ġcon vey
ck et
Ġon Create
Ġon going
ir med
à¤ħ à¤ªà¤°
ew elry
ass istant
he pt
Ġe ph
Ġe ight
Ġe lection
Ġe astern
Ġe psil
end a
end y
Ġ1 20
iz ard
for cing
pl us
pl ugins
ĠM P
ĠM as
ĠM el
ĠM art
ĠM ount
ĠM ore
ĠM ock
ĠM ong
ĠM oss
ĠM icro
ĠM essages
ĠM ars
ĠM agn
ĠM IG
ĠM IT
ĠM eter
ĠM otor
ĠM onday
ĠM arian
ĠM agenta
Ġ" [
Ġ" \
Ġ" {
Ġ" ../
ĠF rom
ĠF ine
ĠF ord
ĠF ish
ĠF und
ĠF lu
ĠF rame
ĠF ood
ĠF aker
ĠF FT
ĠF ollowing
ĠF riday
à¤Ī à¤ľ
ĠR ing
ĠR el
ĠR ating
ĠR OM
ĠR AN
ĠR obot
ĠR enaming
ĠR oy
ĠR ipper
ĠR NA
ers ky
Ġcom position
ĠE ss
ĠE CL
ĠE uler
ĠE last
ĠE vrythngScanner
pa ces
oun ced
ue Stack
up iter
up coming
com bin
pro g
pro file
Ġ+ "%
Ġex cess
Ġex change
Ġex cell
Ġex plorer
Ġex posed
ĠB i
ĠB at
ĠB ea
ĠB ud
ĠB erm
ĠB erkeley
ĠB rown
ĠB abbit
ĠB irth
ĠB BC
ĠB rian
ĠB ursitis
ĠB IOS
ĠB urp
ĠB entinck
Ġ2 8
ser vers
Ġch est
Ġch arg
Ġch ose
Ġch lor
Ġch amber
Ġal t
Ġal le
Ġk g
Ġk n
Ġk en
Ġk il
Ġk ill
Ġk afka
Ġk ivy
Ġcan cell
os m
os ed
art Pole
ĠL ad
ĠL and
ĠL ong
ĠL iter
ĠL ev
ĠL STM
ĠL ayout
ĠL atin
ĠU s
ĠU pon
ĠU SS
ĠU til
ĠU tilities
ĠU UID
ip File
ain ing
ĠH ello
ĠH aw
ĠH andler
ĠH arr
ĠH IV
ĠH ospital
ĠH iggins
Ġà¤Ĩ à¤ĸ
Ġà¤Ĩ à¤°à¤ķ
Ġà¤Ĩ à¤µà¤°à¤£
ap ing
ary Manager
ĠN ations
ĠN umber
ĠN If
ĠN avigate
ĠN UL
ĠN essus
Write Think
form s
Ġbe ar
ĠG B
ĠG L
ĠG re
ĠG ate
ĠG lo
ĠG ood
ĠG lobal
ĠG AN
ĠG uid
ĠG enetic
ĠG abri
Ġsp ool
Ġsp ills
ĠW in
ĠW il
ĠW hether
ĠW ireshark
ĠW HERE
Ġ} '
'] ))
'] }%
Ġfile input
Ġfile cmp
get root
get Text
get Active
ang les
con dition
con sum
con cat
con versions
to String
to Key
to Lower
Ġor thod
Ġor bit
res olution
res ources
str ateg
ĠO R
ĠO ates
ĠO wl
ĠO BS
__ "
pen se
Ġ- --------
Ġle ct
Ġen code
Ġen ables
oc ode
oc ities
all profiles
Ġ# [
ran t
Ġcl f
Ġcl one
Ġcl ause
Ġma le
Ġma ze
In d
In it
In formation
In Year
text area
ack son
Ġ[ -
Ġ[ ['
Ġ[ {'
Ġsc ene
Ġsc ope
Ġsc aling
Ġnot ify
Ġnot ifications
ug ging
path y
lib bon
Ġstr cpy
Ġpo le
Ġpo etic
ant ry
ant onym
Ġdes igning
print ing
ations Keys
ill ary
Ġad vent
Ġad her
Ġad versarial
Ġad vertising
ear est
ear ly
ĠIn d
ĠIn formation
ener gy
load er
ac le
ac ement
Ġsh ipping
Ġsh utdown
Ġsh eriff
ĠV M
ĠV ot
ĠV ict
ĠV anderbilt
Ġmethod ologies
Ġpl aced
Ġcont ribut
Ġcont rab
à¤¼à¥Ģ ;
ize Time
Ġnew est
Ġper haps
ust rial
Ġspecif ically
te e
te le
ft Model
ph ys
ph ology
ui pper
ys es
Ġj okes
read ing
read ings
Ġlog ical
essage Validator
ask kill
Ġun ion
Ġun ity
Ġun wind
Ġun favorite
Ġun reachable
Ġun usual
Ġun bonded
': %
work er
work ed
work out
Ġtra des
Ġtra veled
Ġup ward
Ġpar k
Ġpar agraph
Ġpar adox
Ġse ctions
Ġse ven
sh ipping
sh ared
sh arpen
ell i
ell ite
The y
Ġac res
Ġac quired
der ive
Ġem it
Ġem per
Ġem bass
à¤¶à¤¨ à¤²
Ġcomm ercial
ight ed
Ġel im
sc apy
sc anner
An t
An alyze
par ison
Con d
Con s
Con sumer
Con creteSignature
Ġdis app
Ġdis order
Ġdis co
Ġdis connect
Ġdis patch
Ġdis connected
Ġdis ruption
py name
class ify
class List
:: "
ge om
ge ant
En ergy
En queue
ĠJ er
ĠJ oh
ĠJ upiter
Ġset Content
(" \
Ġdesktop s
Ġpre ds
Ġpre fect
Ġob st
Ġob tains
Ġqu ad
atch er
Ġser ves
ound aryManager
") '
ob ile
ob oui
]) [
]) **
Ġro of
Ġmod ification
Ġanal og
ĠAn n
ĠAn swer
EA N
EA pplication
tri angle
list ing
led ispatch
set default
earch python
itor s
Ġhand led
ĠCh apter
ĠCh alice
ĠCh anging
ĠCh ris
ĠCh romecast
Ġkey ring
Ġkey strokes
Ġuser List
ook ies
ĠK i
ĠK en
ĠK Neighbors
ĠK irby
}') )
Ex it
Ex amples
Ex pression
Ġà¤¬à¤¦à¤² à¤¤
ĠCon st
ĠCon struct
ĠCon tract
ĠCon nections
ĠCon ditions
iss ions
iss ipp
Ġget User
Ġdi vers
ĠâĢ Ķ
Ġtrans ition
Ġtrans mission
ĠQ ueue
ĠQ sci
ĠQ Calendar
ĠQ KD
ĠQ uipper
Ġinter sects
Ġ4 1
Ġ4 7
Ġ4 8
Ġ4 01
start Node
add rs
à¤ħà¤¨ à¤¡
right Click
Ġmy self
Ġform al
open vas
open weather
pre fix
Th ank
ish ops
log ics
df sg
Ġcount ed
Ġcount ries
ne y
ne ver
ne igh
Ġcor i
ĠSt aticDynamicDim
po ser
arg parse
ove aHost
Ġtest imonials
und ay
Ġcol l
net flix
ĠĠĠĠĠĠĠĠ ĠĠĠĠĊ
line arity
Ġsimul ated
dict s
ble ms
web page
Ġsub tract
anc y
Ch atApp
fo ot
fo od
Ġvari ance
rec ipe
Pro p
Pro ducer
ĠY es
ĠY oung
ĠY AML
arch y
Ġass istance
Ġass ume
RL A
Ġz one
Ġpart ial
Ġpart nership
Ġmin ified
Ġmin ority
sv n
Ġinst aloader
test able
test Scores
Ġag o
Ġag ency
Ġag enda
ĠOpen FO
ĠOpen EventLog
Ġev olve
Ġpath ology
Ġwhen ever
item Sum
Ġ19 5
Ġ19 50
Ġ19 18
Ġ19 04
Ġ19 69
Ġ19 36
Ġback end
Ġback trader
jo urnal
Ġfound ation
Ġfound GrName
cre d
Ġstart Date
ĠEn s
ĠEn hanced
win ner
win sound
inter Exception
inter faces
tem po
Ġlet ters
ann y
pr n
eb b
Cl ause
ĠPro tect
Ġvis its
Ġrem ark
Ġrem otely
Ġtotal AccessPoints
trans aksi
append Child
Ġsum mer
Ġsum ming
Ġtw ice
Ġloc s
ĠImage Draw
ĠImage Grab
Ġam b
Ġdec ided
Ġsupp ose
back ground
cc c
cc nx
cc leaner
ik ing
ĠPy Rosetta
Ġvalid ations
Ġvalid ators
Ġsent ences
olog ist
View er
View ById
Ġconst itution
view Count
Ġarg ue
Ġcontrol led
Ġcontrol ler
Ġph i
ĠUn ity
ĠUn splash
To Skip
keys Projects
Ġtyp os
Ġbec oming
Ġinitial izer
Ġinitial izing
Ġsk in
Ġsk infold
Ġcustom Configs
Ġover view
ey e
Ġoff ices
ĠCheck ed
Ġafter noon
Ġport ions
Ġport rait
Ġart istic
Ġmet ers
Ġmet ric
Ġmet eor
Ġmet abol
ĠApp end
ĠApp Compat
ĠSc ot
ĠSc op
ĠSc ript
ĠSc rolling
ĠX ml
ĠX II
Ġed f
Ġrel ation
Ġrel ational
config ure
config urations
na fu
sp qrMet
reg ex
reg istration
Ġindex ed
Ġchild hood
Com munity
Gener ator
Ġno vel
Ġ6 4
Ġ6 00
Ġ: ,
Ġ: ])
Ġind ent
AL E
Ġfind ViewById
Ġmach ines
Ġtrain s
De g
De que
De alt
Ġdist ant
Ġdist ill
Ġdist ribut
Ġactiv ating
Ġactiv ates
Ġactiv ated
air port
vo ice
Ġpass es
Ġgame pad
sert ionError
ape Nets
Ġunder lying
Ġunder stood
ĠString Data
ma le
ĠAl go
ĠAl tern
OL Y
ah aran
Ġu int
Ġu uid
Ġmost ly
ĠAr istotle
Ġenc rypted
dis cord
dis qus
Ġend Node
Ġend Date
Ġge opy
Ġge ography
Ġge ological
ĠCl one
Ġsur v
Ġsur round
Ġwhere as
Ġatt end
Ġsoc iety
Ġtem po
Ġtem peratures
ĠMy Handler
ĠMy Logger
ident ifier
Ġacc umulation
---- -
Ġdest ruct
=" <
Ġpol y
Check ed
SS H
Sh eldrake
ns yl
Ġsearch ing
ush Button
Ġbot s
function al
Ġview ed
Ġupdate Mask
sw ipableView
sw earek
Ġsequ encing
orn ers
Ġpassword s
ĠSer ving
Text Field
fl ags
Ġla unch
Ġcomp ound
Ġeven ing
Se gmented
Ġpage Title
Ġdefault Value
Ad apter
Ad vanced
Key Label
me asure
Ġmiss es
Ġmiss ions
Log o
Log Id
func s
other mal
ĠTrans late
ĠTrans portState
Data Set
ĠAss ignmentStatus
Rec omm
SE CRET
Ġpower ed
current Node
ĠZ ipFile
ĠID estroy
ĠDis patch
ID LE
Wh y
Wh ich
sm all
sub graph
sub plots
Ġver ifies
Ġgraph ene
Ġrest ri
Ġrest oring
Ġleft Controls
Ġbreak s
'} ,
}") "
}") '
Ġdiv is
Time out
Time Difference
Time Imp
Time Logging
Ġgra zing
Ġamount s
cor etemp
Ġfact ory
Ġroot kits
ĠDevelop er
For Caus
Res earch
TH RE
TH LY
ĠText Field
Ġfollow ers
Ġrecommend ations
Ġ7 1
Ġ7 8
Ġ7 50
Ġaw areness
Ġincre ment
Ġinstance of
Ġconnect ivity
Ġequ ation
Ġorig inally
Ġvisual izations
create Element
ru ary
ru fus
Ġexp lo
Config Layout
Ġnews letter
Py Bytes
Ġpress ing
Ġlink edin
Ġstack ing
Ġjust ify
ĠSe quenceFile
Ġposition s
Ġq past
std in
ĠHTTP Exception
Ġsubject ive
su pp
su pported
AC HE
Audio File
respon d
Qt Core
gener ation
met als
met ric
Ġfetch es
Ġfetch Data
any DeleteDialog
ĠRem oved
Ġlocal VoteRecord
App le
IM essageValidator
Par ams
Ġsyn thetic
Ġrepresent ations
UI Control
hash ed
Un install
Un known
ĠSh ould
eak Map
link edin
task kill
Ġtorch vision
Ġhash ing
Ġhash map
ĠData Lo
DE N
DE FA
Ġweek end
address es
event Listeners
Ġmeas uring
Al ign
Ġgu ilt
Ġgu idance
Ġbeh alf
24 14
Ġident ifier
87 65
zon es
ĠIP v
ĠIs land
Ġrespon ding
Ġshell s
Valid ators
Ġcourse Name
Ġcourse Title
alt ura
clip se
ĠInter act
ĠInter face
soft max
Ġcorrespon d
ade lph
Ġtr ust
Ġperson nel
Ġmed ium
Ġmed ian
ĠPl ant
Ġprevious Control
ĠÂ ±
esc ript
Ġfix es
Ġgre w
avig ating
decode d
Ġbel ieve
ĠCont act
depend ant
Loc ationsKeys
Model Admin
mark et
Ġsuper class
Ġiniti ate
Ġiniti ated
Ġbro ke
Ġnext Relay
ĠCalcul ated
AT E
[] ):
disk mgmt
sg d
Ġdon ation
omal y
ĠPar ameters
Ġperiod s
Request Exception
Request sCollectionPrefix
Ġassign s
Ġassign ments
PL Y
cpp t
Ġbutton s
Ġstudy ing
40 3
bit wise
Ġcr yst
Ġcam eras
Ġlook ed
Ġhome page
ĠAs ia
ĠAs sertionError
('. /
Ġgrow s
select ors
comp iled
Ġkeyboard s
ĠĠĠĠĠĠĠĠĠĠĠĠĠĠĠĠ ĠĠĠĠĠĠĠĠĠĠĠĠĠĠĠ
78 4
Ġcent re
ha ust
limit ed
pop ulation
Ġfree ing
Ġlow est
Ġlength s
ĠCA RLA
vern ote
ĠRec ycle
ĠRec ursion
ĠRec omm
à¤Ĩà¤ĩ à¤ķ
Ġshort est
less on
Ġid le
Ġred dit
Ġred istribute
Ġnon linearity
Ġear th
ĠLog isticRegression
Ġmodified Config
module Name
14 15
On tology
Rem ind
gra yscale
mand atory
quit o
ĠFunction Attributes
Ġimpro vement
Ġregular ly
Ġregular ization
Ġappropri ately
13 01
go al
Ġspecify ing
192 8
Ġindust rial
Play Sound
Ġland fall
With Top
ead y
fact ory
ool box
Ġutil ities
Ġutil ized
Ġsat ellite
Ġdig it
Ġdig est
Ġredu cing
Ġadv oc
Ġassoci ation
AN G
AN Y
Ġcert ified
Ġnormal izes
Ġcho irs
ĠConfig Manager
Ġmeasure ments
EN AME
names pace
Ġpres ents
ĠCD C
Ġà¤ħà¤ª à¤¶
Ġà¤ħà¤ª à¤ł
comple x
Enum erate
Ġrecord ings
Ġgovern or
Ġgovern ments
CL IENT
Tra der
URL s
ĠTask bar
ĠMed ium
ĠRed irect
activ ation
Ġ40 3
Ġ40 4
Ġmembran es
HTTP Error
HTTP Provider
be ing
Ġpotential ly
Ġreview board
channel s
Cor r
Cell Controller
Do e
Ġbir ds
Input Stream
account Id
ĠArt ificial
weather api
Ġavoid ance
Ġnear est
ĠMessage Reader
ĠBe am
ĠBe EF
service Type
ĠJo in
ĠJohn son
ĠAny Object
control led
Ġeconom y
AB C
draw String
Ġfri ction
ĠTime Interval
Ġcommit ting
1234 5
Ġapproach es
ev ents
normal ize
ĠDisk Part
Ġparam String
Ġsuff ering
Ġdiagn osis
UL ONG
cos ine
Ġvector izer
Ġpay ing
Ġinsert ion
stop ping
Ġhot spot
sequ ences
Ġbeg un
Ġlead ership
ĠView er
ĠView Controller
Ġjo ke
Ġjo ined
ĠRead EventLog
ĠRead WriteThink
Process ing
Ġindic ates
IO Dataset
Min ute
Web hook
ca ption
network s
Ġcal ories
Ġcal oric
Ġpublish er
Ġbi om
Ġlarg er
ĠSec ession
Ġvulner able
Ġlegisl ating
Ġlegisl ators
Des k
Lib burn
aim s
Ġinstr uction
Ġant i
Ġanswer ing
ĠMiss issipp
ĠImport Error
ysc anner
Ġtraditional ly
Ġradi ation
Ġinflu ences
Ġinflu encer
FIL ENAME
gen re
tmp fs
Ġign oring
Ġflow ing
ĠSimple HTTPRequestHandler
Ġdelay Time
ION S
bound s
lat itude
ĠCall back
Ġconduct ive
plane Mode
Ġadmin istration
param iko
Ġ199 8
ĠDevelopment al
ĠCaesar ion
monitor s
over lay
ras ero
Ġur i
Ġfig ures
asp ersky
ĠSw ipableView
ĠEmp loyee
Ġemploy ee
ĠChile an
Ġtransport State
ĠReg ister
ĠReg istry
ĠReg ional
recogn izer
Ġstudent Name
rating s
Ġfu els
Ġflo ating
dec rypt
Ġmal formed
Ġbind s
Ġgl ass
Ġground s
ĠMIM EApplication
Ġexceed ing
ĠBrit ain
serial ized
serial izers
ĠOper a
Ġprec incts
Ġintrodu ction
Ġintrodu cing
Property Type
Ġprim arily
ĠCommand Executor
ĠCommand ExecutionException
ĠMedic aid
Fe atures
He ight
Simple HTTPRequestHandler
cal c
cal ifornia
mo isture
Ġcirc um
Ġpages ize
Ġinc ognito
Ġmicro b
Ġbl ade
stream s
ĠPer mission
ĠPer iodic
Ġgif View
Bluetooth Error
bt common
clean ed
ele b
lang uage
times eries
uck oo
Ġir rit
Ġfeder ated
ĠPdfFile Writer
ĠPdfFile Mer
ĠCar lo
ĠCar ibbe
Ġep ide
ĠMay be
ĠBlock chain
ĠOver all
ĠOver lay
short cuts
scra py
Ġextrem e
Ġregistered Objects
Oper ator
center XAnchor
eff erson
fg dfsg
Ġill ness
Ġfoot print
Ġteach ers
Ġins ulin
Ġdeath s
ĠMin or
ĠMin istry
ĠMet Py
ĠMet ropol
ĠBot anical
Ġwhites paces
conv feat
ĠOr gan
ĠIncre ment
ĠIncre ase
ĠKafka Producer
Ġrecipient s
ĠWebSocket s
Ġinvest ments
Build er
Red dit
Ver ification
bed ding
flu encer
has Own
long itude
Ġinfl amed
Ġdro pped
Ġdro oping
ĠPi Ã±
ĠAug mented
ĠTw ilio
ĠMon te
ĠMon terey
ĠThread Local
Dest roy
Dep loy
Or d
Pre ference
Vis itor
Ġsl ave
ĠPlot ting
section Title
irm ation
ĠHigh way
ĠKey Error
198 4
Ġparticip ate
Ġrefin eries
Ġpersonal ized
Definition s
Ġbirth day
Ġbirth Date
Render TimeLogging
Window State
custom er
fly tech
high est
sk ip
Ġsens itivity
Ġfron tal
Ġtend ons
Ġpict ures
ĠAer Simulator
Ġconsum ed
ĠFree Cell
Ġcombin ing
clus ions
Ġà¤Ĩà¤¯ à¤Łà¤®
']} ?
Ġsubsc riptions
Ġcover ing
Ġcover ed
Command Func
ARRA Y
Ġdrone kit
rim in
yl axis
Ġer ythropo
Ġord ers
Ġcapt ures
Ġcapt uring
Ġpush ed
Ġreplac ing
Ġreplac ement
Ġgyr atories
program s
Ġexport ed
ĠLe ague
ĠLe hman
Ġtrade api
ĠItem s
ĠItem Count
Ġsubmit ting
Comple x
Comple ted
Comple tion
ĠService Registry
ĠFrank ish
Ġbelie ved
Ġbenef its
09 8765
Pair ing
Sample Component
Tem p
mc q
Ġcir cul
Ġcards Dealt
Ġfail ure
Ġpri ority
Ġann ual
stor binary
ĠMar x
Ġcompress ed
prof essors
Ġprepar ation
Ġqual ities
Ġqual ify
ĠConnection Error
Ġinterest ing
coordin ate
Ġrelig ious
rupt ed
ĠTimeout Error
Api Error
Me thod
Post ed
iet in
Ġflex ible
Ġpx diff
Ġmatter s
ĠSn ort
ĠSn ipping
ĠDirect X
ĠDirect or
Ġvol un
ĠFA Q
ĠFA ST
owner Canvas
Ġunpack ed
Ġrail road
Ġconsist ent
Ġguess Count
Ġsatisf ies
sdk type
Ġelev ated
Ġastronom y
Ġmurder ed
Ġaccomplish ed
Syn tax
band ing
dist ances
Ġsim ultane
Ġsampl erate
Ġpalind rome
imed Message
ĠMill er
Ġresized Dimensions
Ġclus tering
ĠInvalid OperationException
Ġund amaged
Ġ197 0
ĠComm un
ĠComm unity
Ġterrain s
Ġastro log
TableView Content
ĠSwift UI
Ġfront line
*) &
Av atar
DD M
Pool ing
Rea ction
Rea ctor
bro ken
ox ide
van ia
Ġcop ies
Ġfulf ills
Ġtrib al
Ġbra ce
Ġbranch es
Ġhon or
('[ ^
Ġgold en
ĠIO Error
ĠDomain Create
Ġconvolution al
plan ation
ĠBert Tokenizer
Ġdefe ated
ĠThink ing
ocking bird
Ġdispen ser
ĠJava Script
Ġneur onal
Ġintellig ent
ĠStud y
Ġtwent y
ĠUpd ating
ĠUpd ater
Transform er
Ġbelong s
ĠDecre asing
LOC ATION
ĠNeural Network
Ġprinci ple
Ġhydro dynamic
432 1
Average Score
bur gh
multi ple
you remail
inetic Energy
Ġfight ing
Ġfru it
Ġfru its
Ġfinger printing
leading Anchor
Ġpurs u
Ġpurs ue
ĠCent ers
ĠSound Cloud
ĠFeb ruary
ĠRO OT
Ġexhib ited
ĠNever lose
ĠGal ileo
Ġappoint ed
ĠAdam W
ĠQP ushButton
ĠProv ide
Ġmeta classes
ĠDefault DebugContextHolder
Ġdrink ing
trace back
Modals Actions
ĠIdent ifying
Ġachie ved
Ġhorizon tal
Ġexplicit ly
Po interException
craw ler
hist ogram
hab ilit
mist akes
invert ed
Ġaim s
Ġsugg ested
Ġfb prophet
aloud s
ĠPen nsyl
exc ited
ĠTrack ing
ĠSa fe
andatory Validator
ĠMass can
ĠMich ael
Ġenem y
Ġtracer oute
Ġembed ded
Ġtransc ription
Ġassum ed
ĠOpenV AS
structed HostsMap
Ġphilosoph y
Tool kit
located Scalar
AnchorType Helper
Ġneighborhood s
ĠIntrodu ced
friend ly
ĠAvatar Form
GlCanvas Expectations
ĠBlackHole Toolkit
Ġchalleng ing
Air planeMode
Double Tap
Lear ning
Mp Preference
WA Y
cro ft
Ø§ ÙĦ
Ġordin ary
Ġingre dient
Ġcurr ents
Ġcru cial
Ġbud get
Ġnob le
ĠTop ics
ĠCurrency Rates
ĠSm ith
ĠSed um
Ġdeed s
Ġdeton ation
ĠDoc s
abor atory
Ġvend or
Ġvap or
Ġvict ory
ĠMut ing
ĠMON OTHEISM
aph ylaxis
ĠNov ember
Ġdefragment ing
ĠVer ify
Ġpyt ube
ĠItal ian
neg ative
Ġencour aged
Ġaccumul ator
Ġcompat ibility
ĠRetrie ving
ĠSept ember
Ġrespons ibility
ĠSpell Checker
ĠPhil adelph
ĠGeoP andas
Ġcaption ing
Ġsixty Four
ĠJsonSerializer Options
Fitness Max
frontal face
:{ },
AA PL
Drop out
GD Env
Rout er
acon da
dvd css
fail ureAction
help ers
larg est
prom pt
schem e
sampl erate
tas ia
uv a
uent o
Ġil legal
Ġthous ands
Ġthirty Second
Ġcumul ative
replac ements
Ġmarg in
Ġbrie f
ĠPac ific
agonal Sum
ĠTrie Collections
Ġgn uradio
ĠCRU D
ĠStruct ures
ĠDiv ine
Ġasph alth
Ġprostagland in
ubes earchpython
ĠEV ENTLOG
ĠEduc ation
ĠBall ot
ĠBloom berg
ĠNik ola
ĠGdk WindowState
Ġlev ator
Inte ger
Ġspecim ens
ĠConf ederate
ĠStick y
filtr ation
ĠRefer endum
Ġrapid ly
webs ites
Ġsubsequ ent
which M
quee ze
ĠClip board
Ġrepet itive
Selection Statement
Subgraph Initialization
ĠPhill ips
Ġadvant age
ĠAttribute Manager
Implemented Error
Ġdiagnost ics
Modal Close
ĠPostgres ql
Ġtelesc ope
211 5
Bear er
Between ZLay
DSh apeNets
EK LY
Equ als
Gaussian Blur
Like Status
Lift Speed
Night Light
Patch Request
UNDER WAY
WAS P
Zero LiftSpeed
aile y
bright ened
cou pling
hum idity
jpe g
maint ainer
qws x
Ġaio http
atyp us
enthes es
Ġsurr ender
Ġscho ols
Ġslight ly
Ġsarc asm
reOff ice
Ġfou ling
anuk kah
isph ere
isdig it
Ġmos quito
asdg fgdfsg
stimul us
ĠPair ing
Ġhem isphere
ĠAgre ement
ĠASC II
ationNot ification
radi us
Ġyout ubesearchpython
separ ated
ĠDise ase
Ġprote ins
Ġproton s
Ġeph em
ĠMagn ifier
ĠMIG RATION
ĠFlu id
ĠElast icsearch
ueStack s
combin ed
Ġexcell ent
ĠBabbit t
ĠLiter ature
ĠHaw ai
ĠNIf TI
ĠNUL L
ĠGuid ance
Ġspool er
']}% ")
getActive Window
toLower Case
Ġorthod ox
strateg y
Ġ--------- -
libbon oboui
ĠVict oria
Ġcontrab and
sharpen ed
Ġembass y
Ġdisruption s
ĠsetContent View
Ġprefect ure
ĠAnswer ing
ĠKNeighbors Classifier
ĠQCalendar Widget
openweather map
ĠOpenFO AM
itemSum maries
keysProjects LocationsKeys
ĠAppCompat Activity
ĠStringData Structure
ĠAlgo Trader
ĠIDestroy able
ForCaus alLM
THRE SH
ĠDataLo ader
DEFA ULT
2414 12
1415 9
ĠMississipp i
ĠPdfFileMer ger
ĠCaribbe an
hasOwn Property
ĠPiÃ± era
098765 4321
Ġsimultane ously
ModalsActions Enum
ĠPennsyl vania
ĠPhiladelph ia
ĠsixtyFour th
BetweenZLay ers
keysProjectsLocationsKeys PatchRequest
! \
! </
! '.
$ ',
' (
' /
( \
( `
) '
) ",
) </
) [:
+ \
, }
, âĢĶ
, }\
, ...)
. $
. ;
. {
/ <
/ ${
1 50
2 6
2 100
2 14
2 30
3 65
4 01
5 7
5 56
7 0
7 65
9 1
: ?
: `
: ].
; "
; ">
< !
< ?
> .
> ),
A X
A re
A SE
A lex
A meric
A EP
A stro
B M
B u
B x
B re
B eautifulSoup
B AC
B attery
B iology
B ecause
C C
C F
C ar
C ap
C ursor
C ounter
C ipher
C leopatra
C olumns
C leanup
C ircular
C artPole
C ACHE
D L
D r
D on
D ig
D ream
D OM
D ocker
D ING
D iffer
D avid
D Layer
E f
E l
E st
E mp
E very
E LE
E UR
F Q
F n
F ro
F ac
F oot
F PS
G E
G G
G U
G ui
G ER
G reenshot
G Cmd
H H
H and
H ailey
I X
I ll
I AS
I gn
J F
J ames
J Array
J AX
K romko
K CS
L et
L ast
L ights
L atest
L bl
L INE
L ONG
L exer
M I
M u
M ay
M ass
M atch
M essages
M IM
M emory
M PS
M oses
M aker
M arine
M obile
N ET
N ormal
N essus
N ausea
N LP
O I
O K
O k
O ct
O ur
O CR
O dd
O PT
O DO
O AEP
P F
P ad
P ay
P ers
P AR
P aste
R on
R ate
R AR
R AN
S F
S leep
S aint
S chedule
S quare
S chema
S heet
S uggest
S anitize
S EAR
S creen
S aharan
T ri
T ell
T ues
T ensor
T imes
T rie
T Data
T imer
T LS
T eam
T iny
T weet
T odo
U CN
V inc
V olumes
W eather
W Monitor
W ITHOUT
W rapped
X ml
[ ],
] /
] `.
_ `
_ ()
_ ]+
a qu
a ver
a arch
a inder
a qwsx
a Vinc
b s
b us
b all
b Th
b log
b ps
b rack
b els
b ridge
b mi
b egin
b irthDay
c i
c ation
c our
c yp
c List
c ores
c std
c af
c anvas
c olumns
c nt
c rypto
c br
c Profile
c ctx
c andidate
c orners
d st
d ates
d ated
d yn
d ns
d command
d ication
d address
d sa
d kit
d ifference
d amping
e u
e ign
e ctions
e lection
e gg
e ffect
f ra
f est
f ib
f ers
f our
f ive
f av
f ari
f inally
f lection
f ont
f usion
f ires
f irm
f utures
g in
g imp
g ot
g ab
g pt
g row
g ave
g ui
g ov
g ler
g ular
g pus
g esture
h or
h an
h ero
h ouse
h ances
h elper
h istorical
h ydra
i ou
i ams
i Send
j ul
k b
k s
k am
l an
l ated
l inal
l dex
l iter
l vp
m v
m ass
m ult
m ill
m ond
m map
m agn
m kis
m oses
m iko
m agic
n ic
n def
n print
n ite
n label
n irc
n ology
n mt
n Draw
n orton
n ii
o W
o e
o ust
o vers
p th
p an
p et
p as
p un
p ire
p alind
p adding
r x
r in
r ub
r isk
r ams
r atory
r aged
r estart
r glob
r uby
r angling
s ex
s he
s av
s ink
s ized
s ync
s elenium
s db
s ider
s ales
s ky
s igma
s orry
s ugar
s ensitive
s upervis
t g
t i
t ap
t own
t ake
t elling
u ate
u ators
u au
v c
v ate
v wr
w get
w ave
w ning
w eak
w arm
w ifite
w iki
w uau
x e
x s
x path
x ss
x yz
x Man
y g
y ch
y ft
y Volumes
z mat
z oom
z iel
| ',
} ?
} ']
} ",
} "]
} /')
¢ ×
§ å
± ŀ
Ø ª
Ø ³
Ù ħ
æ Ģ
Ġ vers
Ġ âĢĻ
Ġ eras
Ġ Ã©
Ġ ÐĴÐ«ÐĺÐĵÐłÐ«Ð¨ÐĿÐ«Ðķ
Ġ Ø§ÙĦ
à¤¾ ,
in em
in ference
in format
in deed
in zen
in voke
th en
th re
th row
th umb
th ree
th rough
th rop
th let
th ank
th eme
à¤° à¤§
à¤° à¤ļà¤¨
on ing
on ed
on ic
on ec
on start
à¥ĩ ,
Ġa gr
Ġa irs
Ġa pache
Ġa fra
Ġa thlet
or et
or id
or age
or ient
er v
er St
er cises
Ġth umb
Ġth ick
Ġth resh
Ġth rottle
at ten
at ively
at ulations
es us
es et
es ap
es ity
à¤ķ à¤¯
à¤ķ à¤Ń
à¤² à¤Ľ
en at
en ance
en ge
en hance
en hancer
Ġs in
Ġs ul
Ġs ine
Ġs we
Ġs ia
Ġs old
Ġs ister
Ġs chem
Ġs ector
Ġs elling
Ġs orry
Ġs utures
Ġs lept
Ġà¤ķ à¤¥à¤¨
ing u
ing Application
Ġc ub
Ġc art
Ġc ogn
Ġc ensor
Ġc ron
Ġc ited
Ġc aves
Ġc rown
Ġc ups
Ġc ouncil
Ġc eleb
Ġc inem
re load
re pe
re gedit
re action
re ference
re ceived
re pository
Ġf ut
Ġf og
Ġf oun
Ġf ibr
Ġf ell
Ġf its
Ġf pdf
Ġf ires
Ġf lesh
Ġf iring
Ġf ridge
Ġf ragment
Ġf ifth
Ġf elt
Ġf ashion
Ġf raming
Ġf cppt
Ġt al
Ġt et
Ġt int
Ġt mp
Ġt xt
Ġt ons
Ġt rip
Ġt body
Ġt ips
Ġt imed
Ġt iny
le et
le ph
le ys
Ġp m
Ġp id
Ġp tr
Ġp ins
Ġp ale
Ġp interest
Ġp wd
Ġp enet
it ation
it ig
it ory
it ask
it ative
de al
de vel
de als
de li
de legates
im ag
im edia
im db
im ming
ro ok
an al
an um
an ium
an imate
an che
an alyze
an imation
an omaly
ion e
al ace
al time
al py
is ite
is dir
is ian
is Valid
is instance
à¤Ł à¤¸
ar a
ar in
ar ri
ar ded
ar ange
ar ative
ar ah
ar ns
à¤® à¤ķà¤°à¤£
Ġo k
Ġo p
Ġo x
Ġo pt
Ġo ptical
Ġo vate
Ġin ject
Ġin tr
Ġin vas
Ġin hib
Ġin secure
Ġin structed
ut ch
ut ical
ut ely
ut ta
Ġm l
Ġm el
Ġm art
Ġm ud
Ġm ast
Ġm ne
Ġm aster
Ġm ason
Ġm andatory
Ġm itig
ed ge
ed back
yth ia
Ġw he
Ġw av
Ġw are
Ġw ax
Ġw arm
Ġw aves
Ġw ashing
Ġw iring
Ġw lan
Ġw rangling
Ġto ment
Ġto xic
Ġto ilet
ic it
ic ide
ic Exception
ent ries
ur ass
ur day
us ually
us logics
Ġan s
Ġan aphylaxis
Ġd ic
Ġd ates
Ġd ream
Ġd ensity
Ġd inner
Ġd ummy
Ġd rew
et ics
et ors
et ched
as y
as er
as ion
as List
om a
om o
om as
om ination
Ġfor cing
Ġfor ced
Ġb a
Ġb ur
Ġb ag
Ġb ab
Ġb ub
Ġb od
Ġb ise
Ġb und
Ġb ans
Ġb oss
Ġb ru
Ġb anner
Ġb orrow
Ġb oost
Ġb lowing
Ġb acter
Ġb orrowed
Ġb esides
Ġb ishops
imp act
à¤µ à¤Ł
Ġl on
Ġl ge
Ġl aser
el ings
el gg
à¤ĩ à¤§à¤°
Ġre ass
Ġre pro
Ġre use
Ġre located
Ġre places
Ġre habilit
am ide
am AV
am tasia
un used
un favorite
un wrap
import e
ch d
ch arge
ch atterbot
ch oose
st er
st age
st ko
st eady
st oolbox
à¤ļ à¤¬
à¥Ī :
à¥Ī ).
ow el
... ')
... ")
Ġn an
Ġn ect
Ġn ations
Ġn args
Ġn ights
Ġn aming
Ġn erve
il i
Ġ( [
Ġ( \
ĠP as
ĠP os
ĠP ear
ĠP rivate
ĠP ush
ĠP ublish
ĠP orts
ĠP ORT
ĠP ausing
ĠP leas
ĠP isces
ĠP KCS
ex if
ex clude
Ġh ex
Ġh ate
Ġh ang
Ġh av
Ġh older
Ġh osp
Ġh iding
Ġh ired
Ġh arb
Ġh mac
Ġh undred
ag o
ag ement
ess ays
ess enger
Ġ' $
Ġ' *
Ġ' +
Ġ' ..
Ġ' |',
if i
à¤¶ à¤°
ĠA V
ĠA z
ĠA ch
ĠA irc
ĠA ura
ĠA BC
ĠA pex
ĠA JAX
ĠT og
ĠT ry
ĠT ob
ĠT itle
ĠT Data
ĠT AG
ĠT Graph
ĠT ermin
ĠT umblr
ĠT isa
ĠT oday
ĠT imedMessage
ĠT ODO
Ġà¤² à¤ª
ation Name
ation Form
ate ver
') ['
') }")
ou isian
em mer
em orial
Ġus ize
à¤ģ ...
à¤ĩà¤² à¤¸
ra form
ra cul
ra ca
(' '.
(' [-
() >
ol ic
ol vement
ol amine
ot ype
ot ten
id i
id o
id on
id ation
ce ded
ce fully
ul ers
ul ator
ul ler
ul sions
Ġy f
Ġy s
Ġy data
Ġy Diff
Ġy outube
Ġy fin
Ġg y
Ġg is
Ġg od
Ġg our
Ġg ap
Ġg ql
Ġg ait
Ġg estureDetector
Ġg arden
Ġg ermin
ec ycle
um s
um os
um ping
ad ult
ĠC ut
ĠC op
ĠC urrent
ĠC rypt
ĠC left
ĠC olumn
ĠC avi
ĠC md
ĠC Make
ĠC raft
ĠC ouncil
ĠC itizen
ri z
ri ble
ri que
qu aint
int o
ĠI V
ĠI de
ĠI ter
ĠI ts
ĠI Message
ĠI gn
ĠI xy
ĠI UCN
ĠS T
ĠS al
ĠS un
ĠS il
ĠS ea
ĠS ant
ĠS tri
ĠS cho
ĠS aint
ĠS pect
ĠS hip
ĠS uggest
ĠS peed
ĠS ORT
ĠS essions
ĠS olving
ĠS cheduling
ĠS HA
ĠS arah
ist ence
ist rap
Ġde ad
Ġde du
Ġde als
Ġde alt
Ġst ip
Ġst ick
Ġst aged
rom ic
à¤« à¤ķ
ver ages
ver ifier
ĠD E
ĠD u
ĠD at
ĠD ry
ĠD PI
ĠD ash
ĠD ays
ĠD aily
ĠD rag
ĠD rives
ĠD racul
à¤· à¤¶
', )
Ġ{ ',
Ġis o
Ġis set
Ġis su
Ġis land
Ġis Setter
ment ID
op enc
op ok
op kind
op refix
op kins
à¤¥ à¤ķ
Ġ` [
Ġas serts
ab i
ab ot
ab ai
Ġpro ve
Ġpro xy
Ġpro ofs
Ġpro sper
pt s
ig an
ig uous
ig orous
Ġv d
Ġv aries
Ġv olumes
Ġv itt
Ġv igorous
Ġr is
Ġr ub
Ġr and
Ġr end
Ġr ud
Ġr ich
Ġr ural
Ġr ush
Ġr nn
Ġr clone
Ġr anging
Ġr bac
Ġr enew
Ġr dkit
Ġr ulers
Ġyou th
ib ilities
Ġà¤ħ à¤²
Writ able
od im
Ġcon gen
Ġcon scious
Ġcon gest
Ġcon sequences
urn aments
og les
og gle
ter min
ea th
ea ke
Ġon Click
and in
ir al
ir gin
Ġwith RenderTimeLogging
à¤ħ à¤Ľ
à¤ħ à¤Ľà¤°
Ġà¤¦ à¤¶
à¤Ń End
ass et
ass ets
ass mann
ly update
ht ag
he at
he im
ple ase
ple ted
ect ious
Ġe at
Ġe ase
Ġe jecting
end point
ime Data
Ġ1 10
Ġ1 80
for Segment
pl om
pl ies
pl ating
pl ates
pl iance
ĠM c
ĠM ail
ĠM umb
ĠM app
ĠM ouse
ĠM DO
ĠM MS
ĠM ockingbird
ĠM andatoryValidator
ĠM emorial
Ġ" '
Ġ" ")
Ġ" ,"
Ġ" ";
Ġ" :",
ĠF ort
ĠF ac
ĠF act
ĠF PDF
ĠF amily
ĠF ortunately
ĠF ifth
ĠF loor
ĠF uller
Ġimport ed
ĠR F
ĠR ot
ĠR ab
ĠR ust
ĠR ock
ĠR ound
ĠR ob
ĠR ange
ĠR ich
ĠR ape
ĠR ole
ĠR GB
ĠR after
ĠR ena
ĠR sync
ers ive
ers cores
Ġà¤ĸ à¤°
ies Transformer
ĠE S
ĠE q
ĠE Ch
ĠE pi
ĠE volution
ĠE LM
ĠE jecting
ĠE clipse
ĠE leph
pa pers
from Account
Ġit ching
Ġà¤ĩ à¤¨à¤ķ
up loaded
com pute
pro v
pro tein
pro be
pro xy
Ġ+ +
Ġ+ -
Ġex pon
Ġex changes
Ġex haust
ĠB C
ĠB on
ĠB en
ĠB el
ĠB ost
ĠB ased
ĠB log
ĠB yz
ĠB alance
ĠB ank
ĠB iology
ĠB oost
ĠB undle
ĠB olivia
ĠB MI
ĠB rook
Ġà¤ı à¤¡
Ġ2 24
Ġ2 50
Ġch root
Ġch alice
Ġch ief
Ġal ive
Ġal ike
Ġal though
Ġal ias
Ġk i
Ġk v
Ġk new
Ġk itch
Ġk illed
cl t
cl amp
cl udes
cl auses
Ġcan cel
art ments
ĠL D
ĠL O
ĠL ar
ĠL ive
ĠL ens
ĠL ast
ĠL ook
ĠL ife
ĠL ocking
ĠL omb
ĠL ouisian
ĠU ss
ĠU pper
ĠU WSGI
ĠU LONG
ĠH y
ĠH ar
ĠH ad
ĠH ide
ĠH OST
ĠH arb
ĠH MAC
ĠH OLY
ĠH opkins
Ġà¤Ĩ à¤µà¤¶
Ġwh atever
ap enet
ary Action
Ġdata Source
Ġdata classes
Ġuse State
ĠN avigation
Ġbe e
Ġbe at
Ġbe ef
process or
ĠG r
ĠG ra
ĠG ather
ĠG ithub
ĠG amma
ĠG rep
ĠG eriatric
ĠG iven
ĠG assmann
per mutations
Ġsp end
Ġsp ons
Ġsp her
Ġsp ont
Ġsp ring
Ġsp iking
Ġres p
Ġres ume
Ġres erved
ĠW E
ĠW ood
ĠW eather
ĠW eakMultiMap
ĠW endy
ĠW eakMap
ĠW cList
ĠW oW
Ġknow s
Ġknow ing
key Label
key ring
Ġ} }</
'] );
'] [:
Ġfile id
get User
get Num
get Instance
get encoding
get members
get Description
ang lement
con ception
con flict
con scious
con sciousness
Ġdef ining
to ol
to urnament
Ġà¤¡ à¤¬
url patterns
Ġapp e
Ġapp le
Ġapp ar
Ġor ek
ure PasswordManager
res olve
res ume
res mon
iv ated
iv ities
iv als
iv eness
ĠO f
ĠO rig
ĠO range
ĠO WASP
__ ,
__ :
__ ]:
__ }'
Ġ- ----
out look
Ġle ap
Ġle ts
Ġle ader
Ġle aderboard
Ġle arns
ĠThe atre
Ġen act
Ġen rich
oc r
oc at
oc al
ran k
ran ts
Ġcl in
Ġcl arity
Ġma ker
à¤ł à¤¨
Ġman ner
Ġman eu
In v
In suff
In dia
text Content
ack s
Ġ[ $
ep ub
ep isode
à¤ī à¤°
Ġsc alar
Ġsc anned
Ġnot iced
ug ues
ens us
Ġstr ange
row sing
Ġprocess Invit
image Picker
ant ivirus
Ġdes eq
print f
print Stack
print screen
Ġlist ens
Ġad c
Ġad vice
Ġad mit
Ġby tec
ear ing
ĠIn it
ĠIn fo
ĠIn voke
ĠIn activityMonitor
ĠIn fluencer
ther most
Ġat e
load Model
ac ok
ac umos
data Source
data Structure
Ġsh i
Ġsh el
Ġsh ock
Ġsh ips
Ġsh ades
ĠV R
ĠV en
ĠV ari
ĠV olume
ĠV ersion
ĠV II
ĠV oteRecord
ĠV irgin
Ġpl um
Ġpl ain
Ġcont est
Ġcont ribution
Ġcont rovers
ĠIm agine
ff t
ld ump
oo ser
Ġtime it
av ar
av ia
av ax
Ġimp lic
Ġimp ression
Ġval ve
Ġval leys
Ġpy g
Ġpy audio
Ġpy firm
one fig
Ġper me
Ġper ipher
ust rate
Ġar en
Ġar ts
Ġar ise
Ġar my
Ġar rays
ost er
te ers
ph ur
son os
son gs
run d
run e
run ner
run dll
Ġj ewelry
Ġj avax
Ġall Files
Ġx array
Ġ3 3
Ġ3 4
Ġ3 6
Ġ3 10
read s
read able
read line
Ġlog Map
ĠTh us
ĠTh reat
ĠTh omas
ask a
Ġun ified
Ġun fortunately
Ġun employ
Ġun conscious
Ġclass ic
Ġclass ify
Ġclass ifiers
ace utical
app id
app oint
app lications
vel ocity
ĠEx c
ĠEx per
ĠEx iting
ĠEx plor
ĠEx ploit
ĠEx ercises
work ers
=' ',
time zones
Ġtra ditions
Ġopen cv
Ġopen mc
Ġup coming
Ġpar ash
Ġpar entheses
Ġse es
Ġse gments
Ġse aborn
Ġse cede
sh apenet
tr im
tr uck
ual ism
Ġtext s
ign ition
Ġfil led
Ġfil med
are ware
Ġem er
Ġem issions
Ġem pire
ock s
Ġel b
sc rib
sc anned
An gular
Ġdis able
Ġdis abled
Ġdis pute
py tesseract
ud ge
rol led
:: {
ak a
ak h
ak o
ak en
ge ocode
En vironment
En try
En tity
ĠJ ose
ĠJ ackson
ĠJ efferson
ĠJ esus
Ġset Show
Ġset Up
à¤ıà¤ķ à¤µà¤°
PI C
Ġpre gn
Ġpre ceded
Ġob serve
Ġob esity
Ġadd itive
Ġsu ite
Ġqu it
Ġprov ision
port ation
port list
ob i
ob el
]) .
Ġne ighbors
Ġint end
Ġint ention
Ġro ugh
Ġanal yses
Ġhe ater
ĠAn ne
ĠAn des
ĠAn alysis
AI LY
tri al
Ġsolution s
list ener
ast y
ast ro
ast ic
set x
set Line
set mode
set timeout
set Vis
set Style
set OnClickListener
set airport
itor ies
ms info
Ġhand lers
Ġi ou
à¥Īà¤Ĥ ...
ĠCh ain
ĠCh urch
ĠCh ancell
ĠCh esap
âĢĻ ,
Ġkey words
Ġimage Dimensions
Ġwill ing
Ġcheck ed
Ġout line
Ġout ward
Ġout lines
Ġout come
Ġout door
ĠK ill
ĠK ali
Ġyour s
Ġyour self
gr al
gr atulations
Ġwas n
ript ych
user Role
Ġrec order
). **
ari o
Ġext ent
Ġext ending
Ġext ensions
Ġext ensive
comm a
Ġ5 500
Ex od
Ex port
Ex change
ĠCon v
ĠCon tem
ĠCon ference
iss ance
Ġget ter
Ġget Text
Ġget All
ise i
inal s
Ġoper ate
Ġoper ational
Ġdo se
Ġdo jo
Ġdo ors
Ġdi oxide
Ġdi plom
Ġreal m
Ġreal ized
ĠAd vent
ĠAd apter
ĠAd ansonia
with out
Ġtrans late
root s
root kit
ov ative
ov ie
Ġdirect or
Ġdirect ing
ĠQ t
ĠQ UR
Ġinter cept
Ġinter ests
Ġinter sect
-- ;
Ġ4 5
start up
start file
add Book
add Course
add Subview
à¤ıà¤¸ à¤µ
ature UsageTracker
Ġerror Message
à¤ħà¤¨ à¤ľ
Ġab c
Ġab normal
Ġso le
Ġmy table
Ġmy Logger
Ġform ations
duct ory
Ġsm ok
Ġsm oke
TT Y
Ġact s
Ġact ing
Ġact uators
play lists
pre dicates
Ġmessage Validators
Ġmessage Definitions
Ġobject ives
Ġtype of
Th reshold
Ġcre ative
log out
Ġcount ing
Ġwork ers
Ġwork station
Ġhas attr
Ġhas htag
Set ting
pe ek
Ġcor on
Ġcor pus
Ġcor rupted
ĠSt u
ĠSt ation
ĠSt yle
ĠSt onec
Ġbuild ings
fil led
Ġtest set
Ġtest Scores
ach ed
Ġ$ (
ĠList en
ĠList Item
Ġcurrent Time
ware bytes
und ers
Re ference
Re verse
Re boot
Re altime
Ġother obj
Ġstate hood
Ġstate wide
Ġread able
Ġread ings
Ġread ability
init ely
Ġreg ex
Ġreg ain
Ġreg ener
Ġgo verning
Ġgo ogles
Ġvo ices
ĠRe vo
ĠRe verse
ĠRe plac
ĠRe inforcement
ĠRe bels
du plicate
Ġmodule Map
old s
old Value
Ġra re
ĠĠĠĠĠĠĠĠ ĠĠĠĠ
web hook
Ġsub key
Ġsub class
Ġsub mission
Ġsub obj
Ġsub scribe
Ġsub clone
Ġsub sequence
Ġsub directories
Ġmax imize
Ġmax PxDiff
Ġmax imizing
Ch arm
Ch anged
Ch ooser
Ġvari ations
ym es
ym ode
ĠY OLO
Ġfe e
Ġim mig
SI D
new Value
new year
Ġass embly
St ar
St eps
St aticDynamicDim
apt ers
Ġz ones
Ġcomput ed
Ġmin Corr
Ġjson MutationDataFetcher
Ġrun time
Ġrun ner
Ġinst ig
urs day
test set
test email
âĢĿ ,
âĢĿ .
Ġag es
Ġplay lists
Ġplay sound
ĠOpen Astro
anag ement
(); '
Ġev ap
Ġev ac
Ġbo y
Ġ19 20
Ġ19 40
Ġ19 14
Ġ19 30
Ġ19 61
File Input
my env
my database
my logger
cre t
Ġsome how
Ġstart Node
ĠEn able
win ning
win mm
win rar
inter sects
Ġlet ting
ĠDem ocratic
([ ])
pr imit
pr incipal
amet er
sing ledispatch
Ġlo an
Ġlo se
Ġlo yal
Ġwho osh
Ġscript ures
valid ator
Ġsec ular
eb p
Ġrequire ment
ĠPro ject
ĠPro perties
ĠPro pri
Ġvis ible
Ġvis cosity
Sc aler
Ġrem oval
Ġrem ainder
ging Plugin
Ġtotal Angle
Ġdep ending
Ġ200 1
order ing
order Id
struct ables
struct ured
ĠImage Res
ĠImage Filter
ĠImage Processor
Ġpos Y
Ġdec rypt
Ġdec af
Ġsign ed
()) ')
back ward
cc uracy
ĠPy ro
ĠPy Audio
ĠPy OD
ĠPy Dictionary
ĠPy dantic
View Model
Ġconst it
Ġconst ants
Ġconst raint
view DidLoad
dir name
Ġprogram med
Ġcontrol Button
Ġph ase
Ġph ishing
wh en
Ġincl usion
ĠUn bound
ĠUn installing
ĠUn icode
19 43
To Remove
To Dat
des ign
Ġtyp o
Ġtyp ewrite
aw s
aw t
aw ad
ane ous
ĠCre ated
Ġsk ill
Ġsk etch
Ġcustom ize
Ġover flow
loc ate
auth enticated
co vers
co ales
ey es
ey ed
inst ein
iff ing
Ġdesc ending
ĠCheck s
col l
col lections
num er
Ġport ray
Ġport folio
Ġart ists
Ġmet avar
ĠJSON L
place holder
Open AI
Open CV
Open GL
ipp ets
Ġsa fer
ĠApp ended
ĠSc andin
ĠX SS
ert ain
ans w
Ġmulti player
Ġrel atives
Ġrel iable
Ġtwo WayRelay
String W
sp ect
sp oof
Ġmark er
Ġmark ers
Com ment
Com parator
IL ayout
ret Number
Ġpe as
Ġpe ek
32 1
pos itive
Ġfind s
Ġpr one
Ġpr icing
Ġdist ingu
Ġactiv emq
vo x
Ġpass age
Ġgame State
query Result
AR D
AR P
gan ography
sert Equal
20 48
Ġright Product
ian TimeImp
Ġpop DF
Ġpop ulating
Ġpop ulations
ĠCom put
ĠCom pare
ĠCom preh
ĠCom parator
ĠCom bine
Ġaccess ible
ĠFor ce
64 321
ST ER
ST ALL
Ġpd b
Ġneed ing
DF S
ng inx
Ġpack ing
Ġworld s
ĠAl locatedScalar
OL EAN
of encing
Ġ20 1
Ġ20 23
Ġenc odings
dis abled
dis patcher
Ġend Time
Ġauth ors
make Text
Ġge ographic
Ġge othermal
Ġge ofencing
ĠCl amAV
parse Article
Ġtable Model
Ġatt ain
Ġatt ending
Ġatt ended
Ġhandle Delete
ins ide
ĠMy D
ĠMy File
ĠMy Enum
ĠMy Component
ĠMy Spider
ĠMy croft
ĠFl ight
ĠFl orid
ĠFl atten
Ġtop ology
ident ifiers
Ġelements ToSkip
Ġ{} )
Ġ{} ;
Ġ{} ",
ible From
ooth ing
Ġpol ice
Ġpol arity
Ġpol ynomial
Sh ort
Sh ipped
Ġbot tle
Ġocc as
Ġocc up
Ġview ing
Ġview DidLoad
ĠNew ProgressView
Ġupdate TableViewContent
Ġgen ome
Ġgen etically
Ġgen etics
Ġcalculate Total
Ġcalculate TimeDifference
Ob it
Ob servation
Ser iesTransformer
lab s
Ġsequ encer
oh an
Ġorder ed
ĠSer ves
Dis position
Dis patcher
Ġaut umn
Ġcar ries
Ġcar rying
Ġla ugh
ĠGener ator
access ion
Ġaddress ing
Ġaddress ed
CT As
Se ction
Se ver
Se quence
Ġdefault s
Ad s
Ad am
Key Value
cent ers
me thyl
Ġdown ward
Ġvirtual ly
ĠRes izing
Ġpost ed
IN O
IN STALL
Ġwater mark
ĠTrans fer
ĠTrans lation
Ġdifferent ly
Ġrecomm ends
ĠSystem s
opt ion
LE NG
Rec ipe
SE B
ism uth
ism atched
ĠSet tings
Get Type
ĠZ AP
ĠZ ipping
Ġdr ift
ĠID s
ĠDis abilities
Ġevent Name
Ġevent ually
Wh ile
Wh ere
gy ratory
sub reddit
Ġrest ored
Ġrest itution
Ġrest rict
Ġleft most
Ġleft Product
Ġhead less
'} ).
max imum
Ġtensor s
dep ends
dep loy
era Copy
ĠFile Num
ĠFile Processing
Time Steps
cis ed
element Set
index ed
ats u
Ġsn ippets
Ġgra du
Ġgra dient
Ġgra vit
Ġgra cefully
Ġcons ecutive
User Admin
cor rection
vector izer
Ġroot kit
For ce
For ward
Res et
Res ize
Res ources
Res olve
ĠFran caf
At omic
Ġ7 41
Ġaw k
Ġincre d
Ġnode if
ĠVal ley
22 4
ole cular
Ġprodu ctions
Ġequ ality
Ġequ ipped
mod ify
Config ure
Ġent ries
Ġent anglement
ĠTest Case
ĠTest imonial
Ġdesign ation
Ġlink ed
Ġjust ice
Class ification
Path Attribute
cle ared
not ify
Ġoption al
ĠSe aborn
ĠHTTP Error
By Role
Ġenter prise
Ġleg s
Qt Gui
do address
rid den
oud s
ĠRem ote
ĠRem ember
ĠRem oval
IM P
IM AGE
Ġsol vents
Ġsyn thes
aster io
check out
position s
UI T
audio file
wall paper
Un lock
Un ique
Un reachable
Un identified
Un clamp
let ters
Ġtoken ization
Ġtoken ized
ĠPDF s
ĠSh op
ĠSh owing
Ġspa wning
omet er
starts With
dest ruction
ĠData AccessException
ĠHe ad
ok opok
Ġte en
Ġlast ed
Ġref ine
Ġref resh
Ġref lections
ĠQu arter
Image Field
Ar rived
event vwr
Ġbrain wave
Ġcolor ful
Al arm
Al tern
Al though
Al ouds
Ġface book
Ġinf ected
Ġinf ectious
ĠSo on
format ting
format Reaction
Ġtransform er
Ġtransform ations
power up
Ġident ical
Frame work
SD K
Ġcap s
Ġcap able
Ġinv olve
Ġinv ocation
export s
Ġrespon ded
Ġrobot s
Ġdepend ent
part icip
Ġrece ivers
Ġrece iving
ĠTrain er
Ġexam ination
Ġexam ined
ugg ling
ĠInter im
ĠInter pret
Ġcorrespon ded
Ġelectron ics
ade my
Ġperson ality
Ġ12 3
Ġ12 7
Ġ12 34
ĠInst aloader
Ġfeed s
Ġfeed er
Sub scrib
ĠÂ °
esc ape
Ġfocus es
Ġfocus ing
ĠUI Button
ĠUI Segmented
bu cket
Ġacqu isition
ĠCont ent
RE LEA
Run D
Run ner
Ġbro thers
extract Text
Ġassist ants
tra verse
tra cer
tra jectory
Ġdon es
ĠPar is
ĠPar rot
Ġhost ed
Ġselect s
Ġselect or
msg s
Request Error
Met adata
Met allic
PL ETE
af ric
Ġhint s
ĠAudio IODataset
oper ators
200 1
200 2
66 64321
AS SIGNMENT
FF F
FF ER
Field Value
HTML Table
Message Reader
Message Table
eg ative
Ġcr imes
Ġtri umph
ĠAs ync
Ġgrow n
select or
ĠĠĠĠĠĠĠĠĠĠĠĠĠĠĠĠ ĠĠ
ĠĠĠĠĠĠĠĠĠĠĠĠĠĠĠĠ ĠĠĠĠĠĠĠĠĠĠĠĠ
78 90
Action Format
My Enum
My Component
My Meta
Ġlight ning
And Process
Det ail
Det ails
Det ection
group s
ha zmat
hour lyupdate
Ġclean sing
vern ment
ĠRec ord
ĠRec ording
Ġdataset s
Ġfrequ encies
Ġpresent ing
Ġpresent ation
arr ative
ĠTensor Board
('/ ').
Ġear ned
ĠEditor GU
ĠLog in
ĠLog ger
On es
Rem oteObjectsRecord
We ekly
off er
off ice
yt ic
ĠPh one
ĠPh ylo
Ġprogress ing
Ġprogress ive
Ġmean ings
Ġimpro ving
Ġimpro vements
Ġdocument aries
ather ine
ather apy
gre eting
Ġaug mentation
Ġclo ser
Ġclo thing
Ġprom ising
Ġprom inent
ĠCPU s
Ġevalu ates
Ġregister ing
192 7
Add Policy
Add Cond
Ġbt n
Ġcomment Id
ĠGe orge
ĠWork ed
default Value
Ġmaint enance
Ġrecogn ised
Ġinteract ively
UT C
With Severity
dic ated
fact orial
match ed
rand n
Ġutil ize
Ġpur ified
Ġdig its
Ġredu ction
ĠRep os
Ġadv ised
Ġarch ives
ĠException Group
Ġrole CollectionPrefix
register Callback
Ġbehavi ors
Book mark
Dec ember
Man ip
Man ufact
Task bar
dig its
nn Bu
Ġve get
dev iant
ĠAt omic
Ġassert ion
Ġcompar able
percent age
Attribute Manager
calculate Total
mut ationName
Ġthrow n
Ġsw ipableView
ĠCD Audio
Ġà¤ħà¤ª à¤¡
ĠOct ane
Ġcontinu ity
Ġcontinu ous
ribution Function
Component Names
ĠControl ler
Em bedding
New Buffer
New ProgressView
cy cle
Ġask ing
ĠRed ux
ĠRed uction
ĠNo vel
ĠStart ed
Form atter
cer r
call s
iqu ette
mm c
mask edDiff
Ġcur ve
Ġcur rying
à¥ĭ- %
Ġmor phology
Ġreview ed
Ġstop ped
ĠDec imal
ught y
Ġattempt ed
Ġque en
author ed
author izer
ĠScra pe
ĠClass ifier
Cor rection
Cor relation
Cell Delegate
Do S
Do or
dim s
tab list
uk h
Ġmill ions
Ġang el
ĠLea ves
ĠNet CDF
ĠNet Logo
Input Time
Input FileName
optim ize
Ġexperi enced
AP TA
Case Search
Pl us
Ġide al
Ġide ological
Ġavoid ing
Ġfall ing
Ġfood s
Ġbig ger
Ġnear ly
()` :
Ġexecut or
Reg istration
control ler
Ġdetect ing
Ġax s
ĠTime periodEnum
ĠCol lect
commit ments
Scan Image
Call Thread
PE G
SH ORT
ev ens
normal izer
rag gler
Ġpix but
Ġlisten ing
Ġadjust s
Ġprevent ion
Ġgenerated Functions
Ġconstant ly
(_ :
EX AMP
SO HO
UL A
pol lo
pol ling
pol icy
pol ynomial
windows update
}% ,
Ġcare fully
Ġpay load
Ġrevers es
emb ed
ĠDes ktop
Ġcomponent Names
ĠNot es
ĠNot ify
Ġlead ers
ĠInt ellig
Ġobtain ing
GtkSource view
Qu antum
Qu ote
Web cam
Web Engine
network setup
sd card
thes ia
Ġmus cles
Ġdraw s
Ġlarg ely
Ġrefer red
ĠCustom ize
ĠCustom Exception
ĠCustom Queue
ĠSec ond
ĠSec urePasswordManager
ĠSec retNumber
ĠManag ed
Ġcomb ines
context s
context manager
Ġaccept able
Ġextracted Properties
Ġtele gram
Ġdifficult ies
Ġlegisl ative
Des pite
MA STER
]+ $'
cap cut
sol ver
tom cat
vis ited
erial ised
Ġinstr uments
Ġant idisc
Ġanswer ed
Ġremain s
ĠRestart ing
Ġkind s
ĠImport ed
Ġseem ed
Ġdiscover ies
Thread Local
Track s
gn u
water mark
yr dom
Ġpap ers
Ġinvo ke
Ġinvo ice
Ġdialog flow
chat box
ĠAut umn
Ġchem ically
Ġdiscuss ions
Ġpred ation
Ġserial ization
Ġintegr ated
bound aries
Ġtell ing
Ġinj uries
Ġmob ility
Ġanim ated
Ġanim als
Ġredirect s
ĠCall ow
ĠCall able
ĠDr illing
Ġconduct ed
Ġ199 1
Ġ199 5
Ġ199 7
Ġ199 9
Ġdescrib ing
Ġur ine
Ġmount ing
Ġmount ains
Ġbr ute
ĠPost ing
ĠTem perature
Ġepo xies
ĠBl ues
ĠBl anche
Ġeng ines
Ġeng agement
Ġ02 110
ĠChile ans
Ġtransport ation
Ġcollabor ation
recipient s
Server Side
5678 9
ĠIntegr ate
cell s
sign ed
Ġsun set
Ġflo oding
Ġbind ing
ĠAll recipes
Ġgl ac
Ġ13 66
ĠRea ctor
Ġappear ance
ĠOb serv
Ġspecial ized
ĠImpro ved
Ġprec ip
Ġprec inct
Ġradio active
ĠProgram s
ĠProgram me
organ ize
organ ization
organ ized
Ġfour th
Ġtap Publisher
Ġbl ind
Ġbl ends
ĠPer lin
ĠTech nology
Ġgif Source
Ġgif Dictionary
ĠCG AL
ĠCG Float
ĠCo ast
Ġprob ability
Ġcollect ing
Ġcollect ed
Product Link
Start ed
Start up
Ġoccurr ing
Disable Realtime
Ġaccounts Collection
Spec ify
Spec ified
85 45
Hash Set
TE EB
Variable Manager
clean sed
orig in
requ ires
ĠPre pare
ĠPre vention
ĠTri angleSurface
Ġgr Name
Ġgr ams
Ġep isodes
ĠMod ule
ĠMod ified
ĠMay avi
ĠNe ighbors
ĠGraph Node
ĠOver flow
Info Key
Ġstrong est
Ġcontact s
short subject
Ġdisc rimination
Ġsetup KeyLabel
Ġprepared Plugins
Ġsecret Num
Ġencounter s
Ġencounter ing
tasks chd
Ġdetermin ation
Ġtelepath ically
Access ibleFrom
COM PLETE
Max imum
az ine
upper case
enum erate
Ġwild fires
Ġreact ed
ĠPC A
ĠAR Tool
ĠMr RobertoA
Ġspeak ing
allow Private
timeout Interval
Ġheader Controller
Build ing
Red uce
TO PIC
bre ed
long subject
vp n
esp an
Ġoct al
Ġanc est
Ġrepe al
Ġoffer ed
Ġstimul ates
ĠBase Item
ĠBase HTTPRequestHandler
ĠBase Picker
Ġchain ing
Initial ize
Index Buffer
Ġfiltered List
Segment Index
detect now
Buffer ed
Or der
Or Empty
bl ue
bl ues
fin eries
}/ ${
Ġcraw l
Ġcraw ling
Ġbound s
Ġbound ary
execution Counts
ĠAc cept
ĠAct ivity
ĠAct ivities
Ġstory telling
Ġvi ol
ĠHand led
ĠspqrMet rics
ĠConnect ing
198 3
198 9
Ġparticip ating
Local Error
Ġprompt s
LOG GER
Filter Handler
:/ ').
ANT IAL
Back ground
Di agnostic
bind Param
car bon
custom Configs
fly overs
js x
onal d
Ġsens itive
Ġcat al
Ġtend encies
Ġbal con
Ġlab s
ĠPe ople
ĠPort erSt
ĠPort ugues
ĠTable Config
ĠSk ills
ĠSk ipping
Ġconflict ing
clus ters
ĠGo vernment
Ġmanufact urer
Example Key
Example ControlSet
Comp anyDeleteDialog
ĠResearch ers
Ġhosts Map
ĠMissing DependencyError
Ass ign
Good bye
Is Null
good bye
handle Delete
inv ocation
inv estment
Ġocean ographic
Ġmo on
Ġlack s
ĠCopy ing
ĠSplit ting
Ġvot ing
Ġvot ers
ĠFe atureUsageTracker
Ġexc iting
Ġexport ing
ĠGM AT
phot o
phot ography
Ġ198 6
Ġ198 9
ikto k
Ġelectr ically
ĠFrank lin
Upload Directory
Ġbelie f
ĠDebugContext Holder
Ġbenef icial
33 3
Can NotVerifyQt
Doc ument
IV E
Of Even
Tem plate
gu ard
hand led
mc iSend
mk time
warning s
Ġcounter Display
Ġfail ures
Ġpri or
Ġincorrect ly
Ġbat tle
Ġbill ion
ĠSu pp
ĠMar ries
Ġaltern atives
ĠHurric anes
Ġ}) ?;
Ġdeserial ize
Ġprepar ing
Ġqual ified
ĠAdvanced Features
Ġcolle ge
Ġimm ersive
Ġposs ibility
Ġpolymer ization
Ġexperiment al
Second aryAction
Callback s
Ġtraceback s
Rest itution
UP DATE
Virtual Box
daily update
equ asion
nc pa
pix map
sell er
sell ers
Ġcd rdao
Ġcook ing
Ġcook ie
Ġflex ibility
Ġtun ed
Ġtun nels
Ġpx Count
Ġpan els
Ġmar ried
Ġlat lng
ĠPrint er
ĠPaint ing
ĠAust ral
ĠMer ging
ĠMap Reduce
ĠMax Pooling
ĠFA SEB
ĠWill iams
Ġunpack ing
='+ ',
ĠChrist ian
ĠKing dom
Ġinterpre ted
Ġ44 3
Ġabs or
Ġabs ence
ĠRequest s
Ġrafter s
Ġavg PxDiff
ĠQuant lib
Ġforecast s
Ġsatisf y
Ġcultural ly
Destination Initialization
rythngScanner Delegate
")) );
Syn th
WT F
px diff
sl ug
Ġaffect ing
enn ium
Ġtrig gers
Ġpun ishment
Ġpalind romes
Ġpalind romic
Ġà¤¸à¤ļ à¤®
Ġmist ake
Ġmural s
Ġhyp h
oliv ian
Ġdeli ver
ĠDate Time
Ġeval List
ĠMill ennium
ĠWild life
Ġclus ter
Ġclus ters
Ġpoem s
Ġund ulating
Ġund erscores
Const antinople
Ġprefer red
ĠQM edia
Ġpartition s
Ġ197 7
minute alert
Ġdepos its
Ġdescript or
Ġpopulate Table
ĠIntern al
Ġastro logical
Ġastro photography
Ġoppos ed
Ġhotkey list
Ġgrass roots
Ġillust rations
Ġillust rating
Ġsustain able
Library Ex
Tw ist
bro ker
cil iation
hide Summary
Ġsed ums
Ġfulf ill
Ġwish es
Ġwalk ing
Ġforens ics
agraph s
('# '):
Ġgather ing
Ġgather ed
Ġgrand idier
ĠMov es
ĠMov ement
ĠLeg is
ĠLeg ends
Ġorb its
ĠVo id
Ġseek ing
Ġcommission ed
Ġintellig ence
Ġrout ing
Ġrout ine
Ġsky line
Ġsky light
Ġdemonstr ation
Ġecosystem s
Ġdeepf akes
Ġlandsc apes
weekly summary
Query InfoKey
Ġinstrument al
JsonPath Attribute
432 3
99 4323
Null PointerException
Output Stream
Wi Fi
black side
oct ane
pkg config
tor ange
Ġvert ex
Ġsac r
Ġsac red
Ġcou ple
Ġcou ples
develop er
rott ler
Ġmagn itude
Ġbas is
unt u
Ġnll s
ĠPress ure
ĠType Script
umin ate
Ġstem ming
plugin Object
ĠRO I
ĠEm pty
ĠEm ma
Ġexhib ition
ĠGl Canvas
perform ance
Ġappoint ment
Ġunc losed
Ġtraverse Tree
Conf irmation
Ġintro ductory
Ġrecurs ive
ĠStream lit
ecutive Ones
Ġsubst ant
Ġsubst ance
summar ize
ĠProperty Type
ĠPyC rypto
ĠUnder standing
Ġ65 7
ĠComponent Type
ĠtasksPer Person
Ġcompet e
Ġcompet itive
Ġfacilit ator
callback s
ĠIdent ify
Auto AddPolicy
monthly report
39 1
Ab stract
CG AL
Cd Ef
Orig inal
Orig inally
cs Folder
craw l
fford able
Ġut tered
Ġslow ly
Ġsugg ests
redu x
redu ce
Ġà¤ªà¤ł à¤¨
Ġforg otten
Ġhar vest
Ġhug e
Ġhug ging
ĠApi keysProjectsLocationsKeysPatchRequest
ĠApi CallThread
ĠStr Enum
ĠStr uggle
ĠMus lim
ĠMich igan
ĠLaw makers
getAll Conf
definition s
Ġenem ies
Ġpoison ing
ffff ffff
oof ing
Enc oder
Ġtransc rib
previous Sibling
Ġinstant iated
Ġaggreg ation
ĠOpenV INO
ĠWho osh
ĠComp anyListItem
Ġbreath e
Ġbreath ing
Select Item
success ful
ĠIslam ic
populate Blocks
Ġclos ely
******** ********
Ġworship ed
ĠTwo WayRelay
ĠKeyboard Interrupt
Ġsubscrib es
ĠBlackHole Lib
Ġchalleng es
655 35
BU FFER
Dist ributionFunction
Effects Manager
Mult iset
Pop up
Public Key
Str uggle
Solid Tile
Solid WithTop
Tcp Service
blur red
hyd ric
laptop s
Ġarom atherapy
Ġsal mon
Ġsick ness
Ġcach ing
Ġfold ers
Ġtrun k
itz vot
Ġincorpor ated
Ġmort gage
Ġmesh DO
Ġband width
Ġbank ing
chunk ed
student Name
ĠPing ing
expect Exception
Ġharm ful
ĠAS COM
ĠAS SIGNMENT
ĠTyp ically
Ġgir l
Ġgir ls
ĠSingle ton
ĠSchema Factory
Ġste ganography
Ġstret ching
ĠDon ation
ĠDel hi
ĠDel aware
ĠDest ination
Ġisol ate
Ġisol ated
Ġproport ion
Ġproced ural
Ġrid ge
Ġontology Id
ĠMulti ple
ĠEc ology
ĠEc ological
prot ected
Ġaler ting
Ġaler ts
Ġadopt ion
Ġperm its
Ġjunction s
appro ved
ĠExchange ModalsActionsEnum
ĠChem istry
Ġoutl ined
Ġoutl iers
Ġsubdomain s
Studio Setup
Ġbacktest ing
ĠPyS yft
ĠPyS ocks
Ġcoales cing
Ġpharm acok
Ġpharm aceutical
195 1
Commit ment
ĠCommission er
Recycle Bin
Ġexpans ion
Ġexpans ions
AMP P
partition s
Ġmedic ine
selected SegmentIndex
ĠDoes ken
****** "
Ġdenormal ized
ĠJsonPath Converter
Ġmixt ure
Ġmixt ures
guess es
Ġannoun cement
Ġinterpret ation
ĠStandard Scaler
Ġgalax y
Ġgalax ies
/* '])
Az Bx
AsmHandler End
Delay ed
Mr RobertoA
Rel ated
Sm all
Target Ingredient
aug mentation
bra ce
monday blues
nv idia
nll s
pron unciation
rone gativity
Ġult imately
thet a
Ġsink s
Ġsulf ur
Ġfem ales
Ġwal rus
Ġwind s
Ġloud ness
Ġrecon ciliation
stud ymode
ĠPL N
ĠTes la
ĠTeach ing
otion Event
Ġgro ove
estim ators
sep ia
ĠIss ues
Ġstew ards
Ġproceed s
Ġvess els
Ġconven ient
ĠMuss el
ĠFal con
ĠRam abai
Ġkw arg
ĠGree ce
eph il
Ġsharp ness
Ġjail break
Conditional EffectsManager
ĠJew ish
ĠAng ust
Ġinterfer ometry
ĠRefresh ing
regular ization
Ġencaps ulate
Logged Values
ĠDisc rimin
Append ix
Ġterrit ories
Permissions ByRole
ĠMeas uring
Ġadministr ative
Ġfooter Controller
Ġinherit ance
Ġperspect ive
ĠBertFor Sequence
Ġranch ers
heapp ush
lapseParent Clause
ĠTikTok Api
BIN ARY
Cre ationForm
Cancel RandomTick
Flat ten
Ion ization
Mill iseconds
PEN DING
Stri kes
Twe eting
bi ases
dos ymbol
hous ing
havi our
sch tasks
simul ator
tun ing
tact ic
Ġaqu arium
Ġaud iting
Ġcrop s
Ġcamp us
Ġfrust rated
Ġtruck er
Ġinn ovative
Ġdol l
Ġbio informat
stri pe
ĠPhot o
Ġhus band
Ġham mer
ĠAg ency
ĠTur key
oul omb
ĠCra ig
ĠCath olic
ĠSol ar
ĠSyn tax
Ġdegrad ation
Ġstre ets
Ġvill age
Ġvocab ulary
hept ane
Ġepsil on
ĠMas sey
ĠMount ains
ĠMong o
ĠMIT M
ĠFrame work
Ġexcess ive
ĠBea ux
ĠBud dist
ĠBerm uda
ĠBirth day
Ġcharg ed
ĠUSS R
ĠGre y
ĠGlo Ve
ĠGabri eli
consum ption
tele pon
shipping Details
elli J
Ġemper or
Ant ivirus
Cons ecutiveOnes
ConcreteSignature Binary
Ġdisco very
ĠJoh ns
Ġobst acle
Ġquad ratic
Ġdivers ity
cred its
Ġremark able
ĠScop olamine
ĠXml NodeType
ĠXII I
spqrMet ric
Ġdistribut ors
ĠAltern ateName
Ġsurround ing
Ġdestruct or
Ġpoly amide
SSH Client
subgraph Deploy
Research ers
supp ly
ĠInteract ing
ĠRecursion Error
Ontology Id
Webhook Result
Ġbiom edical
Ġmicrob ial
ĠMetropol itan
Destroy ed
Ġerythropo ietin
ĠMarx ist
Ġvolun teers
ĠCommun ist
ĠStudy Mode
DoubleTap Action
Ġcumulative DistributionFunction
Ġasphalth ene
DShapeNets Code
ĠFluid Synth
BAC System
ELE MENT
FQ DN
Fro zen
Foot er
OPT IONS
PAR AM
Sleep ing
SEAR CH
Tues day
Times Used
Wrapped Component
aVinc i
bTh rottler
brack et
cbr t
fest ivals
flection Utils
linal g
ldex tract
magn itude
mkis ofs
nirc md
pan ic
palind romes
warm up
wuau clt
xMan ual
}"] ')
±ŀ æĢ
Ġeras ure
thre aded
Ġairs im
Ġafra id
Ġathlet ic
oret ical
orient ed
Ġsul phur
Ġcub ic
Ġcogn itive
Ġcensor ship
Ġfibr ils
Ġtet raca
Ġpenet ration
deli very
anum eric
Ġmason ry
Ġware housing
Ġtoment ose
Ġbab y
Ġbub ble
Ġbise ction
Ġbund led
Ġbacter ia
Ġlge os
Ġrehabilit ation
ĠPos itive
Ġhosp it
ĠTob ey
('[- ]
Ġyfin ance
Ġgour am
ĠCmd Step
quaint ance
ĠIter ate
ĠIMessage Validator
ĠScho field
ĠSuggest ing
Ġdedu plication
ĠDracul a
Ġissu ed
openc v
Ġvitt ata
Ġrend ers
Ġcongen ital
Ġcongest ion
à¤ħà¤Ľ à¤®
ĠMumb ai
ĠMapp ing
ĠRich mond
ĠRena issance
ĠECh arts
ĠEleph ant
Ġexpon ential
ĠBost on
ĠByz antine
Ġkitch en
ĠLouisian a
ĠUss r
ĠGithub Service
ĠGamma Correction
ĠWcList FilterHandler
getNum Pages
conflict s
Ġorek it
Ġ----- --
Ġenrich ment
Ġmaneu vers
Insuff icient
ĠprocessInvit ations
printStack Trace
Ġbytec ode
ĠVari ation
Ġpyfirm ata
onefig i
Ġunemploy ed
ĠExplor ing
Ġparash a
truck er
ĠJose ph
ĠsetShow DeleteDialog
setStyle Sheet
ĠChancell or
ĠChesap eake
Ġ5500 1
ĠContem plating
ĠAdapter DataSet
ĠStonec rop
Ġgoogles earch
ĠOpenAstro Stack
primit ives
ĠPropri etors
ĠImageRes izer
ĠUnbound LocalError
coales ce
ĠFlorid a
CTAs sertEqual
LENG TH
ĠFileProcessing Exception
Ġgravit ational
ĠFrancaf rique
Ġsynthes ized
Unclamp ed
okopok o
particip ant
ĠUISegmented Control
RELEA SE
ĠEditorGU ILayout
nnBu yVolumes
deviant art
EXAMP LE
ĠIntellig ence
Ġantidisc rimination
ServerSide Props
DisableRealtime Monitoring
AccessibleFrom Inline
ĠARTool Kit
ĠBasePicker CellDelegate
ANTIAL IAS
ĠPorterSt emmer
ĠPortugues e
IsNull OrEmpty
OfEven Numbers
mciSend StringW
Ġgrandidier i
CdEf G
csFolder Destination
Ġpharmacok inetic
AzBx CdEfG
ĠDiscrimin ator
ĠBertForSequence Classification
lapseParentClause Visitor
Ġbioinformat ics
subgraphDeploy mentID
Ġtetraca ine
! [
! ")
! âĢĿ
! '}
" ?
" }
" ...
" ')
" ',
" âĢĶ
" }}
# "
# @
$ .
' *
' <
' >
' [
' `
' ."
' ({
( /
( ()
( **
) /
) \
) {
) }')
) ').
) ->
) }")
) },
) }"
) }\
) %.
* "
* .
* [
* [@
* >(&
+ ,
+ ]
- .
. /
. :
. ",
. **
. âĢĶ
. ${
. +-]+@[
. ******"
/ @
0 8
1 32
1 80
2 000
2 66
3 12
3 11
4 20
4 56
4 35
5 87
5 000
6 2
6 10
7 3
7 6
7 200
7 18
7 35
7 68
8 2
8 9
9 4
9 5
9 7
: *
: ...
< >
= .
= _
= ["
> +
> '}
> ";
> (_:
? >
? ')
@ .
@ ')[
A U
A a
A c
A ug
A ud
A sp
A SD
A rizon
A mazon
A erod
A rial
A erodynamic
A cro
A udacity
A gar
A DDM
A ffordable
B D
B z
B on
B as
B ra
B ased
B ER
B uff
B LE
B ID
B ank
B CD
B ledsoe
B undle
B WA
B ursitis
B FS
B irthDay
B atcher
B oundaryManager
B rasero
B ASE
C U
C rit
C og
C ard
C ould
C ss
C rack
C SV
C AM
C RE
C urrency
C NN
C MA
C over
C ivil
C MD
C Stream
C losing
C MP
C leaner
C MS
C ookies
C anny
C oulomb
D P
D R
D PI
D istance
D aily
D uck
D vd
D amping
D ashed
D engue
D enis
D ConfigLayout
D onald
E U
E d
E ject
E po
E CT
E filter
E valu
E SD
E urope
E LI
E Core
E CA
E vernote
F u
F om
F ail
F ran
F ence
F und
F inally
F OR
F Bot
F irewall
F uture
F inger
F ROM
F igma
F ollowing
F riday
F iddler
F RM
F UN
F aa
F oveaHost
F IX
G en
G re
G ot
G row
G ear
G rid
G AT
G PS
H I
H R
H is
H ot
H yd
H IGH
H uman
H elgrind
H anukkah
H rx
I S
I Y
I ter
I oT
I SO
I cons
I ABLE
I BO
I TransactionFrameProvider
J o
J Frame
J PL
J une
J WT
K E
K i
K ing
K now
K LM
K ineticEnergy
K utta
L J
L R
L in
L if
L ob
L ook
L ake
L TK
L ocker
L DI
L LO
L VM
L STM
L ETE
M H
M T
M d
M is
M us
M em
M ount
M ON
M ER
M SI
M AP
M oving
M otor
M BR
M SEL
M anagement
M otionEvent
M BER
N C
N ib
N ature
N ational
N ever
N OT
N avigation
N ASA
N arrow
N OME
N earest
N PF
O F
O l
O TH
O ptical
O rientation
P in
P ow
P rom
P and
P os
P AI
P ast
P ink
P hot
P ict
P lot
P RE
P AT
P ipeline
P itch
P interest
Q ual
Q Url
Q FT
Q UIT
R R
R u
R ing
R ail
R EA
R OS
R isk
R uss
R ank
R adio
R SA
R uby
R otation
S at
S ine
S ens
S ave
S ized
S ched
S ending
S elenium
S OL
S orted
S ale
S lack
S ingle
S uper
S Code
S CR
S ulf
S NE
S alary
S pring
S ymbol
S UP
S olver
S GV
S orry
S tock
S PQRNodeMetricsConfiguration
S ocial
S unday
S GDEnv
S aver
S vc
S obel
S SID
T S
T er
T el
T ry
T oo
T ER
T ech
T Node
T aking
T aps
T itles
T Graph
T IST
T SC
T LC
T ERE
T ruck
T Raw
T idal
T erminal
T xManual
U w
U ns
U ILabel
V C
V P
V ect
V ER
V IL
V ID
V ERT
V Ol
W ell
W ould
W ise
W ood
W RI
W rong
W ITH
W EB
W ireshark
W HERE
W HID
W arri
W HR
X s
X change
X PATH
Y ork
Y Anchor
Y ES
Y PE
Y AML
Z E
Z Setup
Z std
Z AP
Z oom
Z acharias
[ ])
\ ;
\ ""
] "
] *
] ["
] }"
^ \
_ <
_ ]
_ ->
_ ()')
_ .+-]+@[
` ).
a er
a ro
a ic
a as
a ide
a inter
a verse
a ught
a ev
a Env
a ForCausalLM
b G
b g
b al
b am
b il
b ul
b art
b able
b rain
b io
b ert
b client
b ian
b oss
b luetooth
b lood
b ably
b ranch
b kgdColor
c ort
c ab
c ub
c ue
c ated
c atch
c df
c ron
c alled
c ription
c ending
c ma
c ology
c Config
c imal
c rate
c riter
c oder
c pus
c nn
c ury
c losed
c urement
c uda
c ancel
c itizens
c Types
c ookies
d c
d m
d r
d x
d y
d ens
d ard
d ash
d riv
d ese
d ose
d nn
d Line
d rag
d ones
d iffer
d ynamics
d BFS
e led
e aling
e enth
e igenvalues
e asy
f m
f v
f x
f at
f re
f ur
f id
f name
f lib
f ake
f ond
f lex
f ather
f irefox
f amily
f Vectorizer
f iddler
f loor
f ashion
g d
g p
g as
g un
g um
g ive
g ql
g Search
g reenshot
g inx
g ped
g antry
g Bz
h o
h is
h ine
h ill
h ak
h io
h df
h ape
h ale
h ole
h eder
h idden
h undred
h omework
h jk
h unting
h ugging
i ction
i ations
i ob
i ors
i verse
i ances
i Phone
i itis
i Ã±
j E
j et
j our
j unction
k h
k m
k ing
k ext
k iz
k ers
k word
k ish
k type
k dir
k CG
k arma
k altura
l f
l ive
l ient
l ik
l ined
l ived
l xml
l iving
l ba
l inder
l legal
m or
m en
m us
m il
m se
m ys
m time
m ature
m ech
m icro
m aterial
m outh
m iology
m br
m irror
m ultiply
m RendererID
m otion
n l
n or
n ut
n am
n il
n for
n ail
n ock
n ight
n ull
n Audio
n page
n weather
n connection
n ested
n points
n Total
n icity
n algo
o en
o is
o ser
o the
p c
p k
p q
p ow
p read
p ise
p open
p ict
p ider
p Level
p Limit
p odcasts
p rune
q j
q we
q fe
q kd
q MP
r t
r age
r ary
r str
r ings
r ift
r check
r strip
r nn
r ze
r ampoline
r iform
r arium
s i
s r
s ip
s ang
s io
s enter
s ched
s qr
s ns
s da
s witch
s ince
s ids
s lice
s batch
s chool
s elling
s uggest
s urface
s rf
s weet
s lept
s pool
s ophos
s queeze
s ldump
s bG
t z
t od
t lement
t te
t ight
t rec
t test
t ns
t orch
t ailed
t witch
t uples
t ouch
t Mode
t tercap
t oggle
t ario
u el
u ke
u pt
u itive
u ced
u ptime
u pported
u fw
v t
v age
v ier
v ader
v olatility
v iate
v lc
v bs
w p
w ing
w ar
w iz
w file
w ell
w sc
w ood
w ashing
w ios
w ifi
x a
x es
x am
x data
x probe
y on
y an
y log
y copg
y alty
y okopoko
y SGDEnv
z h
z ene
z bar
z ipping
z illa
{ $
| `
} >
} [
} ]
} _
} ):
} );
} '])
} !'
} ({
} (',
} /{
} (')
£ o
¬ Ù
± Ù
º §å
Â °
Ã ¶
Ã Ĺ
Ã £o
× ķ
× Ļ
Ø ¬Ù
Ø ±Ù
ç º§å
Ġ ×
Ġ ä
Ġ es
Ġ rom
Ġ ):
Ġ ice
Ġ ia
Ġ roll
Ġ eros
Ġ rolling
Ġ rollback
Ġ rolled
Ġ ÃĹ
Ĥ Ùħ
ĸ ×Ķ
à¤¾ )
à¤¾ ;
in th
in son
in ces
in ai
in ancial
in structor
in activity
in ned
in ental
in serted
in burgh
in cludes
in spect
th c
th rit
th als
th reat
th ouse
th reshold
th ird
à¤° à¤µà¤°
à¤° wasteslot
on i
on y
on ce
on yst
on ell
on aut
on ts
on istic
on Size
on sei
on Touch
on Paint
on kers
on mus
Ġa er
Ġa de
Ġa ro
Ġa ur
Ġa head
Ġa post
Ġa Dec
Ġa imed
or ate
or em
or ance
or ne
or ough
er k
er ated
er ations
er ia
er als
er ious
er ie
er vo
er ries
er Notes
er ald
à¤¿ :%
Ġth er
Ġth es
Ġth rone
Ġth orough
at k
at ue
at izing
at ience
es m
es ch
es ide
es ign
es bian
en y
en es
en na
en ior
en kins
en zene
Ġs an
Ġs em
Ġs qu
Ġs now
Ġs av
Ġs eld
Ġs ync
Ġs amp
Ġs la
Ġs igning
Ġs sid
Ġs igma
Ġs queeze
Ġs sldump
Ġs enior
Ġthe ater
Ġthe atr
Ġthe oretical
à¤¨ à¤ķà¤²
ing ly
ing Event
ing Connection
Ġc e
Ġc i
Ġc ow
Ġc ul
Ġc ure
Ġc res
Ġc out
Ġc ork
Ġc ep
Ġc ations
Ġc ave
Ġc ust
Ġc oup
Ġc map
Ġc ider
Ġc rack
Ġc rate
Ġc urls
Ġc ope
Ġc logging
Ġc raft
Ġc tx
Ġc ured
Ġc ctx
Ġc ognit
Ġc itizen
Ġc srf
Ġc esm
re v
re ut
re ated
re ase
re direct
re main
re pos
à¥ĭ .
Ġf p
Ġf r
Ġf ra
Ġf res
Ġf ear
Ġf oo
Ġf led
Ġf lock
Ġf ping
Ġf aint
Ġf ins
Ġf eather
Ġf asc
Ġf arm
Ġf ought
Ġf ring
Ġf used
Ġf aker
Ġf crack
Ġf aith
Ġf etched
Ġf onts
à¥Ģ à¥¤
Ġt b
Ġt en
Ġt am
Ġt ub
Ġt form
Ġt ail
Ġt ill
Ġt one
Ġt ight
Ġt rec
Ġt roup
Ġt acc
Ġt ru
Ġt ank
Ġt angle
Ġt aste
Ġt enn
Ġt idal
Ġt roubleshooting
Ġt ears
Ġt riptych
Ġt iktok
Ġt ldextract
Ġt aught
à¤¤ à¤¯à¤¶
le ted
à¤ª à¤ļ
Ġp q
Ġp en
Ġp ow
Ġp il
Ġp ec
Ġp ad
Ġp ist
Ġp up
Ġp our
Ġp ray
Ġp ores
Ġp eak
Ġp ipes
Ġp owers
Ġp aste
Ġp leas
Ġp umping
Ġp atience
it ate
it ter
it ating
it able
it ts
it ons
it ively
it ty
it ably
it rampoline
à¤¯ à¤¥
à¤¯ à¤µà¤¹
de l
de m
de int
de ep
de bit
de limit
de compressed
im s
im ic
im ating
im inal
im eters
ro i
ro ve
ro ses
ro gen
an ing
an ad
an to
an ia
an ism
an bul
ion ar
al g
al one
al ph
al ign
al App
is y
is al
is one
is set
is dom
is Setter
is Hidden
is Checked
.. \
à¤Ł à¤ª
à¤Ł à¤µà¤°
à¤Ł à¤¸à¤¬
ar age
ar di
ar ations
ar rays
ar uco
à¤® à¤°
Ġà¤¸ à¤«à¤²
Ġo c
Ġo le
Ġo is
Ġo int
Ġo os
Ġo di
Ġo to
Ġo mp
Ġo vert
Ġo auth
Ġo aks
Ġo ptuna
Ġo deint
ct ly
ct ime
ct urnal
Ġin qu
Ġin struct
Ġin version
Ġin ev
Ġin equal
Ġin paint
Ġin aug
Ġin serts
Ġin lined
Ġ= ~
ut o
ut s
ut let
Ġm yth
Ġm ul
Ġm utes
Ġm map
Ġm owing
Ġm agenta
Ġm angling
Ġm ismatched
Ġm itzvot
Ġm kdir
Ġm imic
ed Y
ed u
ed es
ed en
ed iv
ed ged
ed Component
ed Module
ed Vect
ed flib
Ġà¤ª à¤¨
Ġà¤ª à¤¦à¤ķ
Ġw il
Ġw elf
Ġw get
Ġw ard
Ġw ars
Ġw arp
Ġw ires
Ġw ander
Ġw oes
Ġw ifite
Ġw fp
Ġw odim
Ġw isdom
Ġto y
Ġto sh
Ġto ast
Ġto do
Ġto Account
Ġto Seconds
Ġto bac
Ġto urnaments
ic ken
ic ists
ic Book
ic eps
ic aptcha
ic lient
ic ionar
ur t
ur en
ur ich
ur ious
ur gy
ur poses
us an
us al
us et
us ale
Ġan juta
Ġan ions
Ġan ne
Ġan oint
Ġd B
Ġd x
Ġd od
Ġd ress
Ġd uct
Ġd ask
Ġd ual
Ġd rain
Ġd raft
Ġd urations
Ġd omin
Ġd raining
Ġd ancing
Ġd ominant
et a
et o
et t
et on
et ools
et une
et tercap
as ures
à¤¡ à¤Ĺ
à¤¡ à¤ķà¤°
à¤¡ à¤¬à¤²
om it
om bo
om yo
à¤ı à¤«à¤¸
Ġfor e
Ġfor th
Ġfor ex
Ġfor um
Ġfor get
Ġfor ef
Ġb id
Ġb oun
Ġb read
Ġb are
Ġb ite
Ġb ash
Ġb ath
Ġb ark
Ġb lob
Ġb box
Ġb arge
Ġb ills
Ġb arn
Ġb att
Ġb iling
Ġb rows
Ġb owing
Ġb undle
Ġb umps
Ġb rowsing
Ġb ismuth
Ġb orne
Ġb erries
Ġb eside
Ġb iceps
imp lement
Ġl am
Ġl ies
Ġl iv
Ġl ux
Ġl ying
Ġl umin
Ġl ung
Ġl esbian
Ġl ombo
el ess
el data
el ada
el igible
à¤ĩ à¤ª
Ġre ct
Ġre cess
Ġre pa
Ġre load
Ġre po
Ġre vert
Ġre pos
Ġre dis
Ġre active
Ġre verts
Ġre pairs
Ġre installing
Ġre vision
Ġre building
Ġre election
am il
am py
am udio
am ines
un load
un pack
un zip
un icate
un ingle
un wind
un splash
un supported
un escape
import ant
import Key
import edModule
ch ol
ch est
ch ord
ch ap
ch ang
ch orm
ch dir
ch ains
ch ives
ch arts
st k
st s
st ra
st dio
st anbul
ow an
ow ed
... "
... \
... "'
Ġn a
Ġn oun
Ġn our
Ġn ost
Ġn ond
Ġn ah
Ġn ausea
Ġn avigating
Ġn isei
Ġn arrative
Ġn Strikes
Ġn senter
il le
il an
il ons
il ica
Ġ( {
Ġ( >{
ĠP A
ĠP M
ĠP at
ĠP ut
ĠP ed
ĠP ay
ĠP ap
ĠP ater
ĠP ipp
ĠP red
ĠP AL
ĠP eg
ĠP UT
ĠP asting
ĠP ope
ĠP ools
ĠP ipelines
ĠP LY
ĠP PO
ĠP SC
ĠP eps
ĠP ossible
ĠP sy
ĠP onder
ĠP oe
ĠP alace
ĠP ythia
ĠP si
ĠP itts
ĠP urposes
ex pen
ex press
ex plore
ex filtration
Ġh a
Ġh ist
Ġh ub
Ġh ers
Ġh ous
Ġh ook
Ġh orm
Ġh ides
Ġh ips
Ġh over
Ġh az
Ġh iring
Ġh ospital
Ġh atched
Ġh omyo
ag a
ag og
ag asc
ag range
ag rin
ag elada
ess ed
ess ential
ess aging
Ġà¤¹ à¤°
Ġ' !
Ġ' >
Ġ' ')
Ġ' //
Ġ' '}
Ġ' ';
Ġ' ../
Ġ' "'
Ġ' (\
if er
if ace
ĠA my
ĠA ero
ĠA verage
ĠA ges
ĠA mong
ĠA udacity
ĠA DDM
ĠA uslogics
ĠA ccuracy
ĠA pollo
ĠT or
ĠT en
ĠT el
ĠT ib
ĠT urn
ĠT own
ĠT run
ĠT ars
ĠT ok
ĠT RE
ĠT rust
ĠT LS
ĠT utorial
ĠT Filter
ĠT ouch
ĠT ots
ĠT ernary
ĠT rich
ĠT rots
ĠT inet
ĠT abs
ĠT idal
ĠT ropical
ĠT roubleshooting
ĠT anz
ĠT RAN
ĠT eraCopy
ĠT TLC
ĠT fid
ĠT sang
ation Warning
ate way
à¤¬ à¤¬à¤¤
') ")
') })
') }"
ou red
em y
em ap
em ant
em Py
Ġus ual
à¤ĩà¤² à¤¤
ra vel
ra der
ra cle
ra dd
(' $
(' >
(' ')
(' //
(' ../
(' =')
(' @')[
() ':
() ])
() ),
() **
() `,
() '}
ol an
ol as
ol ate
ol low
ol len
ot ing
ot ors
ot ional
ot tery
ot uningle
id le
id ents
id ential
ce ased
ul y
ul as
ul pt
ul iar
Ġà¤® à¤¹
Ġy oun
Ġy ous
Ġy ah
Ġy yy
Ġy onsei
Ġg h
Ġg ent
Ġg est
Ġg ab
Ġg able
Ġg low
Ġg mail
Ġg lab
Ġg eriatric
Ġg arage
Ġg ateway
ec o
ec il
um vir
um ato
ad c
ad ded
ad obe
ad ena
ad agasc
ĠC er
ĠC ase
ĠC ore
ĠC urr
ĠC old
ĠC OS
ĠC lean
ĠC odes
ĠC AM
ĠC anvas
ĠC oca
ĠC EO
ĠC ASA
ĠC HK
ĠC LI
ĠC IF
ĠC irq
ĠC ircular
ĠC uckoo
ĠC enat
ĠC amtasia
ĠC abot
ĠC atherine
ĠC Cleaner
ĠC LTK
ĠC ecil
est ate
est ions
est inal
est acks
à¤¼à¤¾ %
se ed
se ven
se ki
se vier
qu ate
qu ity
qu ality
qu otes
qu isition
int l
int ent
int illa
int estinal
ĠI TK
ĠI TransactionFrameProvider
ĠI Obit
ĠI BWA
ĠI CMP
ĠI ECore
ĠI MAP
ĠI llegal
à¤£ Purge
ĠS ent
ĠS am
ĠS ib
ĠS ize
ĠS top
ĠS te
ĠS ix
ĠS oup
ĠS ocket
ĠS ense
ĠS eb
ĠS wit
ĠS ession
ĠS IN
ĠS ever
ĠS ites
ĠS olve
ĠS impl
ĠS igning
ĠS CP
ĠS ky
ĠS pring
ĠS olid
ĠS iri
ĠS ocial
ĠS creen
ĠS upervis
ĠS ophos
ĠS eminars
ĠS unday
ĠS GDEnv
ĠS inai
ĠS usan
ist ing
ist ent
ist rar
Ġde em
Ġde lic
Ġde pen
Ġde tr
Ġde hyd
Ġde pleted
Ġde dicated
Ġde ceased
Ġà¤¬ à¤²
Ġà¤¬ à¤¸
Ġst k
Ġst ab
Ġst ay
Ġst ain
Ġst ating
Ġst one
Ġst ages
Ġst rip
Ġst ko
Ġst yles
Ġst igma
rom atic
à¤ĸ à¤¨à¤¯
ver ness
ver ters
ver eign
ĠD og
ĠD ay
ĠD lib
ĠD av
ĠD ak
ĠD ark
ĠD ie
ĠD ynam
ĠD ialog
ĠD ynamic
ĠD IO
ĠD uck
ĠD FS
ĠD umper
ĠD OI
ĠD bus
ĠD utch
ĠD AILY
ĠD DoS
ĠD aVinci
ĠD DConfigLayout
ĠD IY
ĠD LR
lo p
lo pe
lo gram
ame gpu
Ġ{ ...
Ġ{ :?
Ġis Con
Ġis Open
Ġis close
Ġis First
Ġis Even
Ġis Getter
Ġis sei
ment Text
ment Evalu
ve ctors
ve hicle
op es
op art
op pos
op era
Ġ` %
Ġ` |`
Ġas h
Ġas pir
Ġas cending
ab ort
ab ama
ab anto
Ġpro g
Ġpro to
Ġpro act
Ġpro ph
Ġpro long
Ġpro tests
Ġpro posed
Ġpro xies
Ġpro jection
pt ables
ig e
ig s
ig er
ig ure
Ġv ile
Ġv ide
Ġv env
Ġv ars
Ġv amp
Ġv ital
Ġv imeo
Ġv lc
Ġv owel
Ġv anad
Ġv omit
Ġr ing
Ġr all
Ġr ise
Ġr sv
Ġr ng
Ġr uler
Ġr att
Ġr uling
Ġr asa
ib ern
Ġà¤ħ à¤®
Ġà¤ħ à¤Ĺà¤°
Ġà¤ħ à¤µà¤¸
ub a
ub le
ub ect
Writ ing
od s
od ent
od ata
od ers
Ġcon qu
Ġcon cent
Ġcon servation
Ġcon verter
Ġcon clusions
urn e
urn ing
urn ey
og rams
ter Field
ck s
ea v
ea per
ea red
ea ving
Ġon set
Ġon start
Ġon stage
and y
and roid
ir t
ir y
ir ts
ir ators
ir ming
Ġret ry
Ġret ains
): %
ew ell
ew itt
ass oc
ly n
ly mp
ht m
he alth
he umato
ple x
put ies
put ty
Ġe ating
Ġe Open
Ġe book
Ġe lections
Ġe uler
Ġe uclidean
Ġe igenvalues
Ġe ager
Ġe chol
end Node
end ars
Ġ1 66
Ġ1 17
for est
pl p
pl ores
pl aint
pl inary
ĠM L
ĠM a
ĠM ag
ĠM os
ĠM ice
ĠM ural
ĠM ove
ĠM ond
ĠM SI
ĠM aint
ĠM ID
ĠM ons
ĠM aster
ĠM ont
ĠM off
ĠM rs
ĠM orrow
ĠM BR
ĠM iddle
ĠM bps
ĠM essenger
ĠM ohan
ĠM olecular
ĠM adagasc
Ġ" #
Ġ" ;
Ġ" ))
Ġ" ":
ĠF em
ĠF low
ĠF rig
ĠF old
ĠF orm
ĠF asc
ĠF lood
ĠF ried
ĠF igma
ĠF acing
ĠF itz
ĠF iddler
ĠF DA
ĠF estival
ĠF oveaHost
ĠF anny
ĠF leet
ĠF oster
à¤Ī à¤¨
à¤Ī à¤µ
ĠR W
ĠR a
ĠR om
ĠR ate
ĠR ub
ĠR up
ĠR ace
ĠR uth
ĠR isk
ĠR uff
ĠR ng
ĠR SS
ĠR ights
ĠR oad
ĠR ather
ĠR oom
ĠR ober
ĠR och
ĠR ulerships
ĠR uby
ĠR osetta
ĠR Studio
ĠR ita
ĠR asterio
ĠR BACSystem
ĠR hine
Ġà¤ĸ à¤¤
Ġcom pos
Ġcom mented
Ġcom posed
Ġcom fort
Ġcom poser
Ġcom pliance
ĠE p
ĠE th
ĠE ve
ĠE ase
ĠE cho
ĠE DF
ĠE ric
ĠE rie
ĠE valu
ĠE PA
ĠE ras
ĠE EG
ĠE ND
ĠE astern
ĠE verything
ĠE vernote
ĠE instein
ĠE ULA
ĠE RR
ĠE ttercap
ĠE quity
pa ka
pa ho
from timestamp
// --------------------------------
com es
com parison
each ing
pro p
pro fil
pro of
pro perties
pro jects
pro duc
ĠAI DS
ine Transform
Ġex ile
Ġex act
Ġex its
Ġex ponent
Ġex clus
Ġex ceeded
Ġex clusion
Ġex planation
Ġex filtration
our i
ĠB a
ĠB ing
ĠB us
ĠB as
ĠB est
ĠB ig
ĠB ind
ĠB ill
ĠB ob
ĠB rowser
ĠB rig
ĠB lu
ĠB ey
ĠB AR
ĠB ern
ĠB rie
ĠB orn
ĠB inary
ĠB oolean
ĠB ring
ĠB ird
ĠB ERT
ĠB erg
ĠB acking
ĠB iet
ĠB ridge
ĠB oke
ĠB road
ĠB esides
ĠB LU
ĠB PM
ĠB egin
ĠB oundaryManager
ĠB ukh
ĠB olivian
ĠB ELI
Ġà¤ı à¤µ
Ġ2 9
Ġch urn
Ġch dir
Ġch air
Ġch rome
Ġch ewing
Ġch apters
Ġch agrin
Ġch eaper
ind a
ind ustrial
ind uced
Ġal ter
Ġal ignment
Ġal ien
Ġal got
Ġk a
Ġk p
Ġk size
Ġk uch
Ġk ills
Ġk osh
Ġk native
Ġk ZValueTimeBar
Ġk arma
Ġk ineticEnergy
Ġk ako
Ġk office
cl ing
cl ine
cl ud
cl aim
di al
di rection
di alog
art ists
art icle
à¤Ĩ à¤ľ
à¤Ĩ à¤¬
à¤Ĩ à¤ĸ
à¤Ĩ à¤¯à¤¤à¤¨
ĠL A
ĠL i
ĠL o
ĠL es
ĠL ow
ĠL ab
ĠL ock
ĠL arg
ĠL ane
ĠL imit
ĠL oss
ĠL AM
ĠL lam
ĠL iver
ĠL GB
ĠL ora
ĠL abor
ĠL ED
ĠL ANG
ĠL LVM
ĠU C
ĠU Int
ĠU sers
ip c
ip v
ip ulation
ain Window
ĠH a
ĠH i
ĠH en
ĠH ue
ĠH all
ĠH ill
ĠH elp
ĠH yper
ĠH iding
ĠH illing
ĠH KEY
ĠH az
ĠH ayes
ĠH appy
ĠH BO
ĠH unt
ĠH unting
ĠH elgrind
ĠH ulu
ĠH ugging
ĠH anukkah
ĠH WMonitor
ĠH earing
ĠH ewitt
Ġwe ar
Ġwe aring
Ġà¤Ĩ à¤¯à¤¤
ial ang
ial Ord
Ġwh olly
ap k
ap is
ap iclient
Ġdata cate
Ġuse Router
Ġuse Exchange
ĠN O
ĠN ic
ĠN ow
ĠN est
ĠN ature
ĠN eb
ĠN OR
ĠN amed
ĠN au
ĠN orthern
ĠN OD
ĠN earest
ĠN avigating
ĠN egative
ĠN WTF
ĠN ephil
ĠN TSC
ĠN ginx
ĠN iÃ±
ĠN iger
Write All
Write Checker
form atter
form Data
âĢ ĵ
Ġbe verage
Ġbe ams
Ġbe verages
process Text
process Twist
ĠG row
ĠG nome
ĠG uild
ĠG round
ĠG reg
ĠG ats
ĠG ene
ĠG reenshot
ĠG RE
ĠG auss
ĠG yr
ĠG ROM
ĠG az
ĠG love
ĠG Cmd
ĠG AD
ĠG astro
ĠG IMP
ĠG csFolderDestination
ĠG NOME
ĠG REA
ĠG rove
ĠG emPy
ult s
ult y
per ed
per ger
per nic
per pet
Ġsp ur
Ġsp ort
Ġsp ite
Ġsp ark
Ġsp iral
Ġsp oofing
Ġà¤°à¤¹ à¤¨
Ġres on
Ġres ur
Ġres izer
Ġres ets
Ġres emb
Ġres idence
Ġres erialised
ĠWrit able
ĠW ed
ĠW all
ĠW ise
ĠW OR
ĠW alt
ĠW ires
ĠW RF
ĠW ednes
ĠW ifite
ĠW ednesday
ĠW emo
ide a
ide vices
ity Setup
ome page
Ġ} :
Ġ} }>
'] ])
Ġfile Name
Ġfile Content
get p
get Id
get Value
get Element
get Date
get As
get Application
get DebugContext
get Age
get Raw
get Full
get Gif
get Month
get InputFileName
get LoggedValues
get Grid
ang ered
con caten
con verter
con trast
Ġme als
Ġdef inite
Ġdef icit
to k
to o
to ys
to We
to Account
to Upper
url parse
Ġapp eared
Ġor al
Ġor ient
Ġor ange
ure Error
ail er
res ample
res earch
res net
res izer
yst s
yst ifying
Ġprint able
iv ore
def rag
ibr is
ibr ating
Ġfrom Account
str ument
pon y
ĠO ft
ĠO tt
ĠO ral
ĠO cean
ĠO rientation
ĠO hio
ĠO racle
ĠO lymp
__ .
Ġ- ->
out ine
Ġle a
Ġle aving
à¤Łà¤° à¤¨
Ġà¤¤ à¤¬
Ġen z
Ġen de
Ġen ded
Ġen hanc
Ġen hances
oc ide
file path
file cmp
all ory
all recipes
all inity
all enge
Ġ# '
Ġ# {
Ġcl i
Ġcl im
Ġcl ues
Ġcl iff
Ġcl imb
Ġcl oned
Ġcl erk
able Result
In k
In ject
In View
In side
In tern
In dividual
In Pix
In secure
In Seconds
In digenous
In activityMonitor
In strument
Ġ#-#-#-#-# #-#-#-#-#
ack age
ep isodes
Ġsc atter
Ġsc ored
Ġsc rolling
Ġsc issors
Ġsc aler
Ġsc ulpt
Ġnot ed
Ġnot ices
Ġnot epad
Ġnot ifies
Ġnot orious
ug e
path name
path ize
Ġà¤¶ à¤°
ens ely
ens ively
lib av
lib rosa
ry s
ry ky
Ġstr at
Ġstr ides
Ġstr ife
Ġstr uggling
row able
Ġprocess ors
Ġprocess Text
Ġpo et
Ġpo ol
Ġpo se
image Data
ant ly
Ġdes ire
Ġdes ires
Ġdes erve
Ġdes pise
ations hip
ill iant
val ds
Ġad s
Ġad words
Ġby te
ear th
ear Down
ĠIn to
ĠIn sert
ĠIn depend
ĠIn structor
ĠIn struction
ĠIn jection
ĠIn structables
Ġat tr
Ġat trib
Ġ0 9
ac re
ac ology
ac quaintance
Ġsh us
Ġsh ares
Ġsh iny
Ġsh outbox
Ġsh aping
Ġsh rub
Ġsh aken
)) ')
)) );
ĠV ue
ĠV AR
ĠV ulner
ĠV ariables
ĠV imeo
ĠV ien
ĠV izard
ĠV GG
ĠV SCode
ution s
Ġinput File
Ġpl ates
Ġpl umb
Ġpl ane
Ġpl anner
Ġpl acement
Ġpl aqu
Ġcont ours
Ġcont ributed
Ġcont ribute
Ġspec s
ning s
Ġà¤ī à¤ļ
ore Case
ĠIm mig
ĠIm aging
rans itive
http d
ld rich
oo led
uct s
:// ',
Ġtime Difference
av g
av an
av el
Ġimp art
Ġimp air
Ġimp ose
Ġimp osition
Ġimp osed
Ġval u
Ġpy m
Ġpy o
Ġpy re
Ġpy se
Ġpy cl
Ġpy SM
Ġpy wra
Ġpy riform
Ġrequest ed
Ġnew Speed
Ġnew Position
Ġnew Owner
Ġnew Height
Ġper il
Ġper ception
Ġper mit
Ġar p
Ġar bit
Ġar uco
Ġar thrit
te en
te ctions
ient ists
ft ed
ph ylo
ys log
ys volume
run ing
run ning
run Tests
Ġj i
Ġj oseki
Ġj umps
Ġj urass
Ġall ies
Ġall ergy
Ġall erg
Ġall iance
Ġall profiles
Ġx e
Ġx Diff
Ġ3 2
read sheet
Ġlog ically
Ġlog istic
ĠTh ree
ĠTh ings
ĠTh erm
ĠTh ough
ĠTh ank
Ġun for
Ġun able
Ġun read
Ġun ions
Ġun pre
Ġun install
Ġun pop
Ġun less
Ġun iqu
Ġun mount
Ġun safe
Ġun installed
Ġun satisfied
Ġun handled
Ġun protected
Ġun iverse
vel ocities
ĠEx it
ĠEx ile
ĠEx port
ĠEx plain
ĠEx position
ĠEx amples
ĠEx ploration
ĠEx ecutive
ĠEx clusion
ĠEx pense
=' ^
time period
Ġtra y
Ġtra um
Ġtra dition
Ġtra its
Ġtra cing
Ġtra jectory
Ġhi er
Ġopen v
Ġopen nmt
Ġup loads
Ġup loaded
enc odings
enc oders
Ġse al
Ġse vent
sh ed
sh ould
sh aped
tr end
tr immed
tr ato
ell ate
\\ \\
ual ize
ual ities
Ġ== ="
Ġfil ms
are ly
Ġac re
Ġac oust
der ivative
Ġem ulate
Ġem ission
Ġem pir
Ġem oj
Ġem otional
ock opt
word cloud
Ġcomm et
ight on
à¥ĭà¤Ĥ )
Ġel m
Ġel ic
Ġel ast
sc p
sc al
sc ar
sc ape
sc riptions
sc aled
Ġ< ->
An not
An imal
An imation
An aconda
par k
par ing
par alle
par allel
par agraphs
Con dition
Con version
Con ds
Con catenate
Con structedHostsMap
Con gratulations
Con trato
Ġautom ates
Ġdis card
Ġdis gra
Ġdis connection
Ġdis sol
Ġdis pers
Ġdis qus
Ġdis orders
Ġdis sip
py dub
py helpers
']) }
ud an
:: \
ak heim
aut ob
ge V
ge odata
En hanced
En joy
ĠJ enn
ĠJ PEG
ĠJ enkins
Ġset point
Ġset ters
Ġset Comp
Ġset tlement
bo th
bo at
bo bo
bo urne
(" %
(" .{
(" $.
Ġpre cis
Ġpre position
Ġpre cede
Ġpre mature
Ġob long
Ġadd rs
Ġadd Subview
Ġsu ited
Ġsu icide
Ġqu iet
Ġqu ota
Ġqu ipper
atch ing
Ġprov ince
ute bobo
Ġser ved
Ġser geant
port folio
vers ing
vers al
fig size
") ])
ob enzene
ded it
]) ):
]) ])
Ġne ither
Ġint uitive
Ġmod s
Ġanal yst
Ġhe ir
Ġhe ated
Ġhe ading
ĠAn other
ĠAn imal
ĠAn aconda
AI N
list box
ast ian
led ged
set M
set ter
set Text
set rl
set Up
set Progress
set Layout
set Variable
set Balance
set Checked
ms paint
Ġhand ful
Ġhand made
Ġhand writ
ich i
à¥Īà¤Ĥ à¤ĥ
ĠCh ines
ĠCh anges
ĠCh ira
ĠCh owan
ĠCh rys
âĢĻ .
Ġkey logging
Ġimage View
Ġimage Data
Ġuser Role
Ġuser Rating
Ġuser Permissions
Ġwill s
Ġcheck er
Ġcheck VirtualAttribute
Ġcheck SubgraphInitialization
Ġcreate Store
Ġout ages
Ġout look
Ġout dated
Ġout raged
Ġout comes
Ġstring ent
ĠK B
ĠK d
ĠK p
ĠK lam
ĠK SD
ĠK ai
ĠK NN
ĠK atr
ĠK aspersky
ĠK reut
gr and
ER OBJ
user Data
user Ident
Ġrec argo
Ġrec reated
). "
so il
rig erated
à¤ķà¤² à¤¨
Ġname Cell
Ġperform DoubleTapAction
ray Scale
comm unicate
Ġ5 15
Ex c
Ex iting
Ex ploit
Ex pense
Ex planation
EAD DR
Ġ/ *
ĠCon dition
ĠCon caten
ĠCon trast
ĠCon structedHostsMap
ĠCon sider
ĠCon verters
Ġwhich M
Ġget Count
Ġget Plugin
Ġget DebugContext
Ġget Age
Ġget pass
Ġget Average
Ġget Gif
inal Ign
Ġoper a
Ġoper ated
Ġà¤Ń à¤°à¤£
Ġdi e
Ġdi vert
Ġdi verse
Ġdi agonalSum
Ġdi ameter
Ġreal ize
Ġreal istic
Ġreal owner
ĠAd ams
ĠAd just
ĠAd vis
ĠAd vfirewall
Ġtrans it
Ġtrans pl
Ġtrans cript
Ġtrans fers
root ed
ov a
ov es
Ġdirect s
Ġdirect ed
ĠQ ue
ĠQ Text
ĠQ Action
ĠQ Line
ĠQ Video
ĠQ Color
ĠQ PlainText
ĠQ Pixmap
ĠQ Learning
ĠQ WebEngine
ĠQ ualities
Ġinter val
Ġinter ia
Ġinter play
Ġinter action
Ġinter vention
Ġinter section
Ġinter connected
Ġinter polation
Ġinter iors
lect or
Ġ4 6
Ġ4 9
Ġ4 50
Ġ4 29
typ os
typ icode
start Time
add Variable
add Page
add Tests
Ġresult Data
aus ed
raph ic
Ġab ol
Ġab and
Ġab use
Ġso vereign
Ġform ulas
igh ters
Ġsm a
Ġsm ell
input File
Ġact ed
play ers
pre process
Ġmessage Lbl
Th umb
Th rough
Th eme
Th ursday
Ġcre am
Ġcre pt
Ġcre atures
Ġcre ws
ish es
ish iki
ĠDe legate
ĠDe ezer
ĠDe puties
log y
log ged
ater al
json MutationDataFetcher
json placeholder
json PathAttribute
Ġcount down
Ġword press
Ġhas VirtualAttribute
ne th
Set File
Set Property
Set Mute
Ġcor r
Ġcor por
Ġcor ros
ĠSt able
ĠSt ill
ĠSt ret
ĠSt atist
ĠSt udent
ĠSt orage
ĠSt atue
po etic
ss id
arg max
driver query
Ġtest able
Ġtest type
Ġtest ament
ach es
ach uset
ged ly
Ġ$ .
Ġ$ '))
Ġ$ ('#
ĠList box
ĠList Trainer
Ġcurrent Function
lock er
vir t
Re place
Re fineries
Ġstate Name
Ġcol lator
Ġcol lation
Ġcol laborate
Ġspecific ation
ative Load
net t
net loc
net cat
net Client
net mask
net CDF
net cdf
ax ed
ax ial
cept ible
ĠRe ed
ĠRe id
ĠRe lease
ĠRe boot
ĠRe quired
ĠRe gression
ĠRe flectionUtils
ĠRe versing
du ce
ower mentEvalu
old own
Ġra ce
Ġra ising
code d
Ġsimul ates
ments Completion
ble m
web cam
ude v
Ġsub net
Ġsub classes
Ġsub reddit
Ġsub plots
Ġsub views
Ġsub operators
à¤ªà¤¹ à¤ļ
Ġmax Diff
Ġmax Profit
ensor Monitor
Ch eapest
Ġvari ability
Ġvari ants
.') ;
rec argo
rec Queries
rec ationWarning
Pro blems
lu ke
ym ers
ĠY et
ĠY ale
ĠY onkers
arch ical
Ġim migration
new Instance
Ġfirst name
Ġdif fs
Ġass ure
Ġass ists
Ġass emble
St ay
St uff
St ats
St udents
mp s
mp itrampoline
10 8
RL IM
Ġz ipping
Ġz Min
Ġz Max
Ġz iel
Ġcomput e
Ġcomput ation
Ġcomput ations
Ġpart ner
Ġpart ially
Ġpart ners
Ġmin i
Ġmin or
Ġmin us
Ġmin ification
Ġmin Neighbors
Ġmin utely
Ġjson able
Ġjson lines
Ġjson schema
ĠPerform s
ron ym
test Manager
test DestinationInitialization
âĢĿ âĢĶ
Ġag ing
Ġag gress
Ġag onistic
Ġplay time
Ġplay ground
Ġdirectory Path
Ġ10 5
Ġ10 9
Ġ10 80
ĠOpen Qu
ĠOpen MM
ĠOpen Cog
ĠOpen Faa
à¤µà¤¤ à¤¨
Ġev ident
Ġev rythngScannerDelegate
Ġpath ways
item Id
Ġany where
Ġbo ards
html Table
Ġ19 12
Ġ19 11
Ġ19 24
Ġ19 34
Ġ19 78
Ġ19 56
Ġ19 80
Ġ19 29
Ġ19 44
Ġ19 47
Ġ19 02
Ġ19 46
Ġ19 43
File Event
File Num
File Upload
File Allowed
File Zilla
my db
OS S
OS Pre
type of
Ġback off
Ġfound Book
Ġà¤ļà¤² à¤¨
cre ated
cre tion
Ġstart Time
ĠEn try
ĠEn abled
ĠEn tity
à¤Ĩà¤Ī à¤ıà¤®
inter action
inter sect
inter pret
ific ent
ific ant
ific Graph
tem porary
unc ased
message Arrived
ann ual
vert ex
([ (
([ -
([ ]()
pr ised
sum OfEvenNumbers
à¤ĵ à¤Ĩà¤Ī
ful fill
sing le
Ġlo fe
Cl one
ĠPro tocol
ĠPro tein
ĠPro jects
ĠPro duction
ĠPro prietary
ĠPro perly
ĠPro blems
ĠPro blem
Ġvis iting
Ġvis ibility
Sc intilla
left Controls
Ġcomple ting
ors ed
inu ous
ious ly
Ġtotal Tasks
à¤ħà¤ª à¤łà¤¨
ĠURL Manager
iment al
iment ary
trans act
trans fer
trans formation
trans lation
Ġ_ (
struct Path
Ġloc i
Ġloc ator
ĠImage To
ĠImage Signature
Ġam az
Ġpos X
Ġdec rypting
Ġsupp lement
Ġsupp ression
Download s
back end
back test
ĠPy Se
ĠPy RE
ĠPy Plugin
ĠPy Mu
ĠPy Nessus
ĠPy omo
ĠPy Charm
ĠPy OpenGL
ĠPy QFT
Ġvalid ated
Ġaudio books
View Set
View Cell
box Model
Ġdiffer ing
Ġiter ator
Ġiter atively
Ġarg v
Ġarg ues
Ġarg uing
dir cmp
Ġcontrol s
Ġcontrol lers
Val grind
ness us
Ġco in
Ġco at
Ġco oldown
Ġph al
Ġph ylog
directory Path
wh o
wh ales
Ġupd ater
utes And
ĠUn pack
ĠUn ique
ĠUn mut
ĠUn real
ĠUn zipping
ĠUn locker
Cont act
Cont ract
Cont ours
19 00
19 20
19 24
19 13
19 60
19 65
19 52
19 36
19 99
19 39
19 93
To ast
To To
To String
To Upper
To Tensor
To Small
To Orientation
des erial
des erialize
Ġtyp ical
Ġtyp ically
Ġtyp ename
Ġextract ive
aw ed
aw ay
aw Control
Ġthere by
Ġmem sum
ĠCre ation
ĠCre ative
ĠCre ighton
que Factor
pack ets
pack torange
miss pelled
Ġsk image
Ġsk ipping
Ġsk utebobo
Ġcustom ized
Ġcustom izes
Ġcustom Filter
Ġover wh
Ġover fit
Ġover hang
Ġover rides
Ġover ridden
loc s
co verage
co ords
ccess ful
Ġ~ /
iff el
Ġdesc uento
hotkey list
col ab
num Rows
num TimeSteps
Ġport list
Ġart work
Ġmet py
Ġmet ocean
ĠJSON DecodeError
ipp ery
Ġsa iled
ĠApp ending
ĠSc an
ĠX V
ĠX IV
ĠX AMPP
ĠX CTAssertEqual
ert aint
ans as
Ġmulti plies
ĠWh it
ĠWh ich
ie Py
Ġed s
Ġed it
Ġed ition
Ġed ited
Ġmain ly
Ġmain stream
Ġrel ies
Ġrel ates
String Method
sp otify
sp readsheet
reg ress
reg Session
join ed
Ġindex Path
Ġmay be
Ġmark s
Ġmark ing
Ġmark ets
Com pare
Com pose
Com parison
Com mentsCompletion
Gener ation
map Setup
Ġ8 2
Ġ8 5
Ġ8 6
Ġ8 8
Ġ8 765
ret ry
Ġpe ft
Ġno cturnal
Ġ6 6
Ġ6 9
Ġ6 6666
Ġ: ]
Ġind ication
ides how
ides pread
client s
AL TERE
Ġ'/ '
Ġ'/ ':
Ġpr imes
Ġstruct ural
De v
De queue
De ezer
De leted
Ġdist orted
Ġdist rict
Ġdist illed
Ġactiv ists
air crack
elen kam
ĠAutom ate
ĠAutom atic
Ġgame play
Ġcorrect ness
csv file
Ġ@ %
Ġcall able
gan ize
20 3
20 24
20 13
dat aloader
uff icient
Ġpop e
Ġpop ped
ĠCom pared
ĠCom puter
ĠCom pile
ĠCom pute
ĠCom odo
ĠCom icBook
Ġaccess Points
Ġfl ame
Ġfl ip
Ġfl ares
Ġreport ing
Ġclient s
Ġclient Id
Ġunder water
ST L
ST S
ST ATE
à¤¸à¤° à¤µà¤°
Ġpd r
Ġsmart phones
email s
ĠString Comparison
Ġengine er
Ġengine ers
ma e
Ġpack s
Ġpack ed
Ġpack aged
Ġworld wide
ĠAl k
ĠAl t
ĠAl an
ĠAl ong
ĠAl pha
ĠAl abama
ĠAl ibris
Ġshould ers
OL D
ah h
ĠAr gent
ĠAr chives
Ġ20 24
Ġenc rypting
acc ent
acc umulation
dis m
dis cret
Ġend points
Ġend orsed
Ġoptim al
Ġsym pathy
Ġge odes
Ġge ometry
Ġge ographical
ĠCl ub
ĠCl aims
ĠCl oning
parse Int
parse SelectionStatement
Ġsur prised
Ġtable t
Ġtable ts
Ġcontext manager
Ġatt itude
Ġhandle ModalClose
bin ance
ins ensitive
Ġsoc iet
Ġtem por
Ġrep ulsions
ĠMy Context
ĠMy Cache
ĠMy Meta
ĠFl int
ĠFl ip
Ġtop ography
Ġtop Anchor
ident ity
Ġyear ly
Ġtrack s
Ġsocket s
Ġ{} ,
16 29
rem e
rem oses
ĠInitial ized
ĠInitial izes
=" +
Ġpol ymers
Ġbre ach
Ġbre vity
files ystem
Sh ould
Sh arp
Sh outbox
Ġ! )
ush ion
Ġbot t
Ġhad n
oss ibilities
div ide
div ision
Ġmake file
Ġmake WebhookResult
iod ically
Ġsql parse
Ġview s
ĠNew ton
Ġupdate Table
Ġupdate Supply
Ġupdate LikeStatus
ps ycopg
sw ing
sw ap
Ġgen res
Ġgen ocide
Ġstatus Register
ĠDef inition
ĠDef raggler
Ġcalculate Main
Ġcalculate AverageScore
Ġcalculate Correlation
ale xa
oh ide
Ġbook ing
ĠSer geant
Ġexception al
Dis patch
Id From
Text Test
Text Task
Text Renderer
Text BetweenZLayers
fl ashed
fl amegpu
Ġaut ism
Ġaut istic
Ġaut oprefix
Ġaut otuningle
Ġcar s
Ġla ver
Ġnatural ly
à¤Ĩà¤īà¤Ł à¤¬
ĠGener ates
bol t
flow er
Ġcomp rom
Ġcomp etition
Ġcomp elling
Ġcomp ounds
Ġeven ings
CT ION
CT FBot
Se quenceFile
Se idel
Ġ100 0000
ology Id
Ad ded
Key word
Key Error
Key board
Search ing
Type Manager
cent age
cent ives
me al
me asures
source Node
Ġmiss ed
Ġmiss pelled
Ġdown loaded
status Code
Ġconstruct ive
Ġvirtual ization
Ġvirtual env
ĠRes olution
ĠRes uming
ĠRes olve
ĠRes olving
Ġpost ers
100 00
IN K
Log icException
Ġtarget View
Ġwater ing
ĠTrans actions
ĠTrans portation
Data AccessException
Data Generator
Ġcould n
ĠAss ist
ĠAss essment
ĠgTT s
Ġgroup ing
ĠSystem Care
opt ional
ĠRet ry
Object With
Rec ent
Rec ursion
Rec overy
SE O
SE EN
SE CAM
fe et
fe elings
Ġav owed
Ġpower up
Ġsupport ers
Get F
Get ting
Get Data
Get Value
Get Attribute
Get Default
Get Conversion
ĠZ ime
ĠZ any
ĠZ urich
ĠZ akheim
ĠID EA
ĠSQL map
ĠSQL Map
ĠDis able
ĠDis count
ĠDis order
ĠDis orders
ĠDis ney
Ġevent Handler
sm oke
sm oothing
sub string
sub plot
sub clone
sub views
sub scriptions
Ġver ifier
Ġver ifications
Ġgraph ic
Ġrest less
ĠWe ight
ĠWe ekly
ĠWe ighted
Ġgenerate HTMLTable
Ġgenerate MessageTable
Ġbreak ing
Ġurl join
Ġaccount ing
Ġaccount ed
Ġaccount Id
Ġsuccess es
Ġfre q
Ġfre ight
ĠFile Manager
ĠFile Allowed
ĠFile Zilla
ĠFile Maker
Not ifications
Not Dist
Not ImplementedError
Time periodEnum
UR ATION
Ġ9 1
Ġ9 2
Ġ9 5
Ġ9 000
index es
Ġsn ipping
Ġsn iffer
Ġnamed tuples
Ġgra ve
Ġgra ft
Ġgra des
Ġgra bb
Ġcons ent
Ġcons olid
Ġcons ensus
Ġprev ents
." *
User Data
User Options
User Report
User CreationForm
ber hak
doc uments
Ġcrypt o
Ġcrypt oj
Ġroot ing
filter ing
filter Formatter
For Condition
Res ume
TH ING
ĠText Clip
Ġdem ographic
"] /
"] [
At Index
med ium
Ġ7 2
Ġ7 00
Ġ7 000
Ġ7 52
Ġaw aits
Ġher d
update Mask
update LikeStatus
ĠVal uation
ĠVal grind
22 2
22 58
Ġprodu cer
Ġconnect ors
ĠUp coming
/') ))
={ {
create Account
create From
mod s
mod cma
stand alone
rack zip
ĠWeb root
ĠWeb Client
ĠWeb Application
ĠWeb ster
ĠTest FeatureUsageTracker
ĠTest imonials
ĠTest Suite
ĠTest Framework
ĠTest TcpService
ĠTest StringMethod
rome the
Ġenum s
Ġenum erations
Ġdesign s
Ġdesign ated
Ġnews paper
Generic Function
Ġec dsa
Ġcsv file
Ġcsv reader
Ġpress ed
Ġpoint y
Value Ex
Value Changed
11 4
cle Command
not ices
video file
ĠSe lect
ĠSe ven
ĠSe ason
Ġfeature d
Ġposition ing
Ġposition al
ivers al
ls usb
Ġq os
det atch
ĠHTTP Adapter
By Type
By Title
By Account
SV D
cat Setup
cat alog
cat kin
su it
ĠUser Admin
ĠUser Option
ĠUser Agent
ĠUser Profile
obj graph
AC S
AC CENT
Sp am
Sp qrMet
Sp inner
Ġscreen ing
valu ation
Qt Mult
gener al
gener ations
met ers
met allic
met ocean
rid ges
Ġdoc strings
ĠRem oteObjectsRecord
ĠRem bThrottler
Ġservice Type
Col a
Col lector
IM READ
Label Field
down loaded
Ġsyn onymous
Ġpract ition
Ġpract icing
Ġmusic ian
check er
check Write
check SubgraphInitialization
ĠReturn ing
UI View
hash cat
page Title
wall papers
Ġdynam odb
Un der
Un zip
Un installer
Un defined
Un real
Un expected
Un authorized
Un fortunately
Un mute
Un matched
Un closed
Un itySetup
Un iversal
Ġturn Limit
Ġtoken ize
ĠSh i
ĠSh ow
ĠSh util
ĠSh ari
ĠSh utting
ĠSh inzen
ĠSh areware
eak ing
resh ape
ĠAdd rcheck
Bot tled
Bot ConditionalEffectsManager
task list
omet rics
à¤ıà¤² à¤¡
Ġobjects ToRemove
Ġauthor ities
Ġauthor itative
Trans portState
land s
Ġhash ed
ĠData Pre
Ġevery body
Ġevery where
ĠHe alpy
ĠHe idi
Ġparse SelectionStatement
DE BU
ok u
Ġte ams
Ġà¤¸à¤° à¤µà¤°
Ġref lection
Ġref use
Ġref ined
Ġref used
Ġref usal
Ġref rigerated
ĠRun ge
ĠRun ner
Ġweek ends
Ġweek Number
Ġweek Year
ĠQu ick
Ġphys ically
Image Property
Image Filter
Image Differ
Ar rays
event ing
event Handler
Ġchange Log
Al so
Al ways
Al pha
Al terField
socket Consumer
Ġinf used
Ġ'- ')
ĠSo Co
head s
Ġbeh ave
Ġbeh aves
lower CaseSearch
Client Exception
Client DC
Ġmemb ership
Ġunderstand s
Ġident ification
Ġident ifiers
Ġident ifies
ĠTo Do
ĠTo ySGDEnv
Ġdeep ly
Ġdeep water
avi ra
Ġdisk s
Ġke pt
Ġinv olving
Ġinv olves
export Key
export edComponent
ĠCal endar
ĠIP s
Ġà¤Ĩà¤Ī à¤ķà¤¨
Ġrespon d
Ġrespon ds
Ġdevelopment al
Ġdepend ence
Valid ationError
Valid ationNotification
[: -
part icles
sa fari
Ġ? ?
Ġfac ed
Ġtimes eries
Ġrece ives
Ġrece iver
Ġproject ed
Ġexer cised
ĠInter lude
Ġsee ing
Ġtechn ically
Ġtechn ologies
Up ToDat
ade cimal
ced ented
md sched
Ġtr end
Ġtr inity
Ġtr immed
Ġtr agic
Ġtr uly
arm acology
Ġmed s
ĠPl ainText
ĠPl atypus
Ġ12 8
Ġmanip ulated
Ġmanip ulations
Ġhealth ier
Ġfeed ing
Sub scribe
Sub seq
Sub lime
ĠÂ £
ont ologyId
Ġair Brake
Ġter rarium
Ġday light
Ġexist ed
Ġdict ation
Ġown ership
Source UpToDat
device Owner
ĠLob by
ĠCont ents
ĠCont inental
RE D
RE E
RE CT
RE PL
RE US
RE VERT
Run Detail
Ġsuper view
lex er
Ġdid SelectItem
Ġhard est
extract ed
extract ComponentNames
Ġappl iances
Ġarea Radius
Ġplugin Object
Ġplugin Names
[] }
disk util
tra p
tra iling
Ġsep ia
Ġsize of
Ġdon ated
Ġnull ptr
ĠPar ents
Ġhost ing
ĠCor p
ĠCor pus
ĠCor bet
Ġ"$ (
Ġ"$ #"
ĠGet ters
ĠGet ServerSideProps
Ġmak ers
urric ane
Request Navigate
Ġupdated Declaration
IG NOR
Ġsound file
Ġbu oy
Ġhint ing
oper ator
200 4
66 55
AS H
AS L
HTML Parser
IP T
IP V
]] ]])
]] ]],
bit defender
}' ")
Ġast ropy
Ġcr ime
Ġcr aters
Ġcr iminal
Ġtri es
Ġtri angle
Ġtri umvir
Ġwin ners
ĠAs perger
Ġgrow isofs
comp ound
ĠBluetooth Socket
ĠNetwork Params
ĠOn tology
ĠOn Init
ĠOn tario
ĠExtract ed
ĠĠĠĠĠĠĠĠĠĠĠĠĠĠĠĠ ĠĠĠĠ
ĠĠĠĠĠĠĠĠĠĠĠĠĠĠĠĠ ĠĠĠĠĠĠĠĠĠĠĠĠĠĠĠĠĠĠĠĠĠĠĠ
Ġseconds InYear
78 98
Action Pairs
My Handler
My Class
My Bot
My SQL
My Directory
}) "
Ġcent ers
Ġcent uries
arp spoof
Ġlight fm
à¥Ī... )
script s
And Hash
And Validate
And Decode
And Assign
And Subscribe
Ġlocation Listener
Ġsepar ation
Table Name
Table Model
Table tMode
pop DF
Ġclean sed
(': ')
(': '))
Ġconvert FontFamily
Ġ16 1
Ġ16 5
Ġ16 88
ĠRec ogn
ĠRec order
ĠRec uva
Ġshort er
Ġshort en
Ġshort ages
Ġshort cuts
-------- -----
80 6
80 80
memory Total
memory Free
Ġid Generator
Ġshe ets
Ġpattern Width
('/ \
ĠDo jo
ĠLog Id
Inst alled
ĠIndi ans
Ġobj graph
Ġcontains TargetIngredient
14 1
No Auto
On ce
On Touch
On Gesture
Rem over
Rem oved
We ighted
batch er
gra b
gra des
gra dient
gra fted
Ġaverage Angle
Ġfit parse
Ġtool bar
ĠPh D
ĠPh oen
ĠPh armacology
quit ting
Ġstand s
Ġstand by
Ġprogress View
Ġprogress ively
Ġprogress Bar
ĠFunction al
ĠFunction Attribute
ĠLet ters
Ġimpro per
Ġimpro ves
Ġimpro perly
Ġmarketing cloud
Ġdocument ed
Ġdocument ation
13 5
13 7
Per fect
Per iodic
Per centage
Python Projects
}. ")
Ġprom oted
Ġmut ex
Ġmut ate
Ġmut able
Ġmut ability
Ġevalu ated
Account s
Play list
Play Music
Ġbit ter
Ġland mark
Ġland marks
Ġecho ey
Ġcomment ary
ĠGe ographic
ĠWork space
ĠWork station
default s
Ġrecogn izes
DI SM
UT F
With Property
With Logging
With Bi
fact ors
rand s
session Path
Ġsquare d
Ġpur ple
Ġpur ification
Ġmot ivated
ĠPol it
ĠPol ice
ĠRep resents
Ġadv ance
Ġtimeout Interval
Ġarch aic
[...]
