{
  "version": "1.0",
  "truncation": null,
  "padding": null,
  "added_tokens": [
    {
      "id": 0,
      "content": "<s>",
      "single_word": false,
      "lstrip": false,
      "rstrip": false,
      "normalized": false,
      "special": true
    },
    {
      "id": 1,
      "content": "<pad>",
      "single_word": false,
      "lstrip": false,
      "rstrip": false,
      "normalized": false,
      "special": true
    },
    {
      "id": 2,
      "content": "</s>",
      "single_word": false,
      "lstrip": false,
      "rstrip": false,
      "normalized": false,
      "special": true
    },
    {
      "id": 3,
      "content": "<unk>",
      "single_word": false,
      "lstrip": false,
      "rstrip": false,
      "normalized": false,
      "special": true
    },
    {
      "id": 4,
      "content": "<mask>",
      "single_word": false,
      "lstrip": false,
      "rstrip": false,
      "normalized": false,
      "special": true
    }
  ],
  "normalizer": null,
  "pre_tokenizer": {
    "type": "ByteLevel",
    "add_prefix_space": false,
    "trim_offsets": true,
    "use_regex": true
  },
  "post_processor": {
    "type": "ByteLevel",
    "add_prefix_space": true,
    "trim_offsets": false,
    "use_regex": true
  },
  "decoder": {
    "type": "ByteLevel",
    "add_prefix_space": true,
    "trim_offsets": true,
    "use_regex": true
  },
  "model": {
    "type": "BPE",
    "dropout": null,
    "unk_token": null,
    "continuing_subword_prefix": null,
    "end_of_word_suffix": null,
    "fuse_unk": false,
    "byte_fallback": false,
    "ignore_merges": false,
    "vocab": {
      "<s>": 0,
      "<pad>": 1,
      "</s>": 2,
      "<unk>": 3,
      "<mask>": 4,
      "!": 5,
      "\"": 6,
      "#": 7,
      "$": 8,
      "%": 9,
      "&": 10,
      "'": 11,
      "(": 12,
      ")": 13,
      "*": 14,
      "+": 15,
      ",": 16,
      "-": 17,
      ".": 18,
      "/": 19,
      "0": 20,
      "1": 21,
      "2": 22,
      "3": 23,
      "4": 24,
      "5": 25,
      "6": 26,
      "7": 27,
      "8": 28,
      "9": 29,
      ":": 30,
      ";": 31,
      "<": 32,
      "=": 33,
      ">": 34,
      "?": 35,
      "@": 36,
      "A": 37,
      "B": 38,
      "C": 39,
      "D": 40,
      "E": 41,
      "F": 42,
      "G": 43,
      "H": 44,
      "I": 45,
      "J": 46,
      "K": 47,
      "L": 48,
      "M": 49,
      "N": 50,
      "O": 51,
      "P": 52,
      "Q": 53,
      "R": 54,
      "S": 55,
      "T": 56,
      "U": 57,
      "V": 58,
      "W": 59,
      "X": 60,
      "Y": 61,
      "Z": 62,
      "[": 63,
      "\\": 64,
      "]": 65,
      "^": 66,
      "_": 67,
      "`": 68,
      "a": 69,
      "b": 70,
      "c": 71,
      "d": 72,
      "e": 73,
      "f": 74,
      "g": 75,
      "h": 76,
      "i": 77,
      "j": 78,
      "k": 79,
      "l": 80,
      "m": 81,
      "n": 82,
      "o": 83,
      "p": 84,
      "q": 85,
      "r": 86,
      "s": 87,
      "t": 88,
      "u": 89,
      "v": 90,
      "w": 91,
      "x": 92,
      "y": 93,
      "z": 94,
      "{": 95,
      "|": 96,
      "}": 97,
      "~": 98,
      "¡": 99,
      "¢": 100,
      "£": 101,
      "¤": 102,
      "¥": 103,
      "¦": 104,
      "§": 105,
      "¨": 106,
      "©": 107,
      "ª": 108,
      "«": 109,
      "¬": 110,
      "®": 111,
      "¯": 112,
      "°": 113,
      "±": 114,
      "²": 115,
      "³": 116,
      "´": 117,
      "µ": 118,
      "¶": 119,
      "·": 120,
      "¸": 121,
      "¹": 122,
      "º": 123,
      "»": 124,
      "¼": 125,
      "½": 126,
      "¾": 127,
      "¿": 128,
      "À": 129,
      "Á": 130,
      "Â": 131,
      "Ã": 132,
      "Ä": 133,
      "Å": 134,
      "Æ": 135,
      "Ç": 136,
      "È": 137,
      "É": 138,
      "Ê": 139,
      "Ë": 140,
      "Ì": 141,
      "Í": 142,
      "Î": 143,
      "Ï": 144,
      "Ð": 145,
      "Ñ": 146,
      "Ò": 147,
      "Ó": 148,
      "Ô": 149,
      "Õ": 150,
      "Ö": 151,
      "×": 152,
      "Ø": 153,
      "Ù": 154,
      "Ú": 155,
      "Û": 156,
      "Ü": 157,
      "Ý": 158,
      "Þ": 159,
      "ß": 160,
      "à": 161,
      "á": 162,
      "â": 163,
      "ã": 164,
      "ä": 165,
      "å": 166,
      "æ": 167,
      "ç": 168,
      "è": 169,
      "é": 170,
      "ê": 171,
      "ë": 172,
      "ì": 173,
      "í": 174,
      "î": 175,
      "ï": 176,
      "ð": 177,
      "ñ": 178,
      "ò": 179,
      "ó": 180,
      "ô": 181,
      "õ": 182,
      "ö": 183,
      "÷": 184,
      "ø": 185,
      "ù": 186,
      "ú": 187,
      "û": 188,
      "ü": 189,
      "ý": 190,
      "þ": 191,
      "ÿ": 192,
      "Ā": 193,
      "ā": 194,
      "Ă": 195,
      "ă": 196,
      "Ą": 197,
      "ą": 198,
      "Ć": 199,
      "ć": 200,
      "Ĉ": 201,
      "ĉ": 202,
      "Ċ": 203,
      "ċ": 204,
      "Č": 205,
      "č": 206,
      "Ď": 207,
      "ď": 208,
      "Đ": 209,
      "đ": 210,
      "Ē": 211,
      "ē": 212,
      "Ĕ": 213,
      "ĕ": 214,
      "Ė": 215,
      "ė": 216,
      "Ę": 217,
      "ę": 218,
      "Ě": 219,
      "ě": 220,
      "Ĝ": 221,
      "ĝ": 222,
      "Ğ": 223,
      "ğ": 224,
      "Ġ": 225,
      "ġ": 226,
      "Ģ": 227,
      "ģ": 228,
      "Ĥ": 229,
      "ĥ": 230,
      "Ħ": 231,
      "ħ": 232,
      "Ĩ": 233,
      "ĩ": 234,
      "Ī": 235,
      "ī": 236,
      "Ĭ": 237,
      "ĭ": 238,
      "Į": 239,
      "į": 240,
      "İ": 241,
      "ı": 242,
      "Ĳ": 243,
      "ĳ": 244,
      "Ĵ": 245,
      "ĵ": 246,
      "Ķ": 247,
      "ķ": 248,
      "ĸ": 249,
      "Ĺ": 250,
      "ĺ": 251,
      "Ļ": 252,
      "ļ": 253,
      "Ľ": 254,
      "ľ": 255,
      "Ŀ": 256,
      "ŀ": 257,
      "Ł": 258,
      "ł": 259,
      "Ń": 260,
      "à¤": 261,
      "à¥": 262,
      "Ġà¤": 263,
      "ĠĠ": 264,
      "à¤¾": 265,
      "in": 266,
      "th": 267,
      "à¥į": 268,
      "à¤°": 269,
      "on": 270,
      "à¥ĩ": 271,
      "Ġa": 272,
      "or": 273,
      "er": 274,
      "à¤Ĥ": 275,
      "à¤¿": 276,
      "Ġth": 277,
      "at": 278,
      "es": 279,
      "``": 280,
      "à¤ķ": 281,
      "ĠĠĠĠ": 282,
      "à¤²": 283,
      "en": 284,
      "Ġs": 285,
      "Ġthe": 286,
      "Ġà¤ķ": 287,
      "à¤¨": 288,
      "ing": 289,
      "Ġc": 290,
      "re": 291,
      "à¥ĭ": 292,
      "Ġf": 293,
      "ĠĠĠ": 294,
      "à¥Ģ": 295,
      "à¤¸": 296,
      "Ġt": 297,
      "à¤¤": 298,
      "le": 299,
      "à¤ª": 300,
      "Ġp": 301,
      "it": 302,
      "à¤¯": 303,
      "de": 304,
      "im": 305,
      "ro": 306,
      "an": 307,
      "ion": 308,
      "al": 309,
      "is": 310,
      "..": 311,
      "à¤Ł": 312,
      "à¥ĩà¤Ĥ": 313,
      "```": 314,
      "ar": 315,
      "à¤®": 316,
      "Ġà¤¸": 317,
      "Ġo": 318,
      "ct": 319,
      "à¤¹": 320,
      "Ġin": 321,
      "Ġ=": 322,
      "ut": 323,
      "Ġm": 324,
      "ed": 325,
      "Ġà¤ª": 326,
      "yth": 327,
      "ython": 328,
      "Ġw": 329,
      "Ġto": 330,
      "ic": 331,
      "ent": 332,
      "ur": 333,
      "us": 334,
      "Ġan": 335,
      "à¤Ĺ": 336,
      "à¥ģ": 337,
      "Ġd": 338,
      "ĠĊ": 339,
      "et": 340,
      "as": 341,
      "à¤¡": 342,
      "ort": 343,
      "om": 344,
      "à¤ı": 345,
      "ĠĠĠĠĠĠĠ": 346,
      "Ġfor": 347,
      "à¤¼": 348,
      "Ġb": 349,
      "à¤¦": 350,
      "imp": 351,
      "à¤µ": 352,
      "à¤ľ": 353,
      "Ġl": 354,
      "el": 355,
      "à¤ĩ": 356,
      "Ġre": 357,
      "am": 358,
      "un": 359,
      "import": 360,
      "ch": 361,
      "st": 362,
      "Ġof": 363,
      "à¤ļ": 364,
      "Ġand": 365,
      "à¥Ī": 366,
      "ow": 367,
      "...": 368,
      "Ġn": 369,
      "il": 370,
      "python": 371,
      "Ġ(": 372,
      "ĠP": 373,
      "ex": 374,
      "Ġh": 375,
      "ode": 376,
      "ag": 377,
      "ess": 378,
      "Ġà¤¹": 379,
      "Ġ'": 380,
      "Ġà¤¨": 381,
      "if": 382,
      "à¤¶": 383,
      "Ġ```": 384,
      "#-": 385,
      "ĠA": 386,
      "à¥Ĥ": 387,
      "ĠT": 388,
      "Ġà¤ķà¤°": 389,
      "Ġà¤²": 390,
      "ation": 391,
      "ate": 392,
      "à¤¬": 393,
      "')": 394,
      "ou": 395,
      "em": 396,
      "Ġus": 397,
      "à¤ģ": 398,
      "à¤ĩà¤²": 399,
      "Ġà¤«": 400,
      "à¤ĥ": 401,
      "ra": 402,
      "('": 403,
      "()": 404,
      "ol": 405,
      "ot": 406,
      "id": 407,
      "ce": 408,
      "ul": 409,
      "Ġà¤®": 410,
      "Ġy": 411,
      "#-#-": 412,
      "Ġg": 413,
      "ec": 414,
      "um": 415,
      "ad": 416,
      "ĠC": 417,
      "est": 418,
      "à¤¼à¤¾": 419,
      "ri": 420,
      "se": 421,
      "qu": 422,
      "int": 423,
      "ĠI": 424,
      "rit": 425,
      "Ġcode": 426,
      "à¤£": 427,
      "ction": 428,
      "ĠS": 429,
      "ist": 430,
      "Ġde": 431,
      "Ġà¤¬": 432,
      "Ġst": 433,
      "rom": 434,
      "à¤«": 435,
      "age": 436,
      "à¤ĸ": 437,
      "ile": 438,
      "ver": 439,
      "ĠD": 440,
      "à¤·": 441,
      "lo": 442,
      "ith": 443,
      "ĠPython": 444,
      "ame": 445,
      "',": 446,
      "Ġ{": 447,
      "Ġis": 448,
      "ment": 449,
      "Ġà¤°": 450,
      "ve": 451,
      "op": 452,
      "à¤¥": 453,
      "Ġ`": 454,
      "Ġà¤ľ": 455,
      "Ġas": 456,
      "à¥Ģà¤Ĥ": 457,
      "pp": 458,
      "ke": 459,
      "cess": 460,
      "ab": 461,
      "Ġpro": 462,
      "pt": 463,
      "ig": 464,
      "Ġv": 465,
      "Ġr": 466,
      "Ġyou": 467,
      "ib": 468,
      "Ġà¤ħ": 469,
      "ub": 470,
      "Writ": 471,
      "ext": 472,
      "od": 473,
      "Ġcon": 474,
      "urn": 475,
      "Ġà¤ļ": 476,
      "og": 477,
      "ter": 478,
      "ata": 479,
      "ck": 480,
      "Ġà¤µ": 481,
      "ea": 482,
      "Ġ(_": 483,
      "Ġà¤¨à¤¹": 484,
      "Ġon": 485,
      "Ġthat": 486,
      "and": 487,
      "ir": 488,
      "Ġret": 489,
      "Ġà¤¯": 490,
      "ay": 491,
      "Ġwith": 492,
      "à¤ħ": 493,
      "Ġà¤¦": 494,
      "):": 495,
      "ĠĠĠĠĠĠĠĠĠĠĠ": 496,
      "Ġreturn": 497,
      "à¤Ń": 498,
      "ew": 499,
      "ass": 500,
      "rint": 501,
      "à¤§": 502,
      "elf": 503,
      "ly": 504,
      "ht": 505,
      "he": 506,
      "ple": 507,
      "put": 508,
      "ect": 509,
      "Ġe": 510,
      "end": 511,
      "ime": 512,
      "Ġ1": 513,
      "iz": 514,
      "for": 515,
      "pl": 516,
      "ĠM": 517,
      "Ġif": 518,
      "Ġ\"": 519,
      "ĠF": 520,
      "Ġimport": 521,
      "à¤Ī": 522,
      "ĠR": 523,
      "ers": 524,
      "Ġà¤ĸ": 525,
      "ies": 526,
      "Ġcom": 527,
      "ĠE": 528,
      "pa": 529,
      "oun": 530,
      "from": 531,
      "ue": 532,
      "Ġit": 533,
      "Ġà¤ĩ": 534,
      "à¥ĩ.": 535,
      "up": 536,
      "//": 537,
      "com": 538,
      "Ġà¤ªà¤°": 539,
      "Ġusing": 540,
      "each": 541,
      "pro": 542,
      "ĠAI": 543,
      "ine": 544,
      "Ġ+": 545,
      "Ġex": 546,
      "our": 547,
      "ĠB": 548,
      "Ġà¤ı": 549,
      "à¤°à¤£": 550,
      "Ġ2": 551,
      "ser": 552,
      "Ġch": 553,
      "ord": 554,
      "ind": 555,
      "Ġal": 556,
      "Ġk": 557,
      "à¥ī": 558,
      "cl": 559,
      "Ġcan": 560,
      "unction": 561,
      "os": 562,
      "di": 563,
      "art": 564,
      "à¤²à¤Ĺ": 565,
      "à¤Ĩ": 566,
      "ĠL": 567,
      "ĠU": 568,
      "name": 569,
      "ip": 570,
      "now": 571,
      "ain": 572,
      "yp": 573,
      "ĠH": 574,
      "quest": 575,
      "Ġwe": 576,
      "Ġà¤Ĩ": 577,
      "ial": 578,
      "Ġwh": 579,
      "ap": 580,
      "ary": 581,
      "Ġdata": 582,
      "Ġuse": 583,
      "ĠN": 584,
      "Write": 585,
      "form": 586,
      "âĢ": 587,
      "ating": 588,
      "Ġbe": 589,
      "eacher": 590,
      "process": 591,
      "Ġfunction": 592,
      "ĠTeacher": 593,
      "ĠG": 594,
      "ult": 595,
      "per": 596,
      "Ġsp": 597,
      "#-#-#": 598,
      "#-#-#-#-#": 599,
      "à¤ªà¤°": 600,
      "Ġà¤°à¤¹": 601,
      "Ġres": 602,
      "à¤µà¤°": 603,
      "ĠWrit": 604,
      "ĠW": 605,
      "ĠWriting": 606,
      "lic": 607,
      "Ġknow": 608,
      "ide": 609,
      "ity": 610,
      "key": 611,
      "ome": 612,
      "Ġ}": 613,
      "']": 614,
      "Ġfile": 615,
      "get": 616,
      "Ġà¤Ĺ": 617,
      "ang": 618,
      "à¤¼à¥ĩà¤Ĥ": 619,
      "con": 620,
      "Ġme": 621,
      "Ġdef": 622,
      "to": 623,
      "Ġà¤¡": 624,
      "url": 625,
      "Ġapp": 626,
      "['": 627,
      "Ġor": 628,
      "ure": 629,
      "à¤¾à¤Ĥ": 630,
      "ail": 631,
      "res": 632,
      "Ġself": 633,
      "yst": 634,
      "Ġprint": 635,
      "iv": 636,
      "def": 637,
      "ount": 638,
      "ibr": 639,
      "ere": 640,
      "Ġfrom": 641,
      "str": 642,
      "ystem": 643,
      "pon": 644,
      "ĠO": 645,
      "__": 646,
      "pen": 647,
      "Ġ-": 648,
      "out": 649,
      "à¤Ľ": 650,
      "Ġle": 651,
      "ork": 652,
      "à¥ĥ": 653,
      "ĠThe": 654,
      "à¤¯à¤¨": 655,
      "à¤Łà¤°": 656,
      "Ġà¤¤": 657,
      "à¤ĩà¤¨": 658,
      "How": 659,
      "Ġen": 660,
      "ubprocess": 661,
      "oc": 662,
      "file": 663,
      "all": 664,
      "à¤ªà¤¯": 665,
      "Ġ#": 666,
      "ran": 667,
      "Ġcl": 668,
      "lement": 669,
      "Ġlibr": 670,
      "Ġma": 671,
      "à¤ł": 672,
      "ory": 673,
      "Ġman": 674,
      "ĠDid": 675,
      "able": 676,
      "In": 677,
      "Ġ#-#-#-#-#": 678,
      "text": 679,
      "ack": 680,
      "tp": 681,
      "à¤ľà¤¨": 682,
      "Ġ[": 683,
      "00": 684,
      "ep": 685,
      "'s": 686,
      "à¤ī": 687,
      "odel": 688,
      "Ġà¤ıà¤ķ": 689,
      "Ġsc": 690,
      "Ġnot": 691,
      "ug": 692,
      "ive": 693,
      "path": 694,
      "Ġà¤¶": 695,
      "ens": 696,
      "ire": 697,
      "lib": 698,
      "ry": 699,
      "Ġstr": 700,
      "row": 701,
      "Ġprocess": 702,
      "ition": 703,
      "Ġpo": 704,
      "image": 705,
      "ant": 706,
      "Ġare": 707,
      "ates": 708,
      "Ġdes": 709,
      "print": 710,
      "ated": 711,
      "Ġlist": 712,
      "ations": 713,
      "ice": 714,
      "ill": 715,
      "Ġà¤Ķ": 716,
      "val": 717,
      "Ġad": 718,
      "ample": 719,
      "thod": 720,
      "à¤¢": 721,
      "ror": 722,
      "self": 723,
      "Ġby": 724,
      "ear": 725,
      "ase": 726,
      "ĠIn": 727,
      "ther": 728,
      "ener": 729,
      "eck": 730,
      "Ġà¤Ķà¤°": 731,
      "Ġat": 732,
      "Ġ0": 733,
      "ress": 734,
      "own": 735,
      "utom": 736,
      "load": 737,
      "ac": 738,
      "reate": 739,
      "Ġà¤Ł": 740,
      "à¤°à¤¯": 741,
      "ave": 742,
      "data": 743,
      "Ġsh": 744,
      "))": 745,
      "ĠV": 746,
      "ution": 747,
      "Ġmethod": 748,
      "ject": 749,
      "Ġinput": 750,
      "Ġpl": 751,
      "ild": 752,
      "Ġà¤²à¤ķ": 753,
      "Ġcont": 754,
      "we": 755,
      "Ġspec": 756,
      "ning": 757,
      "à¤²à¤Ĺà¤ĩà¤¨": 758,
      "Ġà¤ī": 759,
      "ore": 760,
      "ĠIm": 761,
      "rans": 762,
      "Ġweb": 763,
      "ption": 764,
      "à¤¼à¥Ģ": 765,
      "http": 766,
      "ff": 767,
      "ld": 768,
      "oo": 769,
      "uct": 770,
      "://": 771,
      "Ġtime": 772,
      "av": 773,
      "Ġimp": 774,
      "Ġval": 775,
      "ize": 776,
      "Ġpy": 777,
      "ard": 778,
      "one": 779,
      "Ġrequest": 780,
      "umb": 781,
      "Ġnew": 782,
      "ike": 783,
      "top": 784,
      "Ġper": 785,
      "ance": 786,
      "nome": 787,
      "ical": 788,
      "ust": 789,
      "Ġar": 790,
      "Ġà¤¸à¤®": 791,
      "Ġspecif": 792,
      "Ġos": 793,
      "ype": 794,
      "act": 795,
      "ponse": 796,
      "à¤¦à¤²": 797,
      "util": 798,
      "ost": 799,
      "te": 800,
      "ient": 801,
      "ft": 802,
      "ph": 803,
      "ix": 804,
      "son": 805,
      "ui": 806,
      "Ġmanag": 807,
      "ys": 808,
      "Ġ//": 809,
      "run": 810,
      "Ġj": 811,
      "Ġthis": 812,
      "ting": 813,
      "Ġall": 814,
      "Ġx": 815,
      "Ġ3": 816,
      "read": 817,
      "Ġlog": 818,
      "ous": 819,
      "Ġà¤¯à¤¹": 820,
      "Ġlike": 821,
      "essage": 822,
      ");": 823,
      "ĠTh": 824,
      "ktop": 825,
      "ask": 826,
      "à¤¨à¤¹": 827,
      "Ġ*": 828,
      "Ġun": 829,
      "Ġclass": 830,
      "ace": 831,
      "app": 832,
      "vel": 833,
      "Ġà¤Ľ": 834,
      "à¤Ĺà¤²": 835,
      "ĠEx": 836,
      "':": 837,
      "work": 838,
      "urr": 839,
      "='": 840,
      "time": 841,
      "Ġtra": 842,
      "ator": 843,
      "ows": 844,
      "Ġhi": 845,
      "Ġopen": 846,
      "Ġà¤ħà¤¨": 847,
      "Ġà¤°à¤ĸ": 848,
      "ied": 849,
      "à¤¾à¤ģ": 850,
      "Ġup": 851,
      "enc": 852,
      "Ġpar": 853,
      "olution": 854,
      "à¤¿à¤Ĥ": 855,
      "Ġse": 856,
      "sh": 857,
      "tr": 858,
      "ell": 859,
      "\\\\": 860,
      "ual": 861,
      "Ġtext": 862,
      "ign": 863,
      "The": 864,
      "Ġ==": 865,
      "Ġrequests": 866,
      "Ġfil": 867,
      "are": 868,
      "Ġac": 869,
      "der": 870,
      "ents": 871,
      "Ġem": 872,
      "à¤¶à¤¨": 873,
      "aries": 874,
      "ock": 875,
      "word": 876,
      "Ġà¤ļà¤¯à¤¨": 877,
      "Ġcomm": 878,
      "ight": 879,
      "Ġimplement": 880,
      "https": 881,
      "à¥ĭà¤Ĥ": 882,
      "Ġel": 883,
      "sc": 884,
      "Ġ<": 885,
      "An": 886,
      "par": 887,
      "à¤«à¤²": 888,
      "Con": 889,
      "Ġautom": 890,
      "Ġsubprocess": 891,
      "Ġdis": 892,
      "py": 893,
      "Ġsystem": 894,
      "class": 895,
      "cul": 896,
      "'])": 897,
      "plement": 898,
      "ownload": 899,
      "ud": 900,
      "iew": 901,
      "ĠĠĠĠĠĠĠĠĠĠĠĠĠĠĠ": 902,
      "rol": 903,
      "ite": 904,
      "::": 905,
      "ak": 906,
      "aut": 907,
      "ge": 908,
      "ule": 909,
      "En": 910,
      "à¤ķà¤°à¤£": 911,
      "ĠJ": 912,
      "ract": 913,
      "Ġset": 914,
      "à¤¤à¤°": 915,
      "à¤ıà¤ķ": 916,
      "bo": 917,
      "(\"": 918,
      "PI": 919,
      "à¥Į": 920,
      "ence": 921,
      "Ġdesktop": 922,
      "Ġpre": 923,
      "Ġob": 924,
      "Ġadd": 925,
      "Ġsu": 926,
      "ling": 927,
      "Ġà¤¸à¤ķ": 928,
      "Ġqu": 929,
      "atch": 930,
      "Ġmodel": 931,
      "ublic": 932,
      "Ġlibraries": 933,
      "(['": 934,
      "Ġprov": 935,
      "dio": 936,
      "uild": 937,
      "à¤¹à¤²": 938,
      "ute": 939,
      "Ġser": 940,
      "ogui": 941,
      "autogui": 942,
      "yn": 943,
      "etwork": 944,
      "jut": 945,
      "port": 946,
      "vers": 947,
      "ON": 948,
      "ound": 949,
      "fig": 950,
      "\")": 951,
      "\",": 952,
      "ob": 953,
      "juta": 954,
      "ash": 955,
      "Ġlibrary": 956,
      "rue": 957,
      "à¤¨à¤¯": 958,
      "ĠImplement": 959,
      "rect": 960,
      "ded": 961,
      "])": 962,
      "rowser": 963,
      "alcul": 964,
      "ath": 965,
      "Ġne": 966,
      "Ġint": 967,
      "Ġro": 968,
      "Ġmod": 969,
      "Ġanal": 970,
      "Ġhe": 971,
      "ĠAn": 972,
      "Ġdat": 973,
      "AI": 974,
      "EA": 975,
      "tri": 976,
      "Ġsolution": 977,
      "list": 978,
      "fer": 979,
      "request": 980,
      "subprocess": 981,
      "ww": 982,
      "ast": 983,
      "ange": 984,
      "umber": 985,
      "ia": 986,
      "Ġhave": 987,
      "count": 988,
      "Ġà¤ªà¤¤": 989,
      "gnome": 990,
      "led": 991,
      "ased": 992,
      "udio": 993,
      "à¥ĩà¤Ĥ.": 994,
      "set": 995,
      "earch": 996,
      "itor": 997,
      "ms": 998,
      "à¤¯à¤¤": 999,
      "rite": 1000,
      "Ġà¤Ĩà¤ª": 1001,
      "oup": 1002,
      "Ġhand": 1003,
      "à¤°à¤ķ": 1004,
      "ts": 1005,
      "Ġmanaging": 1006,
      "Ġi": 1007,
      "Ġà¤ķà¤®": 1008,
      "ich": 1009,
      "à¥Īà¤Ĥ": 1010,
      "ĠCh": 1011,
      "Ġà¤µà¤°": 1012,
      "urrent": 1013,
      "error": 1014,
      "ices": 1015,
      "âĢĻ": 1016,
      "Ġkey": 1017,
      "Ġimage": 1018,
      "à¥Ĥà¤Ĥ": 1019,
      "Ġuser": 1020,
      "indows": 1021,
      "itle": 1022,
      "imul": 1023,
      "Ġwill": 1024,
      "ook": 1025,
      "low": 1026,
      "ould": 1027,
      "Ġapplic": 1028,
      "olum": 1029,
      "Ġcheck": 1030,
      "Ġcreate": 1031,
      "uth": 1032,
      "Ġout": 1033,
      "à¤Ĺà¤°": 1034,
      "Ġstring": 1035,
      "ĠK": 1036,
      "Ġà¤¹à¤Ł": 1037,
      "à¤ģ.": 1038,
      "rain": 1039,
      "Ġà¤¸à¤¹": 1040,
      "à¤ĩà¤¸": 1041,
      "Ġyour": 1042,
      "ake": 1043,
      "gr": 1044,
      "ER": 1045,
      "Ġwas": 1046,
      "river": 1047,
      "ript": 1048,
      "user": 1049,
      "Ġrec": 1050,
      "ages": 1051,
      ").": 1052,
      "so": 1053,
      "rig": 1054,
      "à¤ķà¤²": 1055,
      "Ġname": 1056,
      "irect": 1057,
      "Ġpyautogui": 1058,
      "}')": 1059,
      "ions": 1060,
      "ari": 1061,
      "abel": 1062,
      "Ġelse": 1063,
      "Ġperform": 1064,
      "rror": 1065,
      "Ġext": 1066,
      "ray": 1067,
      "ĠIt": 1068,
      "comm": 1069,
      "Ġ5": 1070,
      "à¤¡à¤°": 1071,
      "Ex": 1072,
      "example": 1073,
      "ource": 1074,
      "ĠThis": 1075,
      "EAD": 1076,
      "Ġà¤¬à¤¦à¤²": 1077,
      "Ġ/": 1078,
      "ĠCon": 1079,
      "iss": 1080,
      "vice": 1081,
      "Ġwhich": 1082,
      "Ġnetwork": 1083,
      "Ġget": 1084,
      "ml": 1085,
      "à¤¸à¤Ń": 1086,
      "vent": 1087,
      "ise": 1088,
      "velop": 1089,
      "inal": 1090,
      "Ġoper": 1091,
      "Ġdo": 1092,
      "Ġlogic": 1093,
      "Ġhere": 1094,
      "urllib": 1095,
      "Ġà¤Ń": 1096,
      "ĠHEAD": 1097,
      "Ġdi": 1098,
      "ideo": 1099,
      "eld": 1100,
      "Ġreal": 1101,
      "ĠAd": 1102,
      "with": 1103,
      "ĠâĢ": 1104,
      "Ġtrans": 1105,
      "root": 1106,
      "ctions": 1107,
      "ov": 1108,
      "date": 1109,
      "Ġdirect": 1110,
      "ĠQ": 1111,
      "à¤¾à¤ĥ": 1112,
      "Ġinter": 1113,
      "Ġvalue": 1114,
      "ler": 1115,
      "les": 1116,
      "lect": 1117,
      "ics": 1118,
      "--": 1119,
      "Ġ4": 1120,
      "Ġspecified": 1121,
      "typ": 1122,
      "à¤¸à¤¬": 1123,
      "à¤ªà¤¸": 1124,
      "start": 1125,
      "add": 1126,
      "ink": 1127,
      "Ġà¤¸à¤Ń": 1128,
      "Ġresult": 1129,
      "browser": 1130,
      "à¤ıà¤¸": 1131,
      "à¤ļà¤¯à¤¨": 1132,
      "tk": 1133,
      "aus": 1134,
      "Ġbased": 1135,
      "itial": 1136,
      "Ġprovide": 1137,
      "Ġthen": 1138,
      "à¤¸à¤¨": 1139,
      "ken": 1140,
      "ark": 1141,
      "arning": 1142,
      "Ġfiles": 1143,
      "ature": 1144,
      "Ġgener": 1145,
      "irst": 1146,
      "à¤¹à¤°": 1147,
      "raph": 1148,
      "Ġresponse": 1149,
      "Ġapplication": 1150,
      "Error": 1151,
      "Ġerror": 1152,
      "ree": 1153,
      "Ġreturns": 1154,
      "à¤¸à¤®": 1155,
      "ural": 1156,
      "ery": 1157,
      "à¤ħà¤¨": 1158,
      "assword": 1159,
      "ĠWindows": 1160,
      "hot": 1161,
      "Ġab": 1162,
      "à¤ļà¤¨": 1163,
      "Ġà¤ķà¤°à¤¨": 1164,
      "right": 1165,
      "Ġso": 1166,
      "Ġmy": 1167,
      "Ġform": 1168,
      "value": 1169,
      "duct": 1170,
      "igh": 1171,
      "ugh": 1172,
      "ues": 1173,
      "à¤ķà¤®": 1174,
      "Ġbut": 1175,
      "ception": 1176,
      "Ġsm": 1177,
      "ogn": 1178,
      "TT": 1179,
      "input": 1180,
      "Ġact": 1181,
      "Ġtheir": 1182,
      "ech": 1183,
      "à¤ķà¤°": 1184,
      "open": 1185,
      "Ġà¤¦à¤¹à¤²": 1186,
      "play": 1187,
      "pre": 1188,
      "Ġmore": 1189,
      "Ġmessage": 1190,
      "Ġobject": 1191,
      "io": 1192,
      "Ġtype": 1193,
      "exe": 1194,
      "Th": 1195,
      "à¤°à¤µ": 1196,
      "Ġcre": 1197,
      "ish": 1198,
      "():": 1199,
      "ĠDe": 1200,
      "log": 1201,
      "ong": 1202,
      "à¤¹à¤Ł": 1203,
      "riv": 1204,
      "ield": 1205,
      "ater": 1206,
      "df": 1207,
      "json": 1208,
      "system": 1209,
      "onstr": 1210,
      "Ġcount": 1211,
      "Ġword": 1212,
      "Ġwork": 1213,
      "Ġhas": 1214,
      "ne": 1215,
      "à¤¥à¤¨": 1216,
      "Anjuta": 1217,
      "olume": 1218,
      "Set": 1219,
      "à¤¬à¤¦à¤²": 1220,
      "pe": 1221,
      "Ġ__": 1222,
      "Ġcor": 1223,
      "ĠSt": 1224,
      "Ġcommand": 1225,
      "po": 1226,
      "ss": 1227,
      "dex": 1228,
      "press": 1229,
      "Ġ')": 1230,
      "tring": 1231,
      "),": 1232,
      "model": 1233,
      "à¤¨à¤²": 1234,
      "ities": 1235,
      "arg": 1236,
      "Ġbuild": 1237,
      "ization": 1238,
      "response": 1239,
      "ello": 1240,
      "ecut": 1241,
      "Ġ->": 1242,
      "Enter": 1243,
      "driver": 1244,
      "fil": 1245,
      "ove": 1246,
      "Ġtest": 1247,
      "Ġused": 1248,
      "api": 1249,
      "Ġpublic": 1250,
      "ysis": 1251,
      "ach": 1252,
      "ged": 1253,
      "Ġ$": 1254,
      "ĠList": 1255,
      "Ġcurrent": 1256,
      "à¥ģà¤ģ": 1257,
      "Ġà¤¬à¤¨": 1258,
      "Ġprovided": 1259,
      "ĠIf": 1260,
      "lock": 1261,
      "vir": 1262,
      "ware": 1263,
      "atter": 1264,
      "eng": 1265,
      "und": 1266,
      "Re": 1267,
      "Ġother": 1268,
      "Ġstate": 1269,
      "Ġcol": 1270,
      "Ġinto": 1271,
      "Ġread": 1272,
      "eve": 1273,
      "atus": 1274,
      "rough": 1275,
      "Ġspecific": 1276,
      "ative": 1277,
      "à¥ĩà¤Ĥà¤ĥ": 1278,
      "Ġnumber": 1279,
      "older": 1280,
      "gor": 1281,
      "erform": 1282,
      "ames": 1283,
      "net": 1284,
      "Ġanalysis": 1285,
      "ax": 1286,
      "vices": 1287,
      "init": 1288,
      "à¤²à¤¬": 1289,
      "à¤¨à¤ķ": 1290,
      "Ġreg": 1291,
      "cept": 1292,
      "Ġgo": 1293,
      "Ġvo": 1294,
      "ĠRe": 1295,
      "du": 1296,
      "onitor": 1297,
      "Ġà¤¸à¤¤": 1298,
      "ures": 1299,
      "ocket": 1300,
      "Ġmodule": 1301,
      "mail": 1302,
      "ower": 1303,
      "ify": 1304,
      "old": 1305,
      "cont": 1306,
      "string": 1307,
      "plit": 1308,
      "Ġra": 1309,
      "ĠĠĠĠĠĠĠĠ": 1310,
      "Ġà¤¬à¤Ĺà¤²": 1311,
      "Soup": 1312,
      "code": 1313,
      "lay": 1314,
      "line": 1315,
      "nect": 1316,
      "Ġsimul": 1317,
      "ick": 1318,
      "ments": 1319,
      "dict": 1320,
      "**": 1321,
      "],": 1322,
      "ble": 1323,
      "web": 1324,
      "Ġà¤¢": 1325,
      "Ġthrough": 1326,
      "Ġcalcul": 1327,
      "ement": 1328,
      "Ġemail": 1329,
      "ude": 1330,
      "Ġeach": 1331,
      "ond": 1332,
      "Ġsub": 1333,
      "à¤¸à¤ķ": 1334,
      "à¤¦à¤¶": 1335,
      "andom": 1336,
      "gram": 1337,
      "lear": 1338,
      "Ġrange": 1339,
      "à¤ªà¤¹": 1340,
      "anc": 1341,
      "Ġelement": 1342,
      "Ġmax": 1343,
      "ensor": 1344,
      "Ch": 1345,
      "fo": 1346,
      "als": 1347,
      "à¤Łà¤¨": 1348,
      "iful": 1349,
      "Ġvari": 1350,
      ".')": 1351,
      "rec": 1352,
      "utiful": 1353,
      "etime": 1354,
      "eautiful": 1355,
      "Ġautomating": 1356,
      "Pro": 1357,
      "lu": 1358,
      "ym": 1359,
      "Ġ>": 1360,
      "ĠY": 1361,
      "Ġfe": 1362,
      "arch": 1363,
      "ĠAPI": 1364,
      "à¤¸à¤¬à¤µà¤°": 1365,
      "Ġim": 1366,
      "Ġcv": 1367,
      "ustom": 1368,
      "SI": 1369,
      "new": 1370,
      "Ġfirst": 1371,
      "Ġdif": 1372,
      "à¤¼à¤¿": 1373,
      "à¤µà¤¨": 1374,
      "ely": 1375,
      "Ġdevelop": 1376,
      "Ġass": 1377,
      "gorith": 1378,
      "St": 1379,
      "apt": 1380,
      "mp": 1381,
      "à¤°à¤¤": 1382,
      "à¤¸à¤«à¤²": 1383,
      "à¤ªà¤¨": 1384,
      "Ġlearning": 1385,
      "Ġone": 1386,
      "eautifulSoup": 1387,
      "10": 1388,
      "RL": 1389,
      "fter": 1390,
      "Ġeff": 1391,
      "ton": 1392,
      "xt": 1393,
      "Ġz": 1394,
      "à¥Ģà¤ĥ": 1395,
      "à¤¤à¤®": 1396,
      "Ġnum": 1397,
      "Ġcomput": 1398,
      "face": 1399,
      "Ġpart": 1400,
      "Ġmin": 1401,
      "ized": 1402,
      "ĠBeautifulSoup": 1403,
      "Ġjson": 1404,
      "sv": 1405,
      "Ġrun": 1406,
      "Ġà¤ħà¤ķ": 1407,
      "Ġinst": 1408,
      "à¤¦à¤ķ": 1409,
      "Ġà¤®à¤¦": 1410,
      "Ġà¤µà¤¸": 1411,
      "Ġà¤ĺ": 1412,
      "à¤°à¤¬": 1413,
      "urs": 1414,
      "à¥Ī.": 1415,
      "ĠPerform": 1416,
      "direct": 1417,
      "onstrates": 1418,
      "ron": 1419,
      "test": 1420,
      "yz": 1421,
      "Ġnp": 1422,
      "quire": 1423,
      "âĢĿ": 1424,
      "dition": 1425,
      "title": 1426,
      "ines": 1427,
      "Ġag": 1428,
      "Ġplay": 1429,
      "Ġdirectory": 1430,
      "à¤¯à¤°": 1431,
      "Ġ10": 1432,
      "ĠOpen": 1433,
      "main": 1434,
      "rame": 1435,
      "à¤¬à¤Ĺà¤°": 1436,
      "Ġdet": 1437,
      "trib": 1438,
      "à¤µà¤¤": 1439,
      "Ġà¤īà¤ªà¤¯": 1440,
      "anag": 1441,
      "alse": 1442,
      "();": 1443,
      "Ġstd": 1444,
      "Ġev": 1445,
      "Ġalgorith": 1446,
      "viron": 1447,
      "à¤¾.": 1448,
      "orm": 1449,
      "Ġgnome": 1450,
      "ense": 1451,
      "Ġpath": 1452,
      "à¤¦à¤°": 1453,
      "().": 1454,
      "very": 1455,
      "Ġwhen": 1456,
      "orld": 1457,
      "item": 1458,
      "Ġany": 1459,
      "Ġbo": 1460,
      "html": 1461,
      "Ġ19": 1462,
      "ĠUse": 1463,
      "File": 1464,
      "my": 1465,
      "à¤īà¤ªà¤¯": 1466,
      "12": 1467,
      "OS": 1468,
      "type": 1469,
      "isk": 1470,
      "uration": 1471,
      "Ġback": 1472,
      "jo": 1473,
      "Ġfound": 1474,
      "Ġtk": 1475,
      "ĠTrue": 1476,
      "ctionary": 1477,
      "Ġà¤ļà¤²": 1478,
      "à¤«à¤²à¤ķ": 1479,
      "Ġdatetime": 1480,
      "cre": 1481,
      "Ġsome": 1482,
      "Ġstart": 1483,
      "ĠEn": 1484,
      "ecuting": 1485,
      "tal": 1486,
      "win": 1487,
      "Ġexample": 1488,
      "à¤Ĩà¤Ī": 1489,
      "www": 1490,
      "List": 1491,
      "inter": 1492,
      "bot": 1493,
      "Ġlang": 1494,
      "ific": 1495,
      "ava": 1496,
      "arget": 1497,
      "uring": 1498,
      "ency": 1499,
      "tem": 1500,
      "Ġbet": 1501,
      "unc": 1502,
      "Ġhow": 1503,
      "Ġà¤¦à¤¸": 1504,
      "Ġlet": 1505,
      "ĠVER": 1506,
      "message": 1507,
      "ann": 1508,
      "Ġhis": 1509,
      "vert": 1510,
      "ĠDem": 1511,
      "rypt": 1512,
      "SION": 1513,
      "ĠVERSION": 1514,
      "([": 1515,
      "pr": 1516,
      "sum": 1517,
      "à¤ĵ": 1518,
      "amet": 1519,
      "à¤ħà¤¤": 1520,
      "ĠNone": 1521,
      "umbers": 1522,
      "ĠExecuting": 1523,
      "ful": 1524,
      "sing": 1525,
      "Ġà¤¨à¤¯": 1526,
      "loat": 1527,
      "Ġà¤ħà¤§": 1528,
      "Hello": 1529,
      "à¤ªà¤£": 1530,
      "lob": 1531,
      "à¤¤à¤¨": 1532,
      "Ġps": 1533,
      "Ġlo": 1534,
      "Ġvideo": 1535,
      "Ġalso": 1536,
      "Ġwho": 1537,
      "Ġscript": 1538,
      "valid": 1539,
      "CV": 1540,
      "txt": 1541,
      "à¤²à¤¨": 1542,
      "Ġsec": 1543,
      "à¤¼à¥ī": 1544,
      "izer": 1545,
      "Ġà¤Ĺà¤¯": 1546,
      "result": 1547,
      "__(": 1548,
      "rivate": 1549,
      "eb": 1550,
      "ese": 1551,
      "roup": 1552,
      "à¤·à¤®": 1553,
      "pty": 1554,
      "Ġitem": 1555,
      "Cl": 1556,
      "tts": 1557,
      "Ġwere": 1558,
      "Ġrequire": 1559,
      "ĠPro": 1560,
      "rib": 1561,
      "à¤·à¤ķ": 1562,
      "opy": 1563,
      "Ġwebbrowser": 1564,
      "board": 1565,
      "send": 1566,
      "enter": 1567,
      "Ġvis": 1568,
      "ically": 1569,
      "Sc": 1570,
      "ault": 1571,
      "left": 1572,
      "Ġrem": 1573,
      "ging": 1574,
      "its": 1575,
      "Ġusage": 1576,
      "à¤£à¤¨": 1577,
      "ogle": 1578,
      "Ġcomple": 1579,
      "ors": 1580,
      "à¤·à¤°": 1581,
      "pace": 1582,
      "ause": 1583,
      "gedit": 1584,
      "ĠDemonstrates": 1585,
      "Fix": 1586,
      "NT": 1587,
      "à¤ķà¤ª": 1588,
      "Ġtask": 1589,
      "min": 1590,
      "inu": 1591,
      "à¤Ĩà¤°": 1592,
      "vironment": 1593,
      "find": 1594,
      "ious": 1595,
      "split": 1596,
      "Ġtotal": 1597,
      "search": 1598,
      "Ġdep": 1599,
      "abase": 1600,
      "abling": 1601,
      "à¤ħà¤ª": 1602,
      "ected": 1603,
      "Ġ200": 1604,
      "ĠURL": 1605,
      "ulti": 1606,
      "ync": 1607,
      "iment": 1608,
      "edia": 1609,
      "Ġits": 1610,
      "ognition": 1611,
      "anager": 1612,
      "trans": 1613,
      "Ġ_": 1614,
      "à¤ļà¤²": 1615,
      "Ġgiv": 1616,
      "order": 1617,
      "token": 1618,
      "struct": 1619,
      "ftware": 1620,
      "append": 1621,
      "Ġserver": 1622,
      "\":": 1623,
      "ql": 1624,
      "Ġsum": 1625,
      "Ġtw": 1626,
      "Ġloc": 1627,
      "ched": 1628,
      "ĠImage": 1629,
      "Ġà¤Ī": 1630,
      "Ġam": 1631,
      "Ġline": 1632,
      "Ġdictionary": 1633,
      "ping": 1634,
      "Ġthey": 1635,
      "Ġpos": 1636,
      "Ġdec": 1637,
      "ewrite": 1638,
      "ding": 1639,
      "sed": 1640,
      "Ġsign": 1641,
      "retri": 1642,
      "Ġà¤ªà¤Ł": 1643,
      "())": 1644,
      "ends": 1645,
      "pert": 1646,
      "Ġsupp": 1647,
      "Download": 1648,
      "back": 1649,
      "cc": 1650,
      "ik": 1651,
      "Ġ&": 1652,
      "Ġurllib": 1653,
      "à¤¦à¤¸": 1654,
      "ĠPy": 1655,
      "à¤Ľà¤²": 1656,
      "Ġvalid": 1657,
      "Ġopening": 1658,
      "à¤¯à¤¤à¤¨": 1659,
      "retrieve": 1660,
      "`.": 1661,
      "ium": 1662,
      "Ġaudio": 1663,
      "Ġsent": 1664,
      "à¤Łà¤®": 1665,
      "à¤Ĺà¤®": 1666,
      "olog": 1667,
      "plot": 1668,
      "typewrite": 1669,
      "View": 1670,
      "atic": 1671,
      "à¤¦à¤¨": 1672,
      "Ġà¤ħà¤¤": 1673,
      "Ġconst": 1674,
      "antum": 1675,
      "box": 1676,
      "Ġdiffer": 1677,
      "uage": 1678,
      "view": 1679,
      "ĠâĢľ": 1680,
      "Ġabout": 1681,
      "SON": 1682,
      "ood": 1683,
      "alled": 1684,
      "ays": 1685,
      "Ġiter": 1686,
      "Ġbeen": 1687,
      "Ġarg": 1688,
      "ownloading": 1689,
      "dir": 1690,
      "ier": 1691,
      "etch": 1692,
      "Ġprogram": 1693,
      "ptim": 1694,
      "à¤§à¤ķ": 1695,
      "server": 1696,
      "formation": 1697,
      "Ġcontrol": 1698,
      "Val": 1699,
      "ness": 1700,
      "Ġco": 1701,
      "Ġtak": 1702,
      "Ġph": 1703,
      "ender": 1704,
      "Ġcontent": 1705,
      "directory": 1706,
      "ML": 1707,
      "ces": 1708,
      "wh": 1709,
      "Ġincl": 1710,
      "Ġupd": 1711,
      "version": 1712,
      "ll": 1713,
      "leep": 1714,
      "utes": 1715,
      "Ġproduct": 1716,
      "ĠUn": 1717,
      "Cont": 1718,
      "Ġgiven": 1719,
      "19": 1720,
      "To": 1721,
      "des": 1722,
      "cho": 1723,
      "ĠDownloading": 1724,
      "keys": 1725,
      "Setup": 1726,
      "Name": 1727,
      "action": 1728,
      "train": 1729,
      "à¤¯à¤ķ": 1730,
      "à¤ĩà¤Ł": 1731,
      "Ġmethods": 1732,
      "Ġautomate": 1733,
      "Ġpsutil": 1734,
      "True": 1735,
      "password": 1736,
      "Ġthan": 1737,
      "à¤ķà¤Ł": 1738,
      "Ġtyp": 1739,
      "Ġbec": 1740,
      "Ġstud": 1741,
      "urlretrieve": 1742,
      "Ġextract": 1743,
      "Ġformat": 1744,
      "aw": 1745,
      "ek": 1746,
      "ted": 1747,
      "Ġthere": 1748,
      "à¤ķà¤¨": 1749,
      "ename": 1750,
      "ane": 1751,
      "Ġinitial": 1752,
      "Ġmem": 1753,
      "ĠCre": 1754,
      "que": 1755,
      "andas": 1756,
      "pack": 1757,
      "Ġsetting": 1758,
      "miss": 1759,
      "Ġsk": 1760,
      "Ġcustom": 1761,
      "à¤ªà¤ķà¤°à¤£": 1762,
      "Ġover": 1763,
      "ecute": 1764,
      "loc": 1765,
      "à¤§à¤¨": 1766,
      "à¤īà¤Ł": 1767,
      "auth": 1768,
      "co": 1769,
      "ccess": 1770,
      "ey": 1771,
      "gine": 1772,
      "Ġ~": 1773,
      "inst": 1774,
      "à¤ªà¤¤": 1775,
      "imple": 1776,
      "Ġoff": 1777,
      "iff": 1778,
      "Ġdesc": 1779,
      "ĠCheck": 1780,
      "hotkey": 1781,
      "col": 1782,
      "num": 1783,
      "qr": 1784,
      "Ġafter": 1785,
      "à¤ķà¤¡": 1786,
      "Ġport": 1787,
      "ility": 1788,
      "ription": 1789,
      "Ġart": 1790,
      "ĠAnjuta": 1791,
      "This": 1792,
      "ger": 1793,
      "Ġthem": 1794,
      "lean": 1795,
      "Ġmet": 1796,
      "ĠJSON": 1797,
      "Ġeffect": 1798,
      "place": 1799,
      "username": 1800,
      ":%": 1801,
      "round": 1802,
      "à¥ģà¤Ĥ": 1803,
      "ular": 1804,
      "à¤·à¤£": 1805,
      "Ġcontain": 1806,
      "Open": 1807,
      "ipp": 1808,
      "Ġsa": 1809,
      "ings": 1810,
      "red": 1811,
      "ĠApp": 1812,
      "ĠSc": 1813,
      "à¤Ĩà¤¯": 1814,
      "Ġà¤¸à¤®à¤°": 1815,
      "point": 1816,
      "by": 1817,
      "label": 1818,
      "tual": 1819,
      "ĠX": 1820,
      "ert": 1821,
      "ans": 1822,
      "Ġmulti": 1823,
      "Ġhigh": 1824,
      "ument": 1825,
      "Ġconfig": 1826,
      "Ġà¤¨à¤¹à¤²": 1827,
      "fore": 1828,
      "ĠWh": 1829,
      "Ġà¤Ľà¤ķ": 1830,
      "ie": 1831,
      "ker": 1832,
      "oogle": 1833,
      "Ġed": 1834,
      "ination": 1835,
      "Ġtry": 1836,
      "à¤ªà¤Ł": 1837,
      "Ġmain": 1838,
      "aset": 1839,
      "Ġrel": 1840,
      "raw": 1841,
      "ader": 1842,
      "Ġ{'": 1843,
      "Ġà¤ħà¤Ł": 1844,
      "Ġonly": 1845,
      "config": 1846,
      "ences": 1847,
      "Ġoperations": 1848,
      "Ġtwo": 1849,
      "String": 1850,
      "folder": 1851,
      "na": 1852,
      "sp": 1853,
      "reg": 1854,
      "join": 1855,
      "game": 1856,
      "jp": 1857,
      "save": 1858,
      "à¤ŀ": 1859,
      "ores": 1860,
      "Ġindex": 1861,
      "Ġmay": 1862,
      "Ġmark": 1863,
      "ential": 1864,
      "à¤ĩà¤¬": 1865,
      "ending": 1866,
      "Ġchild": 1867,
      "output": 1868,
      "Ġoutput": 1869,
      "inally": 1870,
      "Ġvoid": 1871,
      "Com": 1872,
      "Gener": 1873,
      "IL": 1874,
      "map": 1875,
      "size": 1876,
      "Ġ8": 1877,
      "à¤²à¤ķ": 1878,
      "ret": 1879,
      "Ġpe": 1880,
      "Ġno": 1881,
      "ĠCreate": 1882,
      "Ġquantum": 1883,
      "Ġdatabase": 1884,
      "Ġ6": 1885,
      "Ġ:": 1886,
      "Ġind": 1887,
      "ases": 1888,
      "ides": 1889,
      "Ġrandom": 1890,
      "client": 1891,
      "ength": 1892,
      "jpg": 1893,
      "32": 1894,
      "AL": 1895,
      "pos": 1896,
      "write": 1897,
      "Ġfind": 1898,
      "Ġà¤ªà¤¹": 1899,
      "Ġ'/": 1900,
      "ateg": 1901,
      "à¤ĥ%": 1902,
      "ote": 1903,
      "à¤ħà¤Ĺà¤²": 1904,
      "Ġmach": 1905,
      "Ġarray": 1906,
      "Ġlanguage": 1907,
      "gtk": 1908,
      "number": 1909,
      "Ġpr": 1910,
      "Ġprivate": 1911,
      "Ġlen": 1912,
      "ists": 1913,
      "Ġscra": 1914,
      "Ġstruct": 1915,
      "Ġprocessing": 1916,
      "Ġtrain": 1917,
      "Ġhandling": 1918,
      "De": 1919,
      "ner": 1920,
      "Ġdist": 1921,
      "elp": 1922,
      "à¤ħà¤¦": 1923,
      "Ġactiv": 1924,
      "inux": 1925,
      "ait": 1926,
      "air": 1927,
      "vo": 1928,
      "à¤¸à¤¹": 1929,
      "Ġpass": 1930,
      "Ġinformation": 1931,
      "Ġblock": 1932,
      "elen": 1933,
      "ĠAutom": 1934,
      "Ġgame": 1935,
      "Ġà¤ĩà¤ķ": 1936,
      "Ġà¤ĩà¤¸": 1937,
      "Ġspe": 1938,
      "ween": 1939,
      "Ġwebs": 1940,
      "Ġparamet": 1941,
      "Ġcorrect": 1942,
      "PU": 1943,
      "csv": 1944,
      "Ġ@": 1945,
      "info": 1946,
      "Ġcall": 1947,
      "à¤µà¤°à¤£": 1948,
      "ull": 1949,
      "query": 1950,
      "Ġà¤ıà¤Ł": 1951,
      "à¤Ĩà¤§": 1952,
      "ĠImplementing": 1953,
      "types": 1954,
      "content": 1955,
      "Ġsimulate": 1956,
      "AR": 1957,
      "gan": 1958,
      "ict": 1959,
      "Ġ\\\\": 1960,
      "à¤µà¤ļ": 1961,
      "sert": 1962,
      "Ġenvironment": 1963,
      "libgnome": 1964,
      "parser": 1965,
      "learn": 1966,
      "Ġmachine": 1967,
      "elenium": 1968,
      "20": 1969,
      "QL": 1970,
      "`,": 1971,
      "gmail": 1972,
      "Ġright": 1973,
      "à¤²à¤Ł": 1974,
      "à¤¸à¤°à¤£": 1975,
      "à¤¯à¤¶": 1976,
      "Ġvolume": 1977,
      "izing": 1978,
      "Ġchar": 1979,
      "ape": 1980,
      "yze": 1981,
      "ĠCreating": 1982,
      "aint": 1983,
      "dat": 1984,
      "ian": 1985,
      "public": 1986,
      "uff": 1987,
      "à¤ĺ": 1988,
      "Ġpop": 1989,
      "Ġuses": 1990,
      "ĠCom": 1991,
      "Ġà¤¯à¤¦": 1992,
      "Ġaccess": 1993,
      "args": 1994,
      "Im": 1995,
      "à¤°à¤¹": 1996,
      "ĠĠĠĠĊ": 1997,
      "Ġfl": 1998,
      "Ġfloat": 1999,
      "imes": 2000,
      "Ġreport": 2001,
      "ĠFor": 2002,
      "ĠLinux": 2003,
      "Ġfunctions": 2004,
      "Ġclient": 2005,
      "Ġ[]": 2006,
      "Ġunder": 2007,
      "Ġempty": 2008,
      "alculate": 2009,
      "Ġtakes": 2010,
      "._": 2011,
      "64": 2012,
      "ST": 2013,
      "à¤¸à¤°": 2014,
      "Ġtwe": 2015,
      "Ġpd": 2016,
      "à¤®à¤¦": 2017,
      "ilities": 2018,
      "ified": 2019,
      "à¤¬à¤¨": 2020,
      "Ġwhile": 2021,
      "resent": 2022,
      "Ġneed": 2023,
      "Ġsmart": 2024,
      "Ġalgorithms": 2025,
      "DF": 2026,
      "ng": 2027,
      "ric": 2028,
      "à¤°à¤¦à¤°": 2029,
      "ern": 2030,
      "ream": 2031,
      "imit": 2032,
      "omain": 2033,
      "ational": 2034,
      "email": 2035,
      "ĠString": 2036,
      "andler": 2037,
      "irtual": 2038,
      "Ġengine": 2039,
      "ĠPerforming": 2040,
      "Ġbetween": 2041,
      "Node": 2042,
      "ma": 2043,
      "à¤Ķ": 2044,
      "lease": 2045,
      "à¤ªà¤¥": 2046,
      "Ġpack": 2047,
      "Ġworld": 2048,
      "usic": 2049,
      "ĠAl": 2050,
      "Ġwithin": 2051,
      "à¤ħà¤ľ": 2052,
      "Ġshould": 2053,
      "Ġdisplay": 2054,
      "à¤¤à¤°à¤«à¤²à¤ķ": 2055,
      "ynam": 2056,
      "ET": 2057,
      "OL": 2058,
      "ah": 2059,
      "of": 2060,
      "sec": 2061,
      "ving": 2062,
      "Ġu": 2063,
      "reen": 2064,
      "Ġmost": 2065,
      "ĠAr": 2066,
      "Ġ20": 2067,
      "Ġenc": 2068,
      "epy": 2069,
      "acc": 2070,
      "Ġimplementation": 2071,
      "Ġchecks": 2072,
      "à¤®à¤¦à¤¦": 2073,
      "\"\"": 2074,
      "]:": 2075,
      "dis": 2076,
      "sleep": 2077,
      "Ġend": 2078,
      "Ġauth": 2079,
      "rop": 2080,
      "Ġoptim": 2081,
      "ols": 2082,
      "lose": 2083,
      "Ġ+=": 2084,
      "Ġchang": 2085,
      "nection": 2086,
      "chedule": 2087,
      "make": 2088,
      "Ġsym": 2089,
      "Ġwould": 2090,
      "Ġge": 2091,
      "ĠCl": 2092,
      "indow": 2093,
      "Ġà¤Ĺà¤ı": 2094,
      "Ġ<<": 2095,
      "parse": 2096,
      "ose": 2097,
      "Ĭà¤ªà¤°": 2098,
      "Ġaction": 2099,
      "Ġthese": 2100,
      "Ġsur": 2101,
      "Ġtable": 2102,
      "lection": 2103,
      "à¤¼à¥Ĥ": 2104,
      "ouble": 2105,
      "Ġcontext": 2106,
      "Ġwhere": 2107,
      "connect": 2108,
      "Ġatt": 2109,
      "Ġfilter": 2110,
      "Ġhandle": 2111,
      "bin": 2112,
      "ins": 2113,
      "Ġsoc": 2114,
      "Ġtem": 2115,
      "à¤¯à¤¹": 2116,
      "à¤µà¤¸": 2117,
      "Ġrep": 2118,
      "eather": 2119,
      "ĠMy": 2120,
      "ĠFl": 2121,
      "ĠBuild": 2122,
      "Ġà¤Ĩà¤¤": 2123,
      "Ġmanagement": 2124,
      "Ġà¤¸à¤ķà¤¤": 2125,
      "winleft": 2126,
      "CVS": 2127,
      "OR": 2128,
      "Ġ.": 2129,
      "à¤°à¤¸": 2130,
      "atural": 2131,
      "Ġfield": 2132,
      "ision": 2133,
      "Ġtop": 2134,
      "ets": 2135,
      "ident": 2136,
      "Ġyear": 2137,
      "ister": 2138,
      "ĠHow": 2139,
      "Ġà¤Ĩà¤ķ": 2140,
      "Ġvalues": 2141,
      "Ġtrack": 2142,
      "Ġacc": 2143,
      "Ġsuch": 2144,
      "----": 2145,
      "TTP": 2146,
      "Ġelements": 2147,
      "ditional": 2148,
      "tribute": 2149,
      "'...": 2150,
      "gress": 2151,
      "Ġ['": 2152,
      "à¤Ŀ": 2153,
      "Ġsocket": 2154,
      "ctor": 2155,
      "unch": 2156,
      "rie": 2157,
      "Ġ{}": 2158,
      "ople": 2159,
      "ible": 2160,
      "ograph": 2161,
      "Ġchat": 2162,
      "16": 2163,
      "wit": 2164,
      "ero": 2165,
      "Ġthread": 2166,
      "rem": 2167,
      "à¤¤à¤ķ": 2168,
      "Ġdest": 2169,
      "Ġbrowser": 2170,
      "amed": 2171,
      "erson": 2172,
      "Ġexcept": 2173,
      "ĠInitial": 2174,
      "ooth": 2175,
      "Ġneural": 2176,
      "Ġwords": 2177,
      "onitoring": 2178,
      "Ġrunning": 2179,
      "=\"": 2180,
      "db": 2181,
      "lot": 2182,
      "ward": 2183,
      "zip": 2184,
      "Ġpol": 2185,
      "Ġinte": 2186,
      "Ġduring": 2187,
      "orted": 2188,
      "Ġbre": 2189,
      "iled": 2190,
      "à¤ħà¤¸à¤«à¤²": 2191,
      "Ġsoftware": 2192,
      "files": 2193,
      "Check": 2194,
      "à¤Ķà¤ľ": 2195,
      "SS": 2196,
      "Sh": 2197,
      "TK": 2198,
      "ns": 2199,
      "Ġ!": 2200,
      "atically": 2201,
      "Ġsearch": 2202,
      "Ġmov": 2203,
      "Ġà¤ªà¤¹à¤²": 2204,
      "ush": 2205,
      "Ġbot": 2206,
      "Ġlic": 2207,
      "Ġhad": 2208,
      "ession": 2209,
      "Ġà¤¬à¤¤": 2210,
      "irc": 2211,
      "Ġexpress": 2212,
      "oss": 2213,
      "div": 2214,
      "Ġmake": 2215,
      "utilus": 2216,
      "command": 2217,
      "nautilus": 2218,
      "\"%": 2219,
      "function": 2220,
      "host": 2221,
      "Ġtitle": 2222,
      "img": 2223,
      "Ġocc": 2224,
      "à¤¹à¤¤": 2225,
      "ication": 2226,
      "').": 2227,
      "utils": 2228,
      "Ġrequired": 2229,
      "Ġtasks": 2230,
      "Ġsentiment": 2231,
      "book": 2232,
      "iod": 2233,
      "ren": 2234,
      "à¤°à¤®": 2235,
      "erm": 2236,
      "Ġsql": 2237,
      "à¤¼à¥ĭ": 2238,
      "ift": 2239,
      "à¤ĸà¤ķ": 2240,
      "Ġview": 2241,
      "plib": 2242,
      "clude": 2243,
      "ĠNew": 2244,
      "ixing": 2245,
      "ĠExample": 2246,
      "ators": 2247,
      "Ġupdate": 2248,
      "ĠAdded": 2249,
      "webbrowser": 2250,
      "Ġsocial": 2251,
      "ps": 2252,
      "sw": 2253,
      "à¥ĩ-": 2254,
      "Ġà¤ªà¤¸": 2255,
      "Ġlabel": 2256,
      "Ġhelp": 2257,
      "oug": 2258,
      "Ġgen": 2259,
      "Ġstatus": 2260,
      "à¥Īà¤Ĥ.": 2261,
      "Ġchecking": 2262,
      "ĠDef": 2263,
      "Ġcalculate": 2264,
      "Ġzip": 2265,
      "\");": 2266,
      "API": 2267,
      "Ob": 2268,
      "Ser": 2269,
      "TML": 2270,
      "].": 2271,
      "download": 2272,
      "lab": 2273,
      "Ġway": 2274,
      "ifier": 2275,
      "Ġdevices": 2276,
      "pper": 2277,
      "Ġsequ": 2278,
      "Ġadding": 2279,
      "Create": 2280,
      "ale": 2281,
      "day": 2282,
      "oh": 2283,
      "uch": 2284,
      "Ġorder": 2285,
      "orn": 2286,
      "Ġselenium": 2287,
      "reat": 2288,
      "Ġpassword": 2289,
      "use": 2290,
      "Ġbook": 2291,
      "ĠSer": 2292,
      "Ġexception": 2293,
      "ails": 2294,
      "ouse": 2295,
      "Ġanalyze": 2296,
      "->": 2297,
      "Dis": 2298,
      "Id": 2299,
      "Text": 2300,
      "fl": 2301,
      "onom": 2302,
      "Ġaut": 2303,
      "ĠĠĠĠĠ": 2304,
      "Ġcar": 2305,
      "Ġfol": 2306,
      "lete": 2307,
      "Ġla": 2308,
      "Ġnatural": 2309,
      "ube": 2310,
      "Ġà¤ļà¤µ": 2311,
      "Ġwithout": 2312,
      "à¤Ĩà¤īà¤Ł": 2313,
      "ĠGener": 2314,
      "ponent": 2315,
      "access": 2316,
      "ursor": 2317,
      "bol": 2318,
      "flow": 2319,
      "lish": 2320,
      "Ġ=>": 2321,
      "uss": 2322,
      "Ġelect": 2323,
      "Ġcomp": 2324,
      "Ġenabling": 2325,
      "Ġaddress": 2326,
      "Ġprovides": 2327,
      "Ġeven": 2328,
      ".,": 2329,
      "CT": 2330,
      "Se": 2331,
      "Ġpage": 2332,
      "icle": 2333,
      "ody": 2334,
      "Ġ100": 2335,
      "Ġdefault": 2336,
      "ology": 2337,
      "Ad": 2338,
      "Key": 2339,
      "Search": 2340,
      "Type": 2341,
      "cent": 2342,
      "me": 2343,
      "source": 2344,
      "ĠĠĠĠĠĠĠĠĠĠĠĠĠĠĠĠĠĠĠ": 2345,
      "Ġframe": 2346,
      "Ġmiss": 2347,
      "Ġdown": 2348,
      "status": 2349,
      "ading": 2350,
      "Ġconstruct": 2351,
      "Exception": 2352,
      "ĠChecking": 2353,
      "pect": 2354,
      "uple": 2355,
      "à¤ªà¤²à¤¬": 2356,
      "ality": 2357,
      "Ġwrit": 2358,
      "icro": 2359,
      "à¤µà¤²": 2360,
      "'):": 2361,
      "Ġvirtual": 2362,
      "ĠFinally": 2363,
      "ĠRes": 2364,
      "ours": 2365,
      "Ġpost": 2366,
      "Ġ**": 2367,
      "ights": 2368,
      "ledge": 2369,
      "à¤¸à¤®à¤°": 2370,
      "Ġcreating": 2371,
      "onds": 2372,
      "'t": 2373,
      "100": 2374,
      "IN": 2375,
      "Log": 2376,
      "func": 2377,
      "numbers": 2378,
      "other": 2379,
      "ttp": 2380,
      "Ġcalled": 2381,
      "Ġtarget": 2382,
      "ited": 2383,
      "utput": 2384,
      "Ġwater": 2385,
      "Ġlong": 2386,
      "Ġà¤¨à¤ķ": 2387,
      "ĠTrans": 2388,
      "à¤ĸà¤¨": 2389,
      "Ġasync": 2390,
      "izes": 2391,
      "à¤Ľà¤µ": 2392,
      "Ġcommun": 2393,
      "Ġdifferent": 2394,
      "ĠInitialize": 2395,
      "Data": 2396,
      "[\"": 2397,
      "bash": 2398,
      "fit": 2399,
      "include": 2400,
      "Ġsr": 2401,
      "Ġcould": 2402,
      "Ġrecomm": 2403,
      "ily": 2404,
      "ĠAss": 2405,
      "ider": 2406,
      "ĠgTT": 2407,
      "Ġgroup": 2408,
      "ecution": 2409,
      "ĠSystem": 2410,
      "opt": 2411,
      "ĠRet": 2412,
      "Ġvariable": 2413,
      "Control": 2414,
      "Object": 2415,
      "LE": 2416,
      "Rec": 2417,
      "SE": 2418,
      "fe": 2419,
      "pdf": 2420,
      "tt": 2421,
      "Ġav": 2422,
      "atures": 2423,
      "Ġsource": 2424,
      "Ġsimple": 2425,
      "Ġpower": 2426,
      "à¤¯à¤®": 2427,
      "alance": 2428,
      "ism": 2429,
      "Ġmode": 2430,
      "essages": 2431,
      "ĠSet": 2432,
      "verage": 2433,
      "loy": 2434,
      "ourse": 2435,
      "Ġwebdriver": 2436,
      "Ġerrors": 2437,
      "Ġsupport": 2438,
      "mission": 2439,
      "Ġdescription": 2440,
      "Get": 2441,
      "Map": 2442,
      "current": 2443,
      "rl": 2444,
      "ration": 2445,
      "tplib": 2446,
      "wise": 2447,
      "ĠZ": 2448,
      "à¤¿à¤ĥ": 2449,
      "imum": 2450,
      "Ġà¤ªà¤¥": 2451,
      "Ġdr": 2452,
      "state": 2453,
      "ĠID": 2454,
      "ĠSQL": 2455,
      "ĠDis": 2456,
      "Ġevent": 2457,
      "Ġexper": 2458,
      "Ġens": 2459,
      "show": 2460,
      "Ġmodels": 2461,
      "ormal": 2462,
      "Ġpeople": 2463,
      "ĠgTTS": 2464,
      "Handler": 2465,
      "ID": 2466,
      "Wh": 2467,
      "gy": 2468,
      "sm": 2469,
      "sub": 2470,
      "target": 2471,
      "Ġver": 2472,
      "array": 2473,
      "Ġgraph": 2474,
      "uments": 2475,
      "Ġrest": 2476,
      "Ġbefore": 2477,
      "ĠWe": 2478,
      "Ġleft": 2479,
      "Ġlevel": 2480,
      "Ġimplemented": 2481,
      "Ġhead": 2482,
      "Ġoperation": 2483,
      "Ġgenerate": 2484,
      "Ġnumpy": 2485,
      "ategory": 2486,
      "Ġbreak": 2487,
      "'}": 2488,
      "max": 2489,
      "}\")": 2490,
      "Ġurl": 2491,
      "Ġsay": 2492,
      "Ġtensor": 2493,
      "dep": 2494,
      "utton": 2495,
      "Ġdiv": 2496,
      "Ġbs": 2497,
      "Ġpropert": 2498,
      "Ġaccount": 2499,
      "pyautogui": 2500,
      "Ġsuccess": 2501,
      "Ġbecause": 2502,
      "ĠFlask": 2503,
      "Ġ!=": 2504,
      "actions": 2505,
      "era": 2506,
      "Ġfre": 2507,
      "Ġtf": 2508,
      "icate": 2509,
      "eting": 2510,
      "etic": 2511,
      "Ġnumbers": 2512,
      "ĠSearch": 2513,
      "ĠFile": 2514,
      "ĠFalse": 2515,
      "ources": 2516,
      "ĠUsing": 2517,
      "perature": 2518,
      "Ġmany": 2519,
      "Not": 2520,
      "OM": 2521,
      "Time": 2522,
      "UR": 2523,
      "cis": 2524,
      "element": 2525,
      "ique": 2526,
      "lator": 2527,
      "tract": 2528,
      "Ġ9": 2529,
      "index": 2530,
      "ats": 2531,
      "Ġsn": 2532,
      "Ġsoup": 2533,
      "Ġpandas": 2534,
      "Ġow": 2535,
      "Ġmat": 2536,
      "Ġnamed": 2537,
      "Ġgra": 2538,
      "Ġcons": 2539,
      "ĠEOL": 2540,
      "const": 2541,
      "ension": 2542,
      "aces": 2543,
      "Ġallows": 2544,
      "Ġprev": 2545,
      "items": 2546,
      "Ġamount": 2547,
      "libgnomeui": 2548,
      "ĠBuilding": 2549,
      ".\"": 2550,
      "Manager": 2551,
      "User": 2552,
      "ber": 2553,
      "cor": 2554,
      "da": 2555,
      "doc": 2556,
      "ene": 2557,
      "Ġcrypt": 2558,
      "reens": 2559,
      "Ġfin": 2560,
      "Ġfact": 2561,
      "à¤ªà¤ħà¤ª": 2562,
      "à¤ļà¤°": 2563,
      "ĠSimul": 2564,
      "vector": 2565,
      "ĠFixing": 2566,
      "click": 2567,
      "ĠOutput": 2568,
      "Ġroot": 2569,
      "Ġrecognition": 2570,
      "ĠDevelop": 2571,
      "filter": 2572,
      "alsa": 2573,
      "Ġiterates": 2574,
      "while": 2575,
      "Ġparameters": 2576,
      "For": 2577,
      "Res": 2578,
      "TH": 2579,
      "ves": 2580,
      "Ġrow": 2581,
      "orch": 2582,
      "à¤¸à¤¤": 2583,
      "à¤¯à¤¥à¤¨": 2584,
      "alth": 2585,
      "Ġour": 2586,
      "Ġwrite": 2587,
      "etooth": 2588,
      "ĠText": 2589,
      "à¤¬à¤²": 2590,
      "Ġdem": 2591,
      "Ġà¤¬à¤Łà¤¨": 2592,
      "ĠFran": 2593,
      "Ġshutil": 2594,
      "Ġallow": 2595,
      "Ġà¤Ľà¤µ": 2596,
      "Ġimplementing": 2597,
      "Ġelif": 2598,
      "Ġdoes": 2599,
      "Ġsmtplib": 2600,
      "luetooth": 2601,
      "ĠYou": 2602,
      "Ġcomputing": 2603,
      "Ġà¤®à¤¦à¤¦": 2604,
      "Ġinclud": 2605,
      "Ġsklearn": 2606,
      "Ġwebsite": 2607,
      "Ġfollow": 2608,
      "Ġrecommend": 2609,
      "reenshot": 2610,
      "\"]": 2611,
      "At": 2612,
      "Volume": 2613,
      "fs": 2614,
      "lack": 2615,
      "med": 2616,
      "Ġ%": 2617,
      "Ġ7": 2618,
      "ined": 2619,
      "thing": 2620,
      "Ġaw": 2621,
      "org": 2622,
      "Ġcase": 2623,
      "à¥ĭà¤ĥ": 2624,
      "à¤¯à¤ªà¤°": 2625,
      "Ġincre": 2626,
      "Ġnode": 2627,
      "Ġher": 2628,
      "Ġà¤ľà¤°": 2629,
      "ables": 2630,
      "update": 2631,
      "ording": 2632,
      "ĠVal": 2633,
      "Ġinstance": 2634,
      "Ġalgorithm": 2635,
      "desktop": 2636,
      "Ġspeech": 2637,
      "Ġsymbol": 2638,
      "22": 2639,
      "</": 2640,
      "TP": 2641,
      "ole": 2642,
      "env": 2643,
      "Ġsame": 2644,
      "Ġpatch": 2645,
      "Ġmatch": 2646,
      "(),": 2647,
      "Ġdevice": 2648,
      "Ġstep": 2649,
      "Ġprodu": 2650,
      "Ġà¤ħà¤¸à¤«à¤²": 2651,
      "odes": 2652,
      "Ġconnect": 2653,
      "Ġequ": 2654,
      "ĠUp": 2655,
      "Ġorig": 2656,
      "Ġà¤¸à¤®à¤¯": 2657,
      "Ġcomputer": 2658,
      "annel": 2659,
      "Ġvisual": 2660,
      "install": 2661,
      "/')": 2662,
      "={": 2663,
      "bug": 2664,
      "create": 2665,
      "ever": 2666,
      "hip": 2667,
      "lation": 2668,
      "mod": 2669,
      "pu": 2670,
      "ru": 2671,
      "side": 2672,
      "ved": 2673,
      "Ġsend": 2674,
      "Ġmen": 2675,
      "stand": 2676,
      "Ġnames": 2677,
      "Ġhum": 2678,
      "rack": 2679,
      "ĠCode": 2680,
      "Ġexp": 2681,
      "Ġwhat": 2682,
      "ĠWeb": 2683,
      "Ġjava": 2684,
      "Config": 2685,
      "Ġmultiple": 2686,
      "((": 2687,
      "ten": 2688,
      "yle": 2689,
      "Ġent": 2690,
      "onth": 2691,
      "Ġspace": 2692,
      "Ġtab": 2693,
      "ĠPIL": 2694,
      "ĠTest": 2695,
      "à¤¬à¤Ĺ": 2696,
      "rome": 2697,
      "Ġà¤ħà¤¤à¤°à¤«à¤²à¤ķ": 2698,
      "Ġknowledge": 2699,
      "Ġenum": 2700,
      "Ġmac": 2701,
      "ugin": 2702,
      "Ġdesign": 2703,
      "Ġnews": 2704,
      "engine": 2705,
      "à¤Ĩà¤°à¤Ĩà¤Ī": 2706,
      "plotlib": 2707,
      "Generic": 2708,
      "Ġtweepy": 2709,
      "ohn": 2710,
      "Py": 2711,
      "Ġec": 2712,
      "à¥¤": 2713,
      "ons": 2714,
      "Ġthose": 2715,
      "Ġcsv": 2716,
      "Ġpress": 2717,
      "ites": 2718,
      "ars": 2719,
      "Ġlink": 2720,
      "ulation": 2721,
      "Ġstack": 2722,
      "plain": 2723,
      "Ġpoint": 2724,
      "Ġjust": 2725,
      "common": 2726,
      "Ġvoice": 2727,
      "ification": 2728,
      "Class": 2729,
      "Value": 2730,
      "unching": 2731,
      "11": 2732,
      "?:": 2733,
      "Path": 2734,
      "cing": 2735,
      "cle": 2736,
      "not": 2737,
      "video": 2738,
      "your": 2739,
      "Ġoption": 2740,
      "Ġlay": 2741,
      "Ġà¤«à¤²à¤ķ": 2742,
      "ĠSe": 2743,
      "ples": 2744,
      "Invalid": 2745,
      "à¤īà¤²à¤Ł": 2746,
      "Ġà¤īà¤ªà¤ķà¤°à¤£": 2747,
      "tection": 2748,
      "Ġfeature": 2749,
      "apture": 2750,
      "Ġagain": 2751,
      "Ġposition": 2752,
      "Ġsettings": 2753,
      "uffer": 2754,
      "Ġsqlite": 2755,
      "ĠSearching": 2756,
      ")...": 2757,
      "25": 2758,
      "ivers": 2759,
      "ls": 2760,
      "oint": 2761,
      "Ġq": 2762,
      "Ġfunc": 2763,
      "det": 2764,
      "Ġà¤ªà¤¢": 2765,
      "urity": 2766,
      "à¤¡à¤¨": 2767,
      "à¤µà¤ķ": 2768,
      "std": 2769,
      "ĠHTTP": 2770,
      "Ġà¤Łà¤°": 2771,
      "Ġapplications": 2772,
      "Ġsubject": 2773,
      "tributes": 2774,
      "Ġsaid": 2775,
      "Ġconfiguration": 2776,
      "By": 2777,
      "SV": 2778,
      "ailed": 2779,
      "cat": 2780,
      "mer": 2781,
      "su": 2782,
      "tes": 2783,
      "leg": 2784,
      "Ġpython": 2785,
      "Ġà¤¸à¤¬": 2786,
      "amp": 2787,
      "Ġcondition": 2788,
      "Ġ+)": 2789,
      "ĠUser": 2790,
      "ailable": 2791,
      "Ġà¤¤à¤¸": 2792,
      "Ġà¤°à¤ĸà¤¤": 2793,
      "obj": 2794,
      "Ġimages": 2795,
      "Ġpartic": 2796,
      "Ġtyping": 2797,
      "Ġmemory": 2798,
      "keras": 2799,
      "Ġcharact": 2800,
      "\"])": 2801,
      "(.": 2802,
      "AC": 2803,
      "AM": 2804,
      "Audio": 2805,
      "Gtk": 2806,
      "Sp": 2807,
      "dit": 2808,
      "eys": 2809,
      "google": 2810,
      "png": 2811,
      "Ġenter": 2812,
      "à¤ªà¤ķ": 2813,
      "imal": 2814,
      "anning": 2815,
      "ams": 2816,
      "chem": 2817,
      "Ġà¤ķà¤°à¤¤": 2818,
      "loop": 2819,
      "Ġà¤Ĩà¤°": 2820,
      "respon": 2821,
      "Ġleg": 2822,
      "Ġmath": 2823,
      "Ġscreen": 2824,
      "valu": 2825,
      "apple": 2826,
      "ually": 2827,
      "login": 2828,
      "attern": 2829,
      "Qt": 2830,
      "do": 2831,
      "gener": 2832,
      "met": 2833,
      "pi": 2834,
      "rid": 2835,
      "ven": 2836,
      "vas": 2837,
      "Ġschedule": 2838,
      "Ġfetch": 2839,
      "Ġtech": 2840,
      "iti": 2841,
      "iter": 2842,
      "à¤¯à¤¸": 2843,
      "any": 2844,
      "Ġdoc": 2845,
      "à¤¶à¤ķ": 2846,
      "oud": 2847,
      "Ġproble": 2848,
      "Ġ\"\"\"": 2849,
      "ĠRem": 2850,
      "ounter": 2851,
      "'],": 2852,
      "Ġorgan": 2853,
      "ocus": 2854,
      "à¤īà¤ªà¤ķà¤°à¤£": 2855,
      "Ġquery": 2856,
      "Ġservice": 2857,
      "Ġlocal": 2858,
      "Ġlaunching": 2859,
      "!')": 2860,
      "App": 2861,
      "Col": 2862,
      "IM": 2863,
      "Label": 2864,
      "Par": 2865,
      "down": 2866,
      "her": 2867,
      "ka": 2868,
      "node": 2869,
      "};": 2870,
      "Ġ|": 2871,
      "Ġsol": 2872,
      "Ġsyn": 2873,
      "à¤¨à¤°": 2874,
      "Ġpract": 2875,
      "itive": 2876,
      "Ġmusic": 2877,
      "Ġdomain": 2878,
      "aster": 2879,
      "check": 2880,
      "agn": 2881,
      "à¤·à¤¯": 2882,
      "ordin": 2883,
      "Ġplt": 2884,
      "Ġà¤īà¤ªà¤¸": 2885,
      "Ġà¤īà¤ªà¤²à¤¬": 2886,
      "Ġ30": 2887,
      "Ġsystems": 2888,
      "ference": 2889,
      "ĠOpening": 2890,
      "Ġupdates": 2891,
      "position": 2892,
      "Ġrepresent": 2893,
      "Ġmissing": 2894,
      "ĠReturn": 2895,
      "UI": 2896,
      "audio": 2897,
      "hash": 2898,
      "page": 2899,
      "rate": 2900,
      "wall": 2901,
      "Ġà¤Ĭà¤ªà¤°": 2902,
      "à¥Ģ-": 2903,
      "iting": 2904,
      "à¤¯à¤²": 2905,
      "alk": 2906,
      "Ġweather": 2907,
      "Ġdynam": 2908,
      "asc": 2909,
      "Ġ(%": 2910,
      "'))": 2911,
      "pare": 2912,
      "Ġà¤Ĩà¤§": 2913,
      "Ġinterface": 2914,
      "ough": 2915,
      "ĠDefine": 2916,
      "Ġtensorflow": 2917,
      "Ġrecommendation": 2918,
      "Count": 2919,
      "Un": 2920,
      "jang": 2921,
      "lines": 2922,
      "ming": 2923,
      "spe": 2924,
      "table": 2925,
      "Ġ\\": 2926,
      "à¥ĩ..": 2927,
      "Ġcopy": 2928,
      "replace": 2929,
      "à¤¸à¤µà¤°": 2930,
      "Ġturn": 2931,
      "let": 2932,
      "à¤Łà¤ķà¤Ł": 2933,
      "Ġwell": 2934,
      "Ġtoken": 2935,
      "ĠPDF": 2936,
      "rive": 2937,
      "ĠSh": 2938,
      "Ġà¤ľà¤¬": 2939,
      "oding": 2940,
      "eak": 2941,
      "à¤ħà¤§": 2942,
      "ĠLic": 2943,
      "ains": 2944,
      "Ġbeing": 2945,
      "resh": 2946,
      "ives": 2947,
      "ĠAnd": 2948,
      "ĠAdd": 2949,
      "ighb": 2950,
      "anced": 2951,
      "Ġboth": 2952,
      "secret": 2953,
      "Ġlicens": 2954,
      "labor": 2955,
      "jango": 2956,
      "'.": 2957,
      "Bot": 2958,
      "card": 2959,
      "link": 2960,
      "task": 2961,
      "},": 2962,
      "ories": 2963,
      "Ġspa": 2964,
      "Ġtrue": 2965,
      "Ġpair": 2966,
      "imate": 2967,
      "ctrl": 2968,
      "Ġwant": 2969,
      "asic": 2970,
      "omet": 2971,
      "à¤ıà¤²": 2972,
      "esser": 2973,
      "idget": 2974,
      "ecess": 2975,
      "verse": 2976,
      "mented": 2977,
      "Ġimportant": 2978,
      "ipel": 2979,
      "Ġà¤Ĺà¤Ī": 2980,
      "Ġmade": 2981,
      "Ġtrading": 2982,
      "starts": 2983,
      "Ġobjects": 2984,
      "Ġdetected": 2985,
      "([\"": 2986,
      "sumer": 2987,
      "lobal": 2988,
      "ĠAutomatically": 2989,
      "Ġauthor": 2990,
      "!/": 2991,
      "#!/": 2992,
      ":',": 2993,
      "Trans": 2994,
      "dest": 2995,
      "ditor": 2996,
      "land": 2997,
      "Ġvery": 2998,
      "ingle": 2999,
      "Ġtorch": 3000,
      "Ġdriver": 3001,
      "à¤ıà¤®": 3002,
      "Ġhash": 3003,
      "ĠCSV": 3004,
      "quare": 3005,
      "ĠData": 3006,
      "Ġà¤ħà¤¸à¤®à¤°": 3007,
      "Ġevery": 3008,
      "ĠHe": 3009,
      "ively": 3010,
      "Ġ--": 3011,
      "oci": 3012,
      "Ġparse": 3013,
      "End": 3014,
      "Ġdetails": 3015,
      "Ġloop": 3016,
      "Ġexpression": 3017,
      "Ġasyncio": 3018,
      ")')": 3019,
      "DE": 3020,
      "];": 3021,
      "lam": 3022,
      "ok": 3023,
      "thread": 3024,
      "Ġte": 3025,
      "Ġà¤¸à¤°": 3026,
      "Ġà¤ªà¤¶": 3027,
      "Ġlast": 3028,
      "Ġref": 3029,
      "chor": 3030,
      "emory": 3031,
      "Ġrate": 3032,
      "Ġconn": 3033,
      "ĠRun": 3034,
      "uper": 3035,
      "Ġweek": 3036,
      "apy": 3037,
      "Ġfilename": 3038,
      "Ġusername": 3039,
      "Ġnetworks": 3040,
      "ĠQu": 3041,
      "address": 3042,
      "Ġphys": 3043,
      "Ġproducts": 3044,
      "ippet": 3045,
      "Ġchildren": 3046,
      "à¤ĺà¤Łà¤¨": 3047,
      "Image": 3048,
      "Ġchatbot": 3049,
      "ĠmacOS": 3050,
      "Ar": 3051,
      "Auth": 3052,
      "event": 3053,
      "gg": 3054,
      "ience": 3055,
      "the": 3056,
      "Ġage": 3057,
      "à¥ĩà¤Ĥ?": 3058,
      "Ġbrain": 3059,
      "Ġless": 3060,
      "à¥Ī,": 3061,
      "ife": 3062,
      "otal": 3063,
      "ules": 3064,
      "Ġdetection": 3065,
      "Ġchange": 3066,
      "Ġmeas": 3067,
      "ived": 3068,
      "ponents": 3069,
      "Ġpytts": 3070,
      "olumn": 3071,
      "Ġcolor": 3072,
      "Ġraise": 3073,
      "Ġtkinter": 3074,
      "Ġyears": 3075,
      "witch": 3076,
      "Ġhuman": 3077,
      "Ġpyttsx": 3078,
      "Al": 3079,
      "bies": 3080,
      "mary": 3081,
      "ram": 3082,
      "socket": 3083,
      "Ġface": 3084,
      "alyz": 3085,
      "arge": 3086,
      "Ġinf": 3087,
      "Ġmedia": 3088,
      "icient": 3089,
      "Ġdouble": 3090,
      "Ġbest": 3091,
      "Ġ(\\\\": 3092,
      "Ġhim": 3093,
      "Ġ'-": 3094,
      "Ġusers": 3095,
      "Ġgu": 3096,
      "ĠSo": 3097,
      "Ġstore": 3098,
      "Ġstatic": 3099,
      "verting": 3100,
      "Ġà¤ħà¤µ": 3101,
      "irs": 3102,
      "Ġretrie": 3103,
      "head": 3104,
      "ector": 3105,
      "serv": 3106,
      "format": 3107,
      "Ġbeh": 3108,
      "Ġ[\\\\": 3109,
      "])?:": 3110,
      "lower": 3111,
      "Ġreality": 3112,
      "Ġtransform": 3113,
      "Client": 3114,
      "Ġdecor": 3115,
      "Ġmemb": 3116,
      "Ġ\\\\])?:": 3117,
      "Ġunderstand": 3118,
      "ecessary": 3119,
      "startswith": 3120,
      "01": 3121,
      "24": 3122,
      "ENT": 3123,
      "False": 3124,
      "bda": 3125,
      "mit": 3126,
      "power": 3127,
      "til": 3128,
      "Ġident": 3129,
      "erate": 3130,
      "à¤²à¤°": 3131,
      "Ġcell": 3132,
      "à¤¸à¤ª": 3133,
      "Ġmessages": 3134,
      "async": 3135,
      "Ġloss": 3136,
      "ĠTo": 3137,
      "Ġdeep": 3138,
      "Ġà¤¬à¤°": 3139,
      "Ġiss": 3140,
      "à¥Ģà¤Ĥ.": 3141,
      "Ġvar": 3142,
      "Ġresearch": 3143,
      "Ġapply": 3144,
      "acy": 3145,
      "avi": 3146,
      "words": 3147,
      "Ġdisk": 3148,
      "Ġaddition": 3149,
      "Ġworks": 3150,
      "Ġregist": 3151,
      "Ġload": 3152,
      "Ġitems": 3153,
      "local": 3154,
      "dataset": 3155,
      "ography": 3156,
      "Show": 3157,
      "Ġavailable": 3158,
      "Ġfollowing": 3159,
      "!'": 3160,
      "87": 3161,
      "Frame": 3162,
      "Item": 3163,
      "OT": 3164,
      "SD": 3165,
      "VD": 3166,
      "copy": 3167,
      "cuss": 3168,
      "zon": 3169,
      "Ġke": 3170,
      "eries": 3171,
      "Ġthink": 3172,
      "Ġcap": 3173,
      "à¤¤à¤°à¤£": 3174,
      "rot": 3175,
      "roid": 3176,
      "Ġinv": 3177,
      "chain": 3178,
      "export": 3179,
      "ĠCal": 3180,
      "ĠIP": 3181,
      "ĠIs": 3182,
      "istance": 3183,
      "ĠMonitoring": 3184,
      "Ġà¤Ĩà¤Ī": 3185,
      "Ġrespon": 3186,
      "à¤¼à¥ĩà¤Ĥà¤ĥ": 3187,
      "irewall": 3188,
      "Ġshell": 3189,
      "Ġlogging": 3190,
      "score": 3191,
      "Ġrobot": 3192,
      "Ġperformance": 3193,
      "Ġdevelopment": 3194,
      "Ġdepend": 3195,
      "Valid": 3196,
      "ĠLicense": 3197,
      "Act": 3198,
      "[:": 3199,
      "close": 3200,
      "hello": 3201,
      "np": 3202,
      "part": 3203,
      "sa": 3204,
      "tle": 3205,
      "}...": 3206,
      "Ġ?": 3207,
      "à¤²à¤¤": 3208,
      "Ġcourse": 3209,
      "Ġfac": 3210,
      "Ġtimes": 3211,
      "à¤¤à¤µ": 3212,
      "alt": 3213,
      "Ġanother": 3214,
      "Ġrece": 3215,
      "Ġhttp": 3216,
      "ĠTrain": 3217,
      "ulate": 3218,
      "Ġdeter": 3219,
      "Ġà¤°à¤¦": 3220,
      "Ġà¤ľà¤¨à¤ķ": 3221,
      "Ġproject": 3222,
      "à¤ħà¤µ": 3223,
      "Ġexer": 3224,
      "Ġexam": 3225,
      "clip": 3226,
      "ĠGoogle": 3227,
      "Ġà¤Ĺà¤²à¤¤": 3228,
      "Ġdefine": 3229,
      "Ġappro": 3230,
      "aily": 3231,
      "ivity": 3232,
      "ugg": 3233,
      "ĠInter": 3234,
      "Ġattribute": 3235,
      "encies": 3236,
      "Ġsee": 3237,
      "soft": 3238,
      "Ġcorrespon": 3239,
      "Reader": 3240,
      "Ġmaximum": 3241,
      "transl": 3242,
      "Ġscraping": 3243,
      "Ġchanges": 3244,
      "Ġtemperature": 3245,
      "Ġelectron": 3246,
      "Ġtechn": 3247,
      "'{": 3248,
      "Find": 3249,
      "SM": 3250,
      "Up": 3251,
      "ade": 3252,
      "ced": 3253,
      "field": 3254,
      "length": 3255,
      "md": 3256,
      "oad": 3257,
      "soup": 3258,
      "ince": 3259,
      "à¤°à¤¶": 3260,
      "à¥ĭ?": 3261,
      "Ġtr": 3262,
      "Ġperson": 3263,
      "ital": 3264,
      "arm": 3265,
      "Ġmed": 3266,
      "Ġlines": 3267,
      "ĠPl": 3268,
      "Ġ'__": 3269,
      "idth": 3270,
      "adata": 3271,
      "rip": 3272,
      "ability": 3273,
      "Ġ12": 3274,
      "plt": 3275,
      "Ġexecution": 3276,
      "__':": 3277,
      "Ġmanip": 3278,
      "ensions": 3279,
      "Ġadded": 3280,
      "ĠInst": 3281,
      "tings": 3282,
      "Ġhealth": 3283,
      "Ġfeed": 3284,
      "Ġdiff": 3285,
      "Ġbetter": 3286,
      "Ġremov": 3287,
      "Ġvalidation": 3288,
      "Ġtypes": 3289,
      "Ġcontaining": 3290,
      "ĠAutomating": 3291,
      "Ġtracking": 3292,
      "Ġsequence": 3293,
      "Ġprevious": 3294,
      "esseract": 3295,
      "##": 3296,
      "50": 3297,
      "Sub": 3298,
      "ai": 3299,
      "button": 3300,
      "ground": 3301,
      "ĠÂ": 3302,
      "Ġversion": 3303,
      "ont": 3304,
      "Ġair": 3305,
      "orial": 3306,
      "atest": 3307,
      "ately": 3308,
      "esc": 3309,
      "Ġfn": 3310,
      "Ġfix": 3311,
      "Ġfocus": 3312,
      "Ġter": 3313,
      "imil": 3314,
      "à¤Łà¤ķ": 3315,
      "Ġday": 3316,
      "à¤¼à¥į": 3317,
      "à¤ľà¤°": 3318,
      "Ġlimit": 3319,
      "Ġ'))": 3320,
      "raction": 3321,
      "Ġgre": 3322,
      "rieve": 3323,
      "Ġstor": 3324,
      "andle": 3325,
      "Ġreturned": 3326,
      "Ġ\"/": 3327,
      "Ġexist": 3328,
      "osis": 3329,
      "ĠUI": 3330,
      "urls": 3331,
      "000": 3332,
      "ants": 3333,
      "ffect": 3334,
      "avig": 3335,
      "reader": 3336,
      "Ġunique": 3337,
      "Convert": 3338,
      "Ġdisabling": 3339,
      "Ġdict": 3340,
      "preh": 3341,
      "mainloop": 3342,
      "iskit": 3343,
      "price": 3344,
      "Ġrequirements": 3345,
      "void": 3346,
      "Ġsuccessful": 3347,
      "Ġown": 3348,
      "iversity": 3349,
      "imilar": 3350,
      "';": 3351,
      "INT": 3352,
      "Source": 3353,
      "Your": 3354,
      "bu": 3355,
      "rics": 3356,
      "Ġà¤ĳ": 3357,
      "esh": 3358,
      "device": 3359,
      "decode": 3360,
      "ank": 3361,
      "Ġmonth": 3362,
      "icles": 3363,
      "Ġbel": 3364,
      "chron": 3365,
      "Ġnow": 3366,
      "except": 3367,
      "execute": 3368,
      "ags": 3369,
      "()')": 3370,
      "riter": 3371,
      "Ġonline": 3372,
      "Ġà¤ıà¤®": 3373,
      "à¤Ĩà¤ª": 3374,
      "ĠLob": 3375,
      "à¤īà¤Ń": 3376,
      "Ġmanager": 3377,
      "Ġacqu": 3378,
      "ĠCont": 3379,
      "Ġà¤Ńà¤°": 3380,
      "Ġactive": 3381,
      "Ġstatement": 3382,
      "Ġstructure": 3383,
      "ĠHoward": 3384,
      "ircu": 3385,
      "depend": 3386,
      "Ġmatplotlib": 3387,
      "ĠSimulating": 3388,
      "Ġmenu": 3389,
      "Ġpressure": 3390,
      "Loc": 3391,
      "Model": 3392,
      "RE": 3393,
      "Run": 3394,
      "][": 3395,
      "ccount": 3396,
      "mark": 3397,
      "uc": 3398,
      "Ġquest": 3399,
      "ergy": 3400,
      "Ġsingle": 3401,
      "Ġsuper": 3402,
      "Ġfam": 3403,
      "lex": 3404,
      "à¤ªà¤¬": 3405,
      "ross": 3406,
      "ally": 3407,
      "Ġold": 3408,
      "Ġiniti": 3409,
      "uture": 3410,
      "Ġtoo": 3411,
      "à¤Ĺà¤¤": 3412,
      "Ġdid": 3413,
      "Ġbro": 3414,
      "Ġnext": 3415,
      "ilt": 3416,
      "Ġhard": 3417,
      "ĠCalcul": 3418,
      "rix": 3419,
      "à¤¥à¤®": 3420,
      "extract": 3421,
      "Ġweight": 3422,
      "conn": 3423,
      "Ġappl": 3424,
      "Ġarea": 3425,
      "Ġplugin": 3426,
      "ĠConverting": 3427,
      "Ġresults": 3428,
      "Ġcreated": 3429,
      "Ġcalculates": 3430,
      "Ġassist": 3431,
      "Ġarguments": 3432,
      "Ġoccur": 3433,
      "%%": 3434,
      "34": 3435,
      "AT": 3436,
      "Send": 3437,
      "[]": 3438,
      "disk": 3439,
      "oot": 3440,
      "post": 3441,
      "sg": 3442,
      "tra": 3443,
      "inary": 3444,
      "atial": 3445,
      "atory": 3446,
      "Ġsep": 3447,
      "Ġsave": 3448,
      "Ġsize": 3449,
      "Ġsorted": 3450,
      "Ġcategory": 3451,
      "lections": 3452,
      "Ġmouse": 3453,
      "uracy": 3454,
      "Ġdon": 3455,
      "omal": 3456,
      "à¤ıà¤Ł": 3457,
      "aming": 3458,
      "Ġnull": 3459,
      "Ġnecessary": 3460,
      "ĠPar": 3461,
      "Ġhost": 3462,
      "iforn": 3463,
      "otential": 3464,
      "ids": 3465,
      "ĠCor": 3466,
      "ĠDN": 3467,
      "à¤·à¤¸": 3468,
      "Ġconnection": 3469,
      "Ġ\"$": 3470,
      "ĠHTML": 3471,
      "âĢľ": 3472,
      "processing": 3473,
      "ĠGet": 3474,
      "tocol": 3475,
      "Ġmak": 3476,
      "Ġshow": 3477,
      "Ġperiod": 3478,
      "tein": 3479,
      "urric": 3480,
      "Ġselect": 3481,
      "shape": 3482,
      "ocker": 3483,
      "udo": 3484,
      "msg": 3485,
      "rightness": 3486,
      "models": 3487,
      "Request": 3488,
      "webdriver": 3489,
      "Ġvarious": 3490,
      "Ġassign": 3491,
      "tempt": 3492,
      "Ġupdated": 3493,
      "Ġstudents": 3494,
      "Ġpackage": 3495,
      "Ġproperties": 3496,
      "Ġincluding": 3497,
      "ĠLobbies": 3498,
      ")]": 3499,
      "Fi": 3500,
      "IG": 3501,
      "Java": 3502,
      "Met": 3503,
      "PL": 3504,
      "Tk": 3505,
      "You": 3506,
      "af": 3507,
      "cpp": 3508,
      "media": 3509,
      "volume": 3510,
      "Ġsound": 3511,
      "Ġctypes": 3512,
      "à¤¹à¤°à¤£": 3513,
      "Ġtogg": 3514,
      "Ġbu": 3515,
      "Ġbody": 3516,
      "Ġbasic": 3517,
      "strip": 3518,
      "Ġhint": 3519,
      "ĠAudio": 3520,
      "oper": 3521,
      "plic": 3522,
      "Ġcompreh": 3523,
      "à¤Ĩà¤ķ": 3524,
      "âĢ¦": 3525,
      "Ġà¤īà¤¦": 3526,
      "Ġ<=": 3527,
      "Context": 3528,
      "aking": 3529,
      "Ġbutton": 3530,
      "Ġreader": 3531,
      "ances": 3532,
      "Ġimg": 3533,
      "State": 3534,
      "Ġstudy": 3535,
      "Ġtraining": 3536,
      "à¤°à¤®à¤£": 3537,
      "Ġautonom": 3538,
      "Ġawait": 3539,
      "Ġoptions": 3540,
      "ifornia": 3541,
      "200": 3542,
      "40": 3543,
      "66": 3544,
      "AS": 3545,
      "FF": 3546,
      "Field": 3547,
      "HTML": 3548,
      "IP": 3549,
      "Message": 3550,
      "Tube": 3551,
      "]]": 3552,
      "bit": 3553,
      "cel": 3554,
      "eg": 3555,
      "float": 3556,
      "java": 3557,
      "qtt": 3558,
      "random": 3559,
      "sage": 3560,
      "window": 3561,
      "xml": 3562,
      "}'": 3563,
      "Ġast": 3564,
      "atform": 3565,
      "Ġcr": 3566,
      "Ġcam": 3567,
      "Ġtri": 3568,
      "Ġoil": 3569,
      "Ġmuch": 3570,
      "Ġwin": 3571,
      "Ġlook": 3572,
      "Ġhome": 3573,
      "ĠAs": 3574,
      "à¤¬à¤ļ": 3575,
      "('.": 3576,
      "Ġgrow": 3577,
      "select": 3578,
      "ublish": 3579,
      "comp": 3580,
      "ĠBluetooth": 3581,
      "osp": 3582,
      "Ġà¤Ĩà¤Ĺ": 3583,
      "ialog": 3584,
      "ĠNetwork": 3585,
      "Ġresource": 3586,
      "lication": 3587,
      "ĠOn": 3588,
      "Ġclip": 3589,
      "Ġprocesses": 3590,
      "Ġattributes": 3591,
      "ĠExtract": 3592,
      "Ġsets": 3593,
      "object": 3594,
      "Ġkeyboard": 3595,
      "ĠâĢ¦": 3596,
      "Ġtesting": 3597,
      "ĠĠĠĠĠĠĠĠĠĠĠĠĠĠĠĠ": 3598,
      "Ġvariables": 3599,
      "Ġminutes": 3600,
      "ĠOpenCV": 3601,
      "Ġbackup": 3602,
      "Ġseconds": 3603,
      "perty": 3604,
      "Ġinclude": 3605,
      "pointVolume": 3606,
      "icrosoft": 3607,
      "ĠYouTube": 3608,
      "ĠUpdate": 3609,
      "Ġoriginal": 3610,
      "AudioEnd": 3611,
      "Ġacquaint": 3612,
      "Ġautonomous": 3613,
      "AudioEndpointVolume": 3614,
      "78": 3615,
      "Action": 3616,
      "Code": 3617,
      "My": 3618,
      "try": 3619,
      "tosis": 3620,
      "})": 3621,
      "Ġthings": 3622,
      "Ġcent": 3623,
      "Ġclear": 3624,
      "arp": 3625,
      "usage": 3626,
      "Ġdrive": 3627,
      "Ġlight": 3628,
      "à¥Ī...": 3629,
      "qual": 3630,
      "istory": 3631,
      "à¤«à¤°": 3632,
      "Ġproper": 3633,
      "ĠManager": 3634,
      "product": 3635,
      "ĠUsed": 3636,
      "lice": 3637,
      "ibrary": 3638,
      "Ġà¤¶à¤¬": 3639,
      "ĠVera": 3640,
      "Ġplan": 3641,
      "script": 3642,
      "scores": 3643,
      "And": 3644,
      "Explain": 3645,
      "Ġtranslation": 3646,
      "Ġactual": 3647,
      "ache": 3648,
      "attery": 3649,
      "ancial": 3650,
      "recognition": 3651,
      "Ġ>=": 3652,
      "Ġbool": 3653,
      "Ġlocation": 3654,
      "Ġeffects": 3655,
      "ĠWhat": 3656,
      "Ġsurface": 3657,
      "168": 3658,
      "ĠDeveloping": 3659,
      "Ġagainst": 3660,
      "Ġissues": 3661,
      "Ġkeep": 3662,
      "Ġcorresponding": 3663,
      "Ġsepar": 3664,
      ",\"": 3665,
      "56": 3666,
      "Blob": 3667,
      "Det": 3668,
      "Git": 3669,
      "Test": 3670,
      "Table": 3671,
      "based": 3672,
      "cursor": 3673,
      "eded": 3674,
      "group": 3675,
      "ha": 3676,
      "hour": 3677,
      "limit": 3678,
      "pop": 3679,
      "sible": 3680,
      "ta": 3681,
      "à¤ĳ": 3682,
      "inition": 3683,
      "this": 3684,
      "à¤¨à¤®": 3685,
      "Ġclean": 3686,
      "Ġcursor": 3687,
      "Ġfree": 3688,
      "Ġmust": 3689,
      "Ġwindow": 3690,
      "using": 3691,
      "Ġlow": 3692,
      "Ġlength": 3693,
      "(':": 3694,
      "ĠCA": 3695,
      "ĠCalculate": 3696,
      "ĠSp": 3697,
      "Ġstream": 3698,
      "vern": 3699,
      "lood": 3700,
      "Ġconvert": 3701,
      "Ġconversion": 3702,
      "Ġ16": 3703,
      "ĠRec": 3704,
      "ĠError": 3705,
      "à¤Ĩà¤ĩ": 3706,
      "ĠUS": 3707,
      "consumer": 3708,
      "values": 3709,
      "Ġshort": 3710,
      "));": 3711,
      "Ġà¤īà¤ªà¤°": 3712,
      "aving": 3713,
      "Ġlogin": 3714,
      "ĠThen": 3715,
      "Ġcommon": 3716,
      "Ġservices": 3717,
      "Ġdataset": 3718,
      "counts": 3719,
      "Ġhandles": 3720,
      "layers": 3721,
      "Ġremove": 3722,
      "Ġcompleted": 3723,
      "qrt": 3724,
      "Ġactivation": 3725,
      "Ġchanging": 3726,
      "Ġfields": 3727,
      "--------": 3728,
      "Ġfrequ": 3729,
      "ĠTextBlob": 3730,
      "à¤¯à¤ªà¤°à¤²": 3731,
      "Ġà¤¸à¤¬à¤µà¤°": 3732,
      "Ġparticular": 3733,
      "80": 3734,
      "CR": 3735,
      "Widget": 3736,
      "ds": 3737,
      "dum": 3738,
      "ee": 3739,
      "len": 3740,
      "less": 3741,
      "mar": 3742,
      "memory": 3743,
      "slot": 3744,
      "Ġid": 3745,
      "Ġshe": 3746,
      "ref": 3747,
      "Ġfolder": 3748,
      "Ġpresent": 3749,
      "Ġpattern": 3750,
      "arr": 3751,
      "urther": 3752,
      "Ġanomal": 3753,
      "Ġbatch": 3754,
      "else": 3755,
      "à¤ĩà¤°": 3756,
      "Ġred": 3757,
      "à¤ļà¤¯": 3758,
      "Ġnon": 3759,
      "ĠTensor": 3760,
      "('/": 3761,
      "ceed": 3762,
      "ĠDo": 3763,
      "Ġear": 3764,
      "ĠEditor": 3765,
      "Ġà¤ĩà¤¸à¤ķ": 3766,
      "ĠLog": 3767,
      "ipient": 3768,
      "ĠOption": 3769,
      "Inst": 3770,
      "ĠIndi": 3771,
      "phone": 3772,
      "ready": 3773,
      "urrency": 3774,
      "Anchor": 3775,
      "à¤ıà¤ķà¤²": 3776,
      "Ġobj": 3777,
      "Ġmodified": 3778,
      "Ġreading": 3779,
      "Ġ&&": 3780,
      "Ġcoordin": 3781,
      "choice": 3782,
      "Ġinitializes": 3783,
      "Ġcontains": 3784,
      "Def": 3785,
      "Ġblockchain": 3786,
      "Ġthreading": 3787,
      "Ġsnippet": 3788,
      "module": 3789,
      "Ġconditions": 3790,
      "ipeline": 3791,
      ",âĢĿ": 3792,
      "14": 3793,
      "Bo": 3794,
      "Flow": 3795,
      "No": 3796,
      "On": 3797,
      "Rem": 3798,
      "Title": 3799,
      "We": 3800,
      "batch": 3801,
      "frame": 3802,
      "gra": 3803,
      "ln": 3804,
      "mand": 3805,
      "off": 3806,
      "rust": 3807,
      "sudo": 3808,
      "tesseract": 3809,
      "yt": 3810,
      "à¤Ĭà¤ªà¤°": 3811,
      "Ġà¤¥": 3812,
      "Ġaverage": 3813,
      "à¤ķà¤¸": 3814,
      "à¤¨à¤¤": 3815,
      "Ġfit": 3816,
      "Ġtool": 3817,
      "Ġbase": 3818,
      "Ġbalance": 3819,
      "Ġoften": 3820,
      "ĠPh": 3821,
      "raint": 3822,
      "Ġgreat": 3823,
      "quit": 3824,
      "ĠSan": 3825,
      "Ġstand": 3826,
      "Ġprogress": 3827,
      "Ġprotein": 3828,
      "oder": 3829,
      "Ġà¤µà¤¹": 3830,
      "ĠFunction": 3831,
      "ĠLet": 3832,
      "yper": 3833,
      "Ġà¤Ĩà¤īà¤Ł": 3834,
      "ĠWorld": 3835,
      "Ġknown": 3836,
      "Ġmean": 3837,
      "Ġapprop": 3838,
      "Ġà¤¤à¤ķ": 3839,
      "oolean": 3840,
      "Ġimpro": 3841,
      "screenshot": 3842,
      "Ġmodeling": 3843,
      "à¥Īà¤Ĥ?": 3844,
      "Ġotherwise": 3845,
      "Ġregular": 3846,
      "prise": 3847,
      "ological": 3848,
      "instance": 3849,
      "Ġmarketing": 3850,
      "display": 3851,
      "Ġfinancial": 3852,
      "ĠValue": 3853,
      "applets": 3854,
      "Ġdocument": 3855,
      "Ġphysical": 3856,
      "Ġappropri": 3857,
      "13": 3858,
      "90": 3859,
      "Diff": 3860,
      "GTK": 3861,
      "John": 3862,
      "Monitor": 3863,
      "Per": 3864,
      "Python": 3865,
      "RI": 3866,
      "System": 3867,
      "ather": 3868,
      "block": 3869,
      "go": 3870,
      "gre": 3871,
      "gment": 3872,
      "kw": 3873,
      "mic": 3874,
      "pus": 3875,
      "yah": 3876,
      "}.": 3877,
      "à¤¾à¥¤": 3878,
      "Ġaug": 3879,
      "eras": 3880,
      "Ġclo": 3881,
      "Ġfinal": 3882,
      "Ġprom": 3883,
      "imer": 3884,
      "Ġmut": 3885,
      "Ġdf": 3886,
      "Ġdue": 3887,
      "Ġforec": 3888,
      "à¤¼à¥ĩ": 3889,
      "à¤¦à¤¬": 3890,
      "amples": 3891,
      "step": 3892,
      "Ġ'<": 3893,
      "')[": 3894,
      "('{": 3895,
      "olation": 3896,
      "Ġgtts": 3897,
      "uming": 3898,
      "ĠCPU": 3899,
      "Ġdebug": 3900,
      "Ġstyle": 3901,
      "ĠDict": 3902,
      "ithub": 3903,
      "Ġprotocol": 3904,
      "eap": 3905,
      "Ġevalu": 3906,
      "Ġexecute": 3907,
      "Ġspecify": 3908,
      "Ġjob": 3909,
      "boot": 3910,
      "Ġà¤Ĩà¤ªà¤ķ": 3911,
      "Ġkeys": 3912,
      "à¤ĩà¤¸à¤°": 3913,
      "Ġregister": 3914,
      "192": 3915,
      "missions": 3916,
      "cover": 3917,
      "Ġrelations": 3918,
      "Ġindust": 3919,
      "Ġparameter": 3920,
      "Ġinteg": 3921,
      "Add": 3922,
      "What": 3923,
      "ĠAndroid": 3924,
      "ĠCalifornia": 3925,
      "Ġexamine": 3926,
      "yahoo": 3927,
      "\";": 3928,
      "++": 3929,
      "Account": 3930,
      "Balsa": 3931,
      "Play": 3932,
      "bar": 3933,
      "fn": 3934,
      "por": 3935,
      "tilities": 3936,
      "total": 3937,
      "Ġflu": 3938,
      "Ġtake": 3939,
      "ittest": 3940,
      "devices": 3941,
      "anvas": 3942,
      "Ġtools": 3943,
      "Ġbt": 3944,
      "Ġbit": 3945,
      "Ġland": 3946,
      "idual": 3947,
      "ulf": 3948,
      "Ġdelete": 3949,
      "Ġecho": 3950,
      "Ġ\"%": 3951,
      "Ġcomment": 3952,
      "Ġcomponents": 3953,
      "ĠGe": 3954,
      "Ġresources": 3955,
      "ĠWork": 3956,
      "Ġdefined": 3957,
      "default": 3958,
      "outube": 3959,
      "Ġmaint": 3960,
      "Ġscores": 3961,
      "PIO": 3962,
      "Ġneg": 3963,
      "Ġrecogn": 3964,
      "sole": 3965,
      "Ġinteract": 3966,
      "aterial": 3967,
      "Ġinstalled": 3968,
      "Ġevents": 3969,
      "Ġà¤ªà¤Łà¤²": 3970,
      "qrcode": 3971,
      "Ġarticle": 3972,
      "witter": 3973,
      "swer": 3974,
      "Ġgenetic": 3975,
      "Ġzipfile": 3976,
      "Ġexpected": 3977,
      "à¤Ĩà¤ĩà¤ķà¤¨": 3978,
      "ĠTensorFlow": 3979,
      "({": 3980,
      "30": 3981,
      "DI": 3982,
      "Element": 3983,
      "UT": 3984,
      "With": 3985,
      "autom": 3986,
      "balsa": 3987,
      "case": 3988,
      "cise": 3989,
      "dic": 3990,
      "ead": 3991,
      "fact": 3992,
      "ltk": 3993,
      "match": 3994,
      "ool": 3995,
      "private": 3996,
      "rand": 3997,
      "ses": 3998,
      "session": 3999,
      "ways": 4000,
      "Ġutil": 4001,
      "Ġà¤§": 4002,
      "Ġsat": 4003,
      "Ġsquare": 4004,
      "Ġà¤ķà¤¨": 4005,
      "à¥Ģ%": 4006,
      "Ġpur": 4007,
      "Ġmot": 4008,
      "Ġmap": 4009,
      "Ġmonitor": 4010,
      "entiment": 4011,
      "Ġdig": 4012,
      "Ġlock": 4013,
      "Ġlarge": 4014,
      "Ġredu": 4015,
      "ĠPol": 4016,
      "ĠPublic": 4017,
      "Ġusually": 4018,
      "ĠCAL": 4019,
      "Ġà¤¬à¤ļ": 4020,
      "Ġrisk": 4021,
      "Ġrender": 4022,
      "à¤Ńà¤°": 4023,
      "ĠFind": 4024,
      "à¤Īà¤²": 4025,
      "ĠRep": 4026,
      "Ġchannel": 4027,
      "Ġà¤Ĩà¤²": 4028,
      "ĠWi": 4029,
      "lick": 4030,
      "printui": 4031,
      "ills": 4032,
      "Ġadv": 4033,
      "Ġtimeout": 4034,
      "aves": 4035,
      "Ġarch": 4036,
      "ĠException": 4037,
      "Ġrole": 4038,
      "Ġassoci": 4039,
      "Ġbox": 4040,
      "Ġbackground": 4041,
      "Ġsomething": 4042,
      "ĠEnter": 4043,
      "ribe": 4044,
      "ĠWhen": 4045,
      "register": 4046,
      "Ġ80": 4047,
      "gtkhtml": 4048,
      "Ġprice": 4049,
      "LECT": 4050,
      "SELECT": 4051,
      "ĠSetting": 4052,
      "smtp": 4053,
      "cisco": 4054,
      "Ġsteps": 4055,
      "GtkHTML": 4056,
      "ighbor": 4057,
      "ĠRunning": 4058,
      "Ġbehavi": 4059,
      "kwargs": 4060,
      "automake": 4061,
      ".âĢĿ": 4062,
      "AN": 4063,
      "Autom": 4064,
      "Book": 4065,
      "Dec": 4066,
      "LS": 4067,
      "Man": 4068,
      "QTT": 4069,
      "Sec": 4070,
      "Task": 4071,
      "cpu": 4072,
      "dig": 4073,
      "mat": 4074,
      "nn": 4075,
      "site": 4076,
      "Ġve": 4077,
      "Ĳà¤¸": 4078,
      "atist": 4079,
      "ended": 4080,
      "Ġsimilar": 4081,
      "Ġcaus": 4082,
      "Ġcert": 4083,
      "rection": 4084,
      "Ġfalse": 4085,
      "dev": 4086,
      "roy": 4087,
      "ales": 4088,
      "à¥ĩà¤Ĥ...": 4089,
      "icious": 4090,
      "à¤Ĺà¤¨": 4091,
      "ason": 4092,
      "Ġlib": 4093,
      "Ġnormal": 4094,
      "Ġhours": 4095,
      "aged": 4096,
      "ĠAt": 4097,
      "outh": 4098,
      "idd": 4099,
      "iding": 4100,
      "Ġglobal": 4101,
      "ĠCa": 4102,
      "estart": 4103,
      "ĠSending": 4104,
      "Ġassert": 4105,
      "Ġà¤ļà¤°": 4106,
      "Ġcompar": 4107,
      "Ġà¤ĩà¤¨": 4108,
      "coming": 4109,
      "Ġcho": 4110,
      "Ġalready": 4111,
      "dictions": 4112,
      "percent": 4113,
      "ired": 4114,
      "Ġpercent": 4115,
      "Ġarr": 4116,
      "ariable": 4117,
      "ĠConfig": 4118,
      "Ġsimulator": 4119,
      "Chrome": 4120,
      "apter": 4121,
      "anner": 4122,
      "Ġcomplex": 4123,
      "ikit": 4124,
      "ALL": 4125,
      "libgnomeprintui": 4126,
      "Ġwriting": 4127,
      "Ġconsider": 4128,
      "Ġcryptography": 4129,
      "Attribute": 4130,
      "Ġvisualization": 4131,
      "Ġproblem": 4132,
      "laborate": 4133,
      "à¤ıà¤®à¤ıà¤²": 4134,
      "Ġmeasure": 4135,
      "ĠValueError": 4136,
      "Ġappropriate": 4137,
      "EN": 4138,
      "Please": 4139,
      "calculate": 4140,
      "faces": 4141,
      "just": 4142,
      "know": 4143,
      "man": 4144,
      "mut": 4145,
      "mig": 4146,
      "no": 4147,
      "names": 4148,
      "ty": 4149,
      "tax": 4150,
      "walk": 4151,
      "yd": 4152,
      "Ġest": 4153,
      "Ġaround": 4154,
      "ernet": 4155,
      "à¤¿.": 4156,
      "Ġthrow": 4157,
      "Ġthree": 4158,
      "Ġsw": 4159,
      "Ġcause": 4160,
      "Ġcases": 4161,
      "rel": 4162,
      "Ġfull": 4163,
      "Ġpres": 4164,
      "arn": 4165,
      "Ġmsg": 4166,
      "à¤Ĺà¤¹": 4167,
      "Ġdam": 4168,
      "Ġdaily": 4169,
      "omic": 4170,
      "Ġbinary": 4171,
      "à¤ļà¤°à¤£": 4172,
      "à¥Īà¤ĥ%": 4173,
      "olve": 4174,
      "ĠCD": 4175,
      "Ġà¤¬à¤ľ": 4176,
      "Ġstill": 4177,
      "à¤ĸà¤£": 4178,
      "Ġà¤ľà¤Ĺà¤¹": 4179,
      "Ġrating": 4180,
      "Ġà¤ħà¤ª": 4181,
      "ters": 4182,
      "Ġretrieve": 4183,
      "ĠMQTT": 4184,
      "ĠRE": 4185,
      "pair": 4186,
      "comple": 4187,
      "Ġ+/": 4188,
      "ĠBio": 4189,
      "âĢĶ": 4190,
      "Ġfunctionality": 4191,
      "ĠGod": 4192,
      "ĠOct": 4193,
      "loads": 4194,
      "Ġplot": 4195,
      "Ġcontinu": 4196,
      "Ġparsed": 4197,
      "Ġsever": 4198,
      "paramet": 4199,
      "Enum": 4200,
      "settings": 4201,
      "Ġrecord": 4202,
      "à¤¸à¤®à¤¯": 4203,
      "Ġgovern": 4204,
      "Ġzero": 4205,
      "Listener": 4206,
      "ribution": 4207,
      "Ġcomplete": 4208,
      "ĠApply": 4209,
      "ĠXML": 4210,
      "Component": 4211,
      "Ġspeed": 4212,
      "ynamic": 4213,
      "Ġoptimization": 4214,
      "remove": 4215,
      "Ġlicense": 4216,
      "Serial": 4217,
      "Forest": 4218,
      "ĠFrancisco": 4219,
      "generate": 4220,
      "Ġlicensing": 4221,
      "SMTP": 4222,
      "ĠControl": 4223,
      "ircuit": 4224,
      "ĠCalculating": 4225,
      "Ġaugmented": 4226,
      "($": 4227,
      "AG": 4228,
      "Alice": 4229,
      "CL": 4230,
      "Em": 4231,
      "Elaborate": 4232,
      "New": 4233,
      "PN": 4234,
      "Tra": 4235,
      "US": 4236,
      "URL": 4237,
      "Utilities": 4238,
      "Windows": 4239,
      "blob": 4240,
      "cy": 4241,
      "kis": 4242,
      "tensor": 4243,
      "}:": 4244,
      "orth": 4245,
      "à¤ķà¤«": 4246,
      "Ġfew": 4247,
      "à¤¤à¤ļ": 4248,
      "ley": 4249,
      "level": 4250,
      "ison": 4251,
      "ised": 4252,
      "Ġinfo": 4253,
      "etc": 4254,
      "oms": 4255,
      "à¤ıà¤Ĺ": 4256,
      "els": 4257,
      "Ġ'{": 4258,
      "ĠTask": 4259,
      "à¤ĩà¤²à¤°": 4260,
      "à¤ĩà¤²à¤¨": 4261,
      "esture": 4262,
      "Ġà¤¬à¤ķ": 4263,
      "Ġask": 4264,
      "urnal": 4265,
      "Ġà¤ļà¤°à¤£": 4266,
      "tern": 4267,
      "ĠMed": 4268,
      "ĠRed": 4269,
      "Ġà¤ĸà¤£": 4270,
      "come": 4271,
      "ĠLoad": 4272,
      "ĠURI": 4273,
      "ipher": 4274,
      "ĠNL": 4275,
      "ĠNo": 4276,
      "ĠGUI": 4277,
      "à¤¼à¥ĩà¤Ĥ...": 4278,
      "iving": 4279,
      "Ġenergy": 4280,
      "Ġclimate": 4281,
      "Ġstrateg": 4282,
      "week": 4283,
      "Ġpytesseract": 4284,
      "activ": 4285,
      "Ġparsing": 4286,
      "true": 4287,
      "pyplot": 4288,
      "Ġquick": 4289,
      "Ġtransfer": 4290,
      "ĠQR": 4291,
      "Ġ40": 4292,
      "Ġcreates": 4293,
      "ĠStart": 4294,
      "filename": 4295,
      "Ġgoogle": 4296,
      "OST": 4297,
      "Content": 4298,
      "queue": 4299,
      "Ġscrape": 4300,
      "Ġdistance": 4301,
      "Implement": 4302,
      "à¤¸à¤°à¤²": 4303,
      "Ġgeosp": 4304,
      "Ġlabels": 4305,
      "Ġexceptions": 4306,
      "Ġconstructor": 4307,
      "ĠTranslator": 4308,
      "Ġensure": 4309,
      "Response": 4310,
      "Ġallowed": 4311,
      "Ġcharacters": 4312,
      "Ġmembran": 4313,
      "Ġtoggling": 4314,
      "Ġclipboard": 4315,
      "Ġanomaly": 4316,
      "Ġgeospatial": 4317,
      ".)": 4318,
      ":'):": 4319,
      "Date": 4320,
      "Form": 4321,
      "HTTP": 4322,
      "Keys": 4323,
      "Lay": 4324,
      "Line": 4325,
      "Ph": 4326,
      "RO": 4327,
      "Socket": 4328,
      "Use": 4329,
      "be": 4330,
      "base": 4331,
      "body": 4332,
      "cer": 4333,
      "cord": 4334,
      "call": 4335,
      "iqu": 4336,
      "kens": 4337,
      "mm": 4338,
      "most": 4339,
      "mask": 4340,
      "manager": 4341,
      "rc": 4342,
      "sn": 4343,
      "tain": 4344,
      "youtube": 4345,
      "inc": 4346,
      "Ġsplit": 4347,
      "Ġcur": 4348,
      "à¥ĭ-": 4349,
      "Ġtag": 4350,
      "Ġpotential": 4351,
      "utting": 4352,
      "Ġmor": 4353,
      "eder": 4354,
      "Ġwra": 4355,
      "Ġdim": 4356,
      "Ġblood": 4357,
      "Ġlit": 4358,
      "Ġlife": 4359,
      "Ġreview": 4360,
      "channel": 4361,
      "Ġhapp": 4362,
      "agent": 4363,
      "ĠTk": 4364,
      "ĠTwitter": 4365,
      "Ġgtk": 4366,
      "Ġstop": 4367,
      "ĠDec": 4368,
      "pped": 4369,
      "abilities": 4370,
      "Ġà¤¦à¤°": 4371,
      "ĠMe": 4372,
      "ĠROS": 4373,
      "à¤īà¤¨": 4374,
      "ught": 4375,
      "Ġattempt": 4376,
      "ards": 4377,
      "scan": 4378,
      "cular": 4379,
      "Ġque": 4380,
      "setup": 4381,
      "nections": 4382,
      "pression": 4383,
      "Ġà¤ĺà¤Łà¤ķ": 4384,
      "Ġagent": 4385,
      "Ġsignific": 4386,
      "desc": 4387,
      "location": 4388,
      "author": 4389,
      "ĠScra": 4390,
      "ĠXlib": 4391,
      "ĠClass": 4392,
      "options": 4393,
      "Ġheaders": 4394,
      "Ġlegis": 4395,
      "kaj": 4396,
      "destination": 4397,
      "ĠSoftware": 4398,
      "servation": 4399,
      "Ġfixed": 4400,
      "Ġacquaintance": 4401,
      "(':')[": 4402,
      "Ġrelationship": 4403,
      "Ġbehavior": 4404,
      "\"{": 4405,
      "55": 4406,
      "Cor": 4407,
      "Cell": 4408,
      "Calculate": 4409,
      "Do": 4410,
      "Event": 4411,
      "IT": 4412,
      "PS": 4413,
      "dim": 4414,
      "github": 4415,
      "like": 4416,
      "mode": 4417,
      "oT": 4418,
      "say": 4419,
      "sqrt": 4420,
      "tag": 4421,
      "tab": 4422,
      "uk": 4423,
      "ws": 4424,
      "wind": 4425,
      "}\"": 4426,
      "atient": 4427,
      "à¤²à¤Ń": 4428,
      "Ġsince": 4429,
      "Ġà¤ķà¤¡": 4430,
      "Ġcast": 4431,
      "report": 4432,
      "Ġfun": 4433,
      "alle": 4434,
      "ises": 4435,
      "à¤®à¤¤": 4436,
      "Ġmill": 4437,
      "Ġmask": 4438,
      "Ġmight": 4439,
      "Ġwar": 4440,
      "Ġang": 4441,
      "Ġdate": 4442,
      "Ġdone": 4443,
      "ety": 4444,
      "etition": 4445,
      "Ġbir": 4446,
      "Ġball": 4447,
      "Ġbuffer": 4448,
      "static": 4449,
      "ĠAfter": 4450,
      "à¤ģà¤ĥ": 4451,
      "()['": 4452,
      "ries": 4453,
      "ride": 4454,
      "ibility": 4455,
      "assert": 4456,
      "Ġeas": 4457,
      "ĠFetch": 4458,
      "Ġ+.": 4459,
      "ĠLea": 4460,
      "ips": 4461,
      "ĠNet": 4462,
      "Int": 4463,
      "Input": 4464,
      "Ġlists": 4465,
      "account": 4466,
      "Ġplatform": 4467,
      "Ġcontin": 4468,
      "Ġcontract": 4469,
      "pha": 4470,
      "ĠThere": 4471,
      "ĠExcel": 4472,
      "Ġparrot": 4473,
      "truct": 4474,
      "ĠImplementation": 4475,
      "Ġround": 4476,
      "ĠKeys": 4477,
      "Execute": 4478,
      "ĠâĢĵ": 4479,
      "à¤¾à¤ĥ%": 4480,
      "auss": 4481,
      "Ġgood": 4482,
      "Ġefficient": 4483,
      "interface": 4484,
      "chool": 4485,
      "ĠArt": 4486,
      "Ġauthent": 4487,
      "ĠClient": 4488,
      "Ġattach": 4489,
      "ĠHowever": 4490,
      "Ġaccording": 4491,
      "Ġinteger": 4492,
      "Ġsequences": 4493,
      "ĠGeneral": 4494,
      "Ġframework": 4495,
      "ourses": 4496,
      "Ġcommunication": 4497,
      "ĠAssuming": 4498,
      "optim": 4499,
      "Ġexperi": 4500,
      "Ġproperty": 4501,
      "Ġdemonstrates": 4502,
      "Classifier": 4503,
      "meric": 4504,
      "Ġpractice": 4505,
      "Ġdynamics": 4506,
      "speech": 4507,
      "ometry": 4508,
      "Ġbuilt": 4509,
      "ytics": 4510,
      "''": 4511,
      "AP": 4512,
      "As": 4513,
      "Case": 4514,
      "LO": 4515,
      "OINT": 4516,
      "Pl": 4517,
      "Su": 4518,
      "Video": 4519,
      "build": 4520,
      "fc": 4521,
      "first": 4522,
      "ges": 4523,
      "holder": 4524,
      "lur": 4525,
      "pub": 4526,
      "rb": 4527,
      "weather": 4528,
      "writer": 4529,
      "xel": 4530,
      "Ġide": 4531,
      "à¤Ĳà¤¸": 4532,
      "Ġactions": 4533,
      "Ġavoid": 4534,
      "Ġtherm": 4535,
      "atar": 4536,
      "à¤ķà¤Ī": 4537,
      "Ġside": 4538,
      "Ġsys": 4539,
      "Ġsense": 4540,
      "Ġfall": 4541,
      "Ġfood": 4542,
      "Ġopp": 4543,
      "icy": 4544,
      "icult": 4545,
      "ury": 4546,
      "Ġdjango": 4547,
      "Ġbig": 4548,
      "Ġblack": 4549,
      "Ġboolean": 4550,
      "child": 4551,
      "Ġnear": 4552,
      "Ġnltk": 4553,
      "exists": 4554,
      "Ġhurric": 4555,
      "Ġ',": 4556,
      "à¤¶à¤¬": 4557,
      "à¤¬à¤¦": 4558,
      "()`": 4559,
      "ulner": 4560,
      "Ġgas": 4561,
      "Ġà¤ľà¤®": 4562,
      "Ġà¤ħà¤Ń": 4563,
      "Ġconditional": 4564,
      "hether": 4565,
      "plor": 4566,
      "plate": 4567,
      "ĠMessage": 4568,
      "Ġexecut": 4569,
      "ĠBe": 4570,
      "service": 4571,
      "Ġalong": 4572,
      "oses": 4573,
      "ĠGPU": 4574,
      "connection": 4575,
      "à¤Łà¤°à¤«": 4576,
      "ensity": 4577,
      "ĠInte": 4578,
      "Ġplace": 4579,
      "Ġautomated": 4580,
      "ĠJo": 4581,
      "ĠJohn": 4582,
      "ĠAny": 4583,
      "Ġkeyword": 4584,
      "Ġextraction": 4585,
      "ĠâĢĺ": 4586,
      "Ġsmall": 4587,
      "riving": 4588,
      "atterns": 4589,
      "Reg": 4590,
      "Read": 4591,
      "Ġregion": 4592,
      "Ġgoing": 4593,
      "ĠReplace": 4594,
      "control": 4595,
      "aptop": 4596,
      "Ġinstall": 4597,
      "Ġdetect": 4598,
      "Ġsecurity": 4599,
      "ĠProcess": 4600,
      "ribut": 4601,
      "ĠPyQt": 4602,
      "Ġdifference": 4603,
      "Ġphone": 4604,
      "ipping": 4605,
      "Ġ60": 4606,
      "Delete": 4607,
      "Ġcallback": 4608,
      "swift": 4609,
      "ought": 4610,
      "à¤Ĩà¤īà¤Łà¤ª": 4611,
      "ĠGenerating": 4612,
      "cises": 4613,
      "eneo": 4614,
      "Ġeconom": 4615,
      "legate": 4616,
      "Ġcharacter": 4617,
      "Ġpairs": 4618,
      "alyzing": 4619,
      "localhost": 4620,
      "Ġdeterm": 4621,
      "Ġnegative": 4622,
      "${": 4623,
      "(&": 4624,
      "AB": 4625,
      "All": 4626,
      "CH": 4627,
      "Dense": 4628,
      "EM": 4629,
      "ES": 4630,
      "Fil": 4631,
      "From": 4632,
      "If": 4633,
      "IAudioEndpointVolume": 4634,
      "RA": 4635,
      "Some": 4636,
      "caw": 4637,
      "duration": 4638,
      "draw": 4639,
      "domain": 4640,
      "fric": 4641,
      "graph": 4642,
      "lst": 4643,
      "ring": 4644,
      "range": 4645,
      "uded": 4646,
      "width": 4647,
      "}',": 4648,
      "Ġax": 4649,
      "à¤¿-": 4650,
      "atra": 4651,
      "relu": 4652,
      "Ġfri": 4653,
      "Ġfuture": 4654,
      "leop": 4655,
      "Ġphot": 4656,
      "itude": 4657,
      "images": 4658,
      "rodu": 4659,
      "rosa": 4660,
      "anes": 4661,
      "Ġmonitoring": 4662,
      "Ġwarning": 4663,
      "Ġdir": 4664,
      "eter": 4665,
      "asing": 4666,
      "asting": 4667,
      "Ġbad": 4668,
      "Ġlower": 4669,
      "Ġreaction": 4670,
      "change": 4671,
      "ĠPOINT": 4672,
      "Ġ'%": 4673,
      "Ġ'.": 4674,
      "ĠTra": 4675,
      "ĠTime": 4676,
      "uler": 4677,
      "Ġgames": 4678,
      "ĠCol": 4679,
      "ĠCLS": 4680,
      "ĠIoT": 4681,
      "ĠDep": 4682,
      "irus": 4683,
      "endl": 4684,
      "ĠFinal": 4685,
      "ĠET": 4686,
      "Ġexists": 4687,
      "ĠBy": 4688,
      "Ġalways": 4689,
      "ĠGame": 4690,
      "Ġrespect": 4691,
      "Ġlearn": 4692,
      "ĠThey": 4693,
      "Ġmanage": 4694,
      "Ġprocessed": 4695,
      "Ġpygame": 4696,
      "active": 4697,
      "Ġsection": 4698,
      "Ġcommit": 4699,
      "Ġadds": 4700,
      "ĠAnalyzing": 4701,
      "commit": 4702,
      "Ġgetting": 4703,
      "ĠAdditional": 4704,
      "prec": 4705,
      "Ġtests": 4706,
      "Ġcollections": 4707,
      "olding": 4708,
      "Ġfeatures": 4709,
      "1234": 4710,
      "Scan": 4711,
      "Ġdeploy": 4712,
      "Ġ2008": 4713,
      "Ġsummar": 4714,
      "Ġprograms": 4715,
      "ĠUniversity": 4716,
      "trained": 4717,
      "Ġmarkdown": 4718,
      "books": 4719,
      "CTX": 4720,
      "Ġensures": 4721,
      "medi": 4722,
      "chema": 4723,
      "lambda": 4724,
      "Ġcells": 4725,
      "Ġadditional": 4726,
      "Ġapproach": 4727,
      "ĠÂ·": 4728,
      "avigate": 4729,
      "ĠAudioUtilities": 4730,
      "operations": 4731,
      "Ġindustry": 4732,
      "Ġcertain": 4733,
      "Ġmembrane": 4734,
      "Ġlittle": 4735,
      "leopatra": 4736,
      "ĠPOINTER": 4737,
      "ĠCLSCTX": 4738,
      "\".": 4739,
      "'m": 4740,
      "'re": 4741,
      "15": 4742,
      "60": 4743,
      "Call": 4744,
      "Le": 4745,
      "Make": 4746,
      "NN": 4747,
      "PE": 4748,
      "SH": 4749,
      "aded": 4750,
      "cv": 4751,
      "cout": 4752,
      "done": 4753,
      "ev": 4754,
      "iers": 4755,
      "kit": 4756,
      "normal": 4757,
      "rag": 4758,
      "schedule": 4759,
      "tree": 4760,
      "ycle": 4761,
      "Ġ...": 4762,
      "Ġsleep": 4763,
      "Ġfib": 4764,
      "Ġfurther": 4765,
      "Ġpix": 4766,
      "Ġpatient": 4767,
      "alf": 4768,
      "alar": 4769,
      "Ġmove": 4770,
      "Ġtow": 4771,
      "ently": 4772,
      "usion": 4773,
      "Ġdownload": 4774,
      "à¤µà¤µà¤¤": 4775,
      "Ġnn": 4776,
      "ĠAmeric": 4777,
      "ĠAfric": 4778,
      "à¤¬à¤¤": 4779,
      "ember": 4780,
      "rake": 4781,
      "Ġgrid": 4782,
      "istic": 4783,
      "Ġdecl": 4784,
      "Ġà¤¬à¤«à¤°": 4785,
      "ĠDet": 4786,
      "ĠDisk": 4787,
      "Ġisinstance": 4788,
      "ope": 4789,
      "Ġà¤ħà¤¦": 4790,
      "à¤ħà¤Ń": 4791,
      "pared": 4792,
      "ĠLoc": 4793,
      "ĠGTK": 4794,
      "ĠOther": 4795,
      "ĠOptim": 4796,
      "à¤īà¤ľ": 4797,
      "Ġscan": 4798,
      "Ġlisten": 4799,
      "Ġadjust": 4800,
      "thern": 4801,
      "avor": 4802,
      "Ġimpl": 4803,
      "Ġpermission": 4804,
      "Ġparent": 4805,
      "Ġparam": 4806,
      "roll": 4807,
      "aks": 4808,
      "Ġprevent": 4809,
      "Ġsuff": 4810,
      "Ġneeded": 4811,
      "Ġneighbor": 4812,
      "Ġanalytics": 4813,
      "ĠConvert": 4814,
      "Ġdiagn": 4815,
      "ĠAdding": 4816,
      "Ġgenerated": 4817,
      "Ġgenerator": 4818,
      "Ġable": 4819,
      "onstrate": 4820,
      "Ġbuilding": 4821,
      "**:": 4822,
      "****": 4823,
      "Ġfeel": 4824,
      "ĠEnvironment": 4825,
      "rypted": 4826,
      "Ġsecure": 4827,
      "Ġamong": 4828,
      "Ġconstant": 4829,
      "color": 4830,
      "Ġcalls": 4831,
      "Ġrights": 4832,
      "Ġpopulation": 4833,
      "Ġupper": 4834,
      "dividual": 4835,
      "ĠServer": 4836,
      "Discuss": 4837,
      "ĠDisplay": 4838,
      "Ġverdict": 4839,
      "correct": 4840,
      "Ġconnected": 4841,
      "metadata": 4842,
      "translated": 4843,
      "Ġgreater": 4844,
      "Ġselected": 4845,
      "Ġearly": 4846,
      "Ġcoordinates": 4847,
      "Ġdebugging": 4848,
      "DIR": 4849,
      "Ġveh": 4850,
      "Empty": 4851,
      "kisi": 4852,
      "Ġqueue": 4853,
      "aussian": 4854,
      "(_": 4855,
      "Copy": 4856,
      "EX": 4857,
      "EY": 4858,
      "Group": 4859,
      "Mod": 4860,
      "OFF": 4861,
      "PA": 4862,
      "RET": 4863,
      "SO": 4864,
      "Tree": 4865,
      "UL": 4866,
      "Xlib": 4867,
      "brightness": 4868,
      "cos": 4869,
      "cement": 4870,
      "eq": 4871,
      "jor": 4872,
      "light": 4873,
      "math": 4874,
      "mov": 4875,
      "pol": 4876,
      "ploy": 4877,
      "ral": 4878,
      "sort": 4879,
      "src": 4880,
      "uro": 4881,
      "wb": 4882,
      "windows": 4883,
      "}%": 4884,
      "Ġvector": 4885,
      "Ġapi": 4886,
      "Ġcare": 4887,
      "Ġcolumn": 4888,
      "Ġfive": 4889,
      "Ġtuple": 4890,
      "Ġpay": 4891,
      "imest": 4892,
      "role": 4893,
      "à¤®à¤ķ": 4894,
      "Ġinsert": 4895,
      "Ġmail": 4896,
      "Ġmaterial": 4897,
      "ything": 4898,
      "Ġtoday": 4899,
      "Ġdu": 4900,
      "Ġdays": 4901,
      "orts": 4902,
      "oman": 4903,
      "Ġlatest": 4904,
      "Ġrevers": 4905,
      "stop": 4906,
      "Ġhot": 4907,
      "aging": 4908,
      "Ġ'(.": 4909,
      "emb": 4910,
      "admin": 4911,
      "ĠCount": 4912,
      "ested": 4913,
      "sequ": 4914,
      "quential": 4915,
      "ĠII": 4916,
      "ĠSur": 4917,
      "Ġstatist": 4918,
      "ĠDes": 4919,
      "Ġ`(.": 4920,
      "Ġprof": 4921,
      "Ġprofile": 4922,
      "Ġever": 4923,
      "ĠModel": 4924,
      "Ġcomments": 4925,
      "Ġcomponent": 4926,
      "ĠHind": 4927,
      "aps": 4928,
      "ĠNot": 4929,
      "Ġbeg": 4930,
      "Ġ});": 4931,
      "Ġlead": 4932,
      "Ġscient": 4933,
      "ryption": 4934,
      "illing": 4935,
      "ĠInt": 4936,
      ")),": 4937,
      "ĠView": 4938,
      "Ġjo": 4939,
      "Ġuntil": 4940,
      "ared": 4941,
      "Ġobtain": 4942,
      "Ġqueries": 4943,
      "ynchron": 4944,
      "Ġstrings": 4945,
      "Ġcreation": 4946,
      "ĠListing": 4947,
      "netsh": 4948,
      "ĠRead": 4949,
      "Process": 4950,
      "Ġimmedi": 4951,
      "Ġstdout": 4952,
      "Ġsecond": 4953,
      "sendmail": 4954,
      "Script": 4955,
      "Ġpositive": 4956,
      "Ġsupply": 4957,
      "Ġvalidate": 4958,
      "Ġargs": 4959,
      "Ġprogramming": 4960,
      "Ġrelated": 4961,
      "Ġindic": 4962,
      "database": 4963,
      "ographic": 4964,
      "Ġdestination": 4965,
      "URN": 4966,
      "Ġincludes": 4967,
      "caten": 4968,
      "Ġ+)'": 4969,
      "GtkSource": 4970,
      "Ġproblems": 4971,
      "ĠRemove": 4972,
      "Color": 4973,
      "Ġsyntax": 4974,
      "Ġretrieves": 4975,
      "Ġdecorator": 4976,
      "Ġidentify": 4977,
      "Ġreceived": 4978,
      "Ġexercises": 4979,
      "Ġfamily": 4980,
      "Remove": 4981,
      "Ġassociated": 4982,
      "ĠEntering": 4983,
      "Ġlibrosa": 4984,
      "known": 4985,
      "allel": 4986,
      "ĠLeaving": 4987,
      "17": 4988,
      "=(": 4989,
      "=['": 4990,
      ">();": 4991,
      "IO": 4992,
      "Min": 4993,
      "NU": 4994,
      "Perform": 4995,
      "Point": 4996,
      "Qu": 4997,
      "Usage": 4998,
      "Web": 4999,
      "[-": 5000,
      "ca": 5001,
      "csh": 5002,
      "css": 5003,
      "dd": 5004,
      "network": 5005,
      "oom": 5006,
      "ools": 5007,
      "patch": 5008,
      "sd": 5009,
      "space": 5010,
      "}\\": 5011,
      "Ġqrcode": 5012,
      "thes": 5013,
      "onacc": 5014,
      "ering": 5015,
      "att": 5016,
      "ataset": 5017,
      "Ġsit": 5018,
      "Ġswitch": 5019,
      "Ġca": 5020,
      "Ġcal": 5021,
      "Ġpublish": 5022,
      "room": 5023,
      "ares": 5024,
      "Ġà¤¸à¤¨": 5025,
      "à¤¹à¤¸": 5026,
      "Ġindividual": 5027,
      "Ġmus": 5028,
      "Ġmig": 5029,
      "Ġmole": 5030,
      "Ġwx": 5031,
      "usp": 5032,
      "Ġduration": 5033,
      "Ġdraw": 5034,
      "Ġbi": 5035,
      "à¤ľà¤¬": 5036,
      "Ġlarg": 5037,
      "Ġrefer": 5038,
      "Ġnet": 5039,
      "exp": 5040,
      "Ġà¤¹à¤¸": 5041,
      "')')": 5042,
      "Ġyield": 5043,
      "ĠCustom": 5044,
      "ĠCenter": 5045,
      "ĠCleopatra": 5046,
      "ĠSec": 5047,
      "Ġasynchron": 5048,
      "Ġvulner": 5049,
      "ires": 5050,
      "à¤ħà¤¸": 5051,
      "height": 5052,
      "ĠManag": 5053,
      "ĠMicrosoft": 5054,
      "ĠFernet": 5055,
      "Ġcomb": 5056,
      "ĠLang": 5057,
      "ipedia": 5058,
      "ĠWest": 5059,
      "ideos": 5060,
      "angle": 5061,
      "context": 5062,
      "Ġmeans": 5063,
      "ĠOne": 5064,
      "Ġà¤¤à¤°": 5065,
      "Ġenv": 5066,
      "abled": 5067,
      "Ġscreenshot": 5068,
      "Ġscanning": 5069,
      "Ġlistener": 5070,
      "weight": 5071,
      "Ġaccept": 5072,
      "Ġdise": 5073,
      "Ġquality": 5074,
      "Ġextern": 5075,
      "Ġ587": 5076,
      "Ġtransaction": 5077,
      "logging": 5078,
      "Ġcounty": 5079,
      "Ġcountry": 5080,
      "Ġworking": 5081,
      "Ġcommands": 5082,
      "ĠYork": 5083,
      "news": 5084,
      "à¤¸à¤«à¤²à¤¤": 5085,
      "Ġagents": 5086,
      "Ġvision": 5087,
      "Ġvisited": 5088,
      "Ġsignal": 5089,
      "ikipedia": 5090,
      "ĠPygame": 5091,
      "Ġupdating": 5092,
      "Ġextracted": 5093,
      "Ġeditor": 5094,
      "Ġtopic": 5095,
      "Ġaccuracy": 5096,
      "Ġwriter": 5097,
      "Controller": 5098,
      "'})": 5099,
      "Ġdivide": 5100,
      "Ġmatrix": 5101,
      "ĠSimulate": 5102,
      "Ġincrease": 5103,
      "Ġproduction": 5104,
      "Ġrepresenting": 5105,
      "Ġtele": 5106,
      "Ġunderstanding": 5107,
      "Ġelectrons": 5108,
      "Ġdifficult": 5109,
      "Ġà¤ĳà¤¡": 5110,
      "Ġassistant": 5111,
      "Ġmaking": 5112,
      "Ġassignment": 5113,
      "Ġforecasting": 5114,
      "Manage": 5115,
      "Ġlegisl": 5116,
      "Ġexperiences": 5117,
      "Level": 5118,
      "RETURN": 5119,
      "imestamp": 5120,
      "csharp": 5121,
      "onacci": 5122,
      "Ġasynchronous": 5123,
      "!(\"": 5124,
      "(__": 5125,
      "+')": 5126,
      ".__": 5127,
      ">'": 5128,
      "CD": 5129,
      "Ctr": 5130,
      "Capture": 5131,
      "Des": 5132,
      "Function": 5133,
      "HE": 5134,
      "Lib": 5135,
      "MA": 5136,
      "PDF": 5137,
      "]+": 5138,
      "aim": 5139,
      "cap": 5140,
      "fix": 5141,
      "here": 5142,
      "kg": 5143,
      "ko": 5144,
      "rm": 5145,
      "rations": 5146,
      "sol": 5147,
      "tom": 5148,
      "vis": 5149,
      "volution": 5150,
      "à¤°à¤ħ": 5151,
      "à¤°à¤Ĺà¤¤": 5152,
      "erial": 5153,
      "Ġsending": 5154,
      "à¤¨à¤ľ": 5155,
      "inger": 5156,
      "Ġcost": 5157,
      "Ġclose": 5158,
      "Ġcapture": 5159,
      "à¤¸à¤ıà¤®à¤ıà¤²": 5160,
      "Ġtree": 5161,
      "à¤¤à¤ľ": 5162,
      "Ġpipeline": 5163,
      "Ġinstr": 5164,
      "Ġwhether": 5165,
      "used": 5166,
      "Ġant": 5167,
      "Ġannot": 5168,
      "Ġanswer": 5169,
      "Ġburs": 5170,
      "à¤µà¤¯à¤¨": 5171,
      "Ġrele": 5172,
      "Ġremain": 5173,
      "une": 5174,
      "che": 5175,
      "ĠPlay": 5176,
      "ĠAlex": 5177,
      "ĠTuple": 5178,
      "oline": 5179,
      "idence": 5180,
      "Ġà¤®à¤Ī": 5181,
      "Ġgaming": 5182,
      "ĠId": 5183,
      "Ġstock": 5184,
      "ĠDiff": 5185,
      "ĠDjango": 5186,
      "ither": 5187,
      "opandas": 5188,
      "about": 5189,
      "à¤ħà¤ķ": 5190,
      "endar": 5191,
      "Ġ18": 5192,
      "ĠMiss": 5193,
      "ĠRuss": 5194,
      "ĠRestart": 5195,
      "Ġà¤ªà¤°à¤¸": 5196,
      "ĠBut": 5197,
      "series": 5198,
      "Ġkind": 5199,
      "à¤ªà¤°à¤¸": 5200,
      "']['": 5201,
      "__)": 5202,
      "Ġscikit": 5203,
      "ĠImport": 5204,
      "ffic": 5205,
      "ysc": 5206,
      "Ġtraditional": 5207,
      "Ġseem": 5208,
      "Ġdiscover": 5209,
      "Ġheight": 5210,
      "Ġoperator": 5211,
      "oving": 5212,
      "ĠQiskit": 5213,
      "à¤ıà¤¸à¤¡": 5214,
      "Ġgeneration": 5215,
      "Thread": 5216,
      "peech": 5217,
      "Ġradi": 5218,
      "layout": 5219,
      "ĠAPIs": 5220,
      "Ġloading": 5221,
      "Scalar": 5222,
      "Ġremind": 5223,
      "transform": 5224,
      "trainer": 5225,
      "Ġports": 5226,
      "Ġediting": 5227,
      "Ġmarket": 5228,
      "Ġcorrected": 5229,
      "Ġbooks": 5230,
      "Ġsupports": 5231,
      "Ġlayer": 5232,
      "chemy": 5233,
      "Ġà¤ľà¤¬à¤¤à¤ķ": 5234,
      "Ġinflu": 5235,
      "powerment": 5236,
      "Ġmedical": 5237,
      "Ġmanipulate": 5238,
      "Ġquestions": 5239,
      "Ġapplied": 5240,
      "Ġfitness": 5241,
      "porary": 5242,
      "Ġmaintain": 5243,
      "Ġdigital": 5244,
      "ĠFinding": 5245,
      "Trace": 5246,
      "Ġwrapper": 5247,
      "Ġsignificant": 5248,
      "ĠOptimizing": 5249,
      "Ġexternal": 5250,
      "Ctrl": 5251,
      "-%": 5252,
      ".%": 5253,
      "29": 5254,
      "Custom": 5255,
      "Deb": 5256,
      "Fact": 5257,
      "Found": 5258,
      "FIL": 5259,
      "Kit": 5260,
      "LM": 5261,
      "NE": 5262,
      "Track": 5263,
      "_,": 5264,
      "balance": 5265,
      "cast": 5266,
      "cript": 5267,
      "free": 5268,
      "gn": 5269,
      "gen": 5270,
      "gery": 5271,
      "lers": 5272,
      "move": 5273,
      "next": 5274,
      "nAI": 5275,
      "push": 5276,
      "rs": 5277,
      "rar": 5278,
      "tmp": 5279,
      "tls": 5280,
      "water": 5281,
      "yr": 5282,
      "Ġign": 5283,
      "iness": 5284,
      "erapy": 5285,
      "à¤²à¤¸": 5286,
      "Ġsession": 5287,
      "à¤¨à¤Ł": 5288,
      "Ġcult": 5289,
      "Ġflow": 5290,
      "Ġpap": 5291,
      "Ġpast": 5292,
      "Ġpick": 5293,
      "Ġpaint": 5294,
      "à¤Łà¤µ": 5295,
      "Ġinvo": 5296,
      "Ġdialog": 5297,
      "impl": 5298,
      "ambda": 5299,
      "chat": 5300,
      "Ġ(\"": 5301,
      "Ġ('": 5302,
      "ĠPtosis": 5303,
      "Ġhind": 5304,
      "Ġhold": 5305,
      "Ġhouse": 5306,
      "Ġà¤¹à¤²": 5307,
      "ĠAut": 5308,
      "Ġà¤²à¤Ĺ": 5309,
      "ĠSimple": 5310,
      "Ġdelay": 5311,
      "Ġvia": 5312,
      "Ġ15": 5313,
      "forcement": 5314,
      "plicate": 5315,
      "Ġ\"-": 5316,
      "ĠFTP": 5317,
      "ĠRandom": 5318,
      "Ġchem": 5319,
      "artment": 5320,
      "à¤Ĩà¤ªà¤°": 5321,
      "ipe": 5322,
      "ĠGI": 5323,
      "ĠGNU": 5324,
      "à¤µà¤°à¤ķ": 5325,
      "Inter": 5326,
      "Ġscore": 5327,
      "Ġlisting": 5328,
      "Ġà¤īà¤²à¤Ł": 5329,
      "Ġimpact": 5330,
      "ĠThese": 5331,
      "Ġtraffic": 5332,
      "Ġparallel": 5333,
      "Ġseen": 5334,
      "shore": 5335,
      "shutil": 5336,
      "Ġdiscuss": 5337,
      "Ġpred": 5338,
      "Ġseries": 5339,
      "Ġserial": 5340,
      "lists": 5341,
      "Ġhandler": 5342,
      "ĠChat": 5343,
      "olumns": 5344,
      "ĠKar": 5345,
      "ventory": 5346,
      "Ġoperating": 5347,
      "Ġdoor": 5348,
      "dfFile": 5349,
      "Ġcurrently": 5350,
      "atterBot": 5351,
      "strings": 5352,
      "Ġemails": 5353,
      "recent": 5354,
      "ĠYour": 5355,
      "128": 5356,
      "Ġstarts": 5357,
      "Ġpossible": 5358,
      "Ġsentence": 5359,
      "Ġextracts": 5360,
      "Ġstructures": 5361,
      "Ġflask": 5362,
      "ĠArray": 5363,
      "Ġintegr": 5364,
      "Service": 5365,
      "When": 5366,
      "Ġenumerate": 5367,
      "stdout": 5368,
      "ascript": 5369,
      "Ġlicenses": 5370,
      "Ġhashlib": 5371,
      "alyzer": 5372,
      "headers": 5373,
      "Ġdecorators": 5374,
      "ĠIsolation": 5375,
      "Subject": 5376,
      "Ġinitiative": 5377,
      "Ġcrude": 5378,
      "ĠUSB": 5379,
      "Box": 5380,
      "Automate": 5381,
      "ĠREST": 5382,
      "Ġmorning": 5383,
      "Ġhappen": 5384,
      "description": 5385,
      "tructure": 5386,
      "GtkSourceView": 5387,
      "uspicious": 5388,
      "Debug": 5389,
      ".',": 5390,
      "18": 5391,
      "Current": 5392,
      "Fetch": 5393,
      "ION": 5394,
      "Master": 5395,
      "None": 5396,
      "PT": 5397,
      "ROM": 5398,
      "]['": 5399,
      "]])": 5400,
      "bb": 5401,
      "bound": 5402,
      "cd": 5403,
      "diff": 5404,
      "hanc": 5405,
      "jav": 5406,
      "kes": 5407,
      "li": 5408,
      "lat": 5409,
      "last": 5410,
      "music": 5411,
      "person": 5412,
      "sql": 5413,
      "twe": 5414,
      "xy": 5415,
      "Ã©": 5416,
      "inf": 5417,
      "à¤°à¤²": 5418,
      "ones": 5419,
      "esar": 5420,
      "Ġfinally": 5421,
      "Ġfailed": 5422,
      "à¥Ģ.": 5423,
      "Ġtell": 5424,
      "Ġtreat": 5425,
      "à¤ªà¤¹à¤²": 5426,
      "à¤¯à¤¬": 5427,
      "route": 5428,
      "aration": 5429,
      "Ġinj": 5430,
      "Ġindepend": 5431,
      "Ġmob": 5432,
      "Ġwor": 5433,
      "Ġways": 5434,
      "Ġanim": 5435,
      "omes": 5436,
      "omen": 5437,
      "Ġbattery": 5438,
      "Ġlater": 5439,
      "Ġlaptop": 5440,
      "à¤ĩà¤µ": 5441,
      "Ġredirect": 5442,
      "Ġreverse": 5443,
      "ament": 5444,
      "char": 5445,
      "stack": 5446,
      "exception": 5447,
      "Ġhaving": 5448,
      "ĠAN": 5449,
      "à¤¬à¤¹": 5450,
      "');": 5451,
      "ements": 5452,
      "oller": 5453,
      "otify": 5454,
      "umPy": 5455,
      "ĠCall": 5456,
      "ĠINT": 5457,
      "istry": 5458,
      "ĠDi": 5459,
      "ĠDr": 5460,
      "ĠDist": 5461,
      "ablish": 5462,
      "Ġà¤ħà¤ªà¤¨": 5463,
      "Ġconvers": 5464,
      "Ġconduct": 5465,
      "Ġey": 5466,
      "plac": 5467,
      "plane": 5468,
      "ĠMode": 5469,
      "ĠRoller": 5470,
      "ersion": 5471,
      "ership": 5472,
      "serve": 5473,
      "ĠLear": 5474,
      "tools": 5475,
      "Ġprints": 5476,
      "ivirus": 5477,
      "à¤Ľà¤°": 5478,
      "ocity": 5479,
      "Ġadmin": 5480,
      "team": 5481,
      "param": 5482,
      "params": 5483,
      "roller": 5484,
      "Ġpredict": 5485,
      "Ġnever": 5486,
      "Ġmodules": 5487,
      "ĠChatterBot": 5488,
      "Ġoutside": 5489,
      "Ġextends": 5490,
      "Ġ50": 5491,
      "Ġdirectly": 5492,
      "starttls": 5493,
      "rives": 5494,
      "ĠStep": 5495,
      "Ġstatements": 5496,
      "Ġsimulations": 5497,
      "Progress": 5498,
      "Stack": 5499,
      "Ġplayer": 5500,
      "Ġ199": 5501,
      "temp": 5502,
      "Ġwhole": 5503,
      "Ġcomplet": 5504,
      "Ġsummary": 5505,
      "packages": 5506,
      "Ġdescrib": 5507,
      "points": 5508,
      "Ġedge": 5509,
      "Ġactivities": 5510,
      "Ġpassed": 5511,
      "datetime": 5512,
      "Ġoptimize": 5513,
      "Ġfiltering": 5514,
      "Admin": 5515,
      "Ġposts": 5516,
      "Ġlevels": 5517,
      "Ġdivision": 5518,
      "Ġfinish": 5519,
      "ĠDevelopment": 5520,
      "Ġentry": 5521,
      "suite": 5522,
      "Application": 5523,
      "reshold": 5524,
      "ighbors": 5525,
      "Ġremoved": 5526,
      "Ġterms": 5527,
      "afka": 5528,
      "Ġproperly": 5529,
      "Ġfrequency": 5530,
      "ĠOptional": 5531,
      "yperclip": 5532,
      "ĠReport": 5533,
      "ĠCaesar": 5534,
      "Ġgovernment": 5535,
      "Layout": 5536,
      "Phone": 5537,
      "optimizer": 5538,
      "Ġwarnings": 5539,
      "Ġhindi": 5540,
      "javascript": 5541,
      ".\")": 5542,
      "Equal": 5543,
      "GObject": 5544,
      "It": 5545,
      "OAuth": 5546,
      "OUT": 5547,
      "au": 5548,
      "bon": 5549,
      "cp": 5550,
      "cam": 5551,
      "core": 5552,
      "handler": 5553,
      "iB": 5554,
      "jesh": 5555,
      "mapp": 5556,
      "msc": 5557,
      "mak": 5558,
      "monitor": 5559,
      "over": 5560,
      "pattern": 5561,
      "ras": 5562,
      "year": 5563,
      "«Ð": 5564,
      "Ð«Ð": 5565,
      "Ġur": 5566,
      "Ġà¤ł": 5567,
      "inforcement": 5568,
      "à¤°à¤Ń": 5569,
      "Ġaff": 5570,
      "oring": 5571,
      "orrow": 5572,
      "Ġsix": 5573,
      "Ġsays": 5574,
      "Ġcatch": 5575,
      "Ġclick": 5576,
      "Ġfig": 5577,
      "à¤¸à¤«": 5578,
      "Ġpatterns": 5579,
      "à¤¯à¤µà¤¸": 5580,
      "arity": 5581,
      "Ġinvalid": 5582,
      "Ġincoming": 5583,
      "Ġmount": 5584,
      "ici": 5585,
      "asp": 5586,
      "ortun": 5587,
      "Ġbr": 5588,
      "chan": 5589,
      "Ġnodes": 5590,
      "ilio": 5591,
      "ĠPost": 5592,
      "ĠTem": 5593,
      "emble": 5594,
      "ado": 5595,
      "ĠSD": 5596,
      "ĠSw": 5597,
      "Ġdecode": 5598,
      "Ġà¤¬à¤¢": 5599,
      "ĠDouble": 5600,
      "Ġvel": 5601,
      "anda": 5602,
      "à¤§à¤°": 5603,
      "Ġepo": 5604,
      "Ġ14": 5605,
      "ĠMark": 5606,
      "ĠEmp": 5607,
      "paign": 5608,
      "ĠBl": 5609,
      "ipes": 5610,
      "ĠHis": 5611,
      "ĠNumPy": 5612,
      "Ġprintln": 5613,
      "à¤Ľà¤ª": 5614,
      "Ġà¤¤à¤ķà¤¨": 5615,
      "Ġà¤¤à¤°à¤¹": 5616,
      "Ġeng": 5617,
      "oca": 5618,
      "Ġcloud": 5619,
      "à¤īà¤ªà¤²à¤¬": 5620,
      "Ġnotes": 5621,
      "Ġadult": 5622,
      "Ġ02": 5623,
      "Ġshows": 5624,
      ")))": 5625,
      "Ġà¤īà¤Ń": 5626,
      "aved": 5627,
      "php": 5628,
      "Ġxml": 5629,
      "Ġclassification": 5630,
      "Ġemploy": 5631,
      "Ġimplements": 5632,
      "Ġ</": 5633,
      "udents": 5634,
      "Ġmodify": 5635,
      "ĠChile": 5636,
      "Ġà¤Ńà¤£": 5637,
      "Ġtransport": 5638,
      "Ġintern": 5639,
      "echo": 5640,
      "pred": 5641,
      "Ġcollection": 5642,
      "Ġcollabor": 5643,
      "ĠReg": 5644,
      "ĠĠĠĠĠĠĠĠĠ": 5645,
      "ensors": 5646,
      "recogn": 5647,
      "recipient": 5648,
      "Ġparts": 5649,
      "ursion": 5650,
      "Ġpsy": 5651,
      "validate": 5652,
      "ĠURLs": 5653,
      "ĠâĢľ%": 5654,
      "ĠUnion": 5655,
      "Ġstudent": 5656,
      "Ġformatting": 5657,
      "package": 5658,
      "nums": 5659,
      "qrMet": 5660,
      "spec": 5661,
      "typescript": 5662,
      "Ġtweets": 5663,
      "Ġ2012": 5664,
      "Ġencryption": 5665,
      "SSL": 5666,
      "Ġexpressions": 5667,
      "hostname": 5668,
      "Server": 5669,
      "Ġcommunity": 5670,
      "ĠValid": 5671,
      "Ġdesigned": 5672,
      "Ġpoints": 5673,
      "Ġlayers": 5674,
      "Ġqiskit": 5675,
      "Ġdependency": 5676,
      "Ġdependencies": 5677,
      "Active": 5678,
      "Ġexercise": 5679,
      "Ġtechnology": 5680,
      "Ġquestion": 5681,
      "ĠDNA": 5682,
      "plicates": 5683,
      "Ġcampaign": 5684,
      "Ġseparate": 5685,
      "5678": 5686,
      "Default": 5687,
      "Ġreduce": 5688,
      "Ġdamage": 5689,
      "Ġstrategies": 5690,
      "kajha": 5691,
      "ĠIntegr": 5692,
      "ĠJournal": 5693,
      "ributed": 5694,
      "precated": 5695,
      "avorite": 5696,
      "EXT": 5697,
      "Ġreversed": 5698,
      "jeshkajha": 5699,
      "\">": 5700,
      "65": 5701,
      "=$": 5702,
      ">(": 5703,
      "Canvas": 5704,
      "DAT": 5705,
      "Game": 5706,
      "KEY": 5707,
      "Network": 5708,
      "Pix": 5709,
      "Work": 5710,
      "Wait": 5711,
      "bell": 5712,
      "cate": 5713,
      "cell": 5714,
      "drop": 5715,
      "ieve": 5716,
      "kind": 5717,
      "late": 5718,
      "mt": 5719,
      "mos": 5720,
      "nel": 5721,
      "pin": 5722,
      "pid": 5723,
      "qc": 5724,
      "rest": 5725,
      "rating": 5726,
      "sz": 5727,
      "sign": 5728,
      "sorted": 5729,
      "tar": 5730,
      "zA": 5731,
      "Ġesc": 5732,
      "Ġetc": 5733,
      "insert": 5734,
      "thers": 5735,
      "Ġach": 5736,
      "atives": 5737,
      "à¤ķà¤¤": 5738,
      "à¤ķà¤ł": 5739,
      "Ġsd": 5740,
      "Ġsun": 5741,
      "Ġsite": 5742,
      "Ġfu": 5743,
      "Ġflo": 5744,
      "Ġfolding": 5745,
      "Ġterm": 5746,
      "à¤¤à¤¸": 5747,
      "Ġput": 5748,
      "itis": 5749,
      "à¤¯à¤¦": 5750,
      "dec": 5751,
      "ana": 5752,
      "alyze": 5753,
      "Ġmal": 5754,
      "Ġmice": 5755,
      "editor": 5756,
      "Ġtouch": 5757,
      "users": 5758,
      "Ġden": 5759,
      "Ġforms": 5760,
      "Ġforward": 5761,
      "Ġbind": 5762,
      "Ġlive": 5763,
      "elay": 5764,
      "Ġreach": 5765,
      "ilit": 5766,
      "ĠPOST": 5767,
      "Ġhea": 5768,
      "Ġhistory": 5769,
      "ĠAll": 5770,
      "ulated": 5771,
      "Ġgl": 5772,
      "Ġground": 5773,
      "ĠCan": 5774,
      "rizon": 5775,
      "ĠSome": 5776,
      "ĠSud": 5777,
      "ĠSpeech": 5778,
      "istor": 5779,
      "à¤·à¤¤": 5780,
      "ably": 5781,
      "Ġprot": 5782,
      "Ġà¤ħà¤¸": 5783,
      "Ġconf": 5784,
      "Ġconnections": 5785,
      "eaker": 5786,
      "à¤ħà¤ªà¤¨": 5787,
      "Ġeither": 5788,
      "Ġ13": 5789,
      "Ġ17": 5790,
      "ĠMIM": 5791,
      "ĠFirewall": 5792,
      "ĠRea": 5793,
      "ĠRAM": 5794,
      "paper": 5795,
      "pache": 5796,
      "ueue": 5797,
      "compress": 5798,
      "Ġà¤ªà¤°à¤¤": 5799,
      "Ġexceed": 5800,
      "ĠBrit": 5801,
      "serial": 5802,
      "ĠHttp": 5803,
      "ĠNOT": 5804,
      "ĠGit": 5805,
      "Ġ};": 5806,
      "Ġmechan": 5807,
      "Ġappear": 5808,
      "ĠOb": 5809,
      "ĠOper": 5810,
      "Ġleaves": 5811,
      "ocurrency": 5812,
      "Ġ[\"": 5813,
      "irefo": 5814,
      "Ġareas": 5815,
      "Ġshop": 5816,
      "ĠVPN": 5817,
      "Ġspecial": 5818,
      "ĠImpro": 5819,
      "phet": 5820,
      "ously": 5821,
      "Ġunits": 5822,
      "Ġunittest": 5823,
      "Ġclasses": 5824,
      "PIPE": 5825,
      "Ġprec": 5826,
      "Ġintrodu": 5827,
      "Ġroom": 5828,
      "listdir": 5829,
      "vention": 5830,
      "à¤ļà¤¯à¤¨à¤ķ": 5831,
      "pose": 5832,
      "Ġradio": 5833,
      "ĠĠĠĠĠĠĠĠĊ": 5834,
      "Property": 5835,
      "ĠProgram": 5836,
      "Ġmetrics": 5837,
      "Ġeffectively": 5838,
      "Ġsaf": 5839,
      "Ġprim": 5840,
      "Ġcorrectly": 5841,
      "ĠCommand": 5842,
      "Ġreportlab": 5843,
      "Ġencoding": 5844,
      "à¤®à¤¦à¤¦à¤Ĺ": 5845,
      "Ġpolit": 5846,
      "Display": 5847,
      "method": 5848,
      "ĠZIP": 5849,
      "document": 5850,
      "Ġfactorial": 5851,
      "VolumeLevel": 5852,
      "à¤¯à¤ªà¤°à¤Ł": 5853,
      "Ġequal": 5854,
      "Ġvisualize": 5855,
      "Ġlinks": 5856,
      "256": 5857,
      "ascade": 5858,
      "Update": 5859,
      "Ġà¤ıà¤®à¤¡": 5860,
      "Ġhardware": 5861,
      "Ġintegers": 5862,
      "Ġfluid": 5863,
      "Ġchoice": 5864,
      "complete": 5865,
      "ĠMedic": 5866,
      "ĠFetching": 5867,
      "Ġeconomic": 5868,
      "Ġdetermine": 5869,
      "urope": 5870,
      "yscale": 5871,
      "ĠKaruk": 5872,
      "MasterVolumeLevel": 5873,
      "irefox": 5874,
      "MasterVolumeLevelScalar": 5875,
      "(('": 5876,
      "/.": 5877,
      "04": 5878,
      ":\\\\": 5879,
      ">>": 5880,
      "Button": 5881,
      "CSS": 5882,
      "Dem": 5883,
      "Email": 5884,
      "Fe": 5885,
      "He": 5886,
      "IC": 5887,
      "Json": 5888,
      "SL": 5889,
      "So": 5890,
      "Simple": 5891,
      "SQL": 5892,
      "Version": 5893,
      "average": 5894,
      "cal": 5895,
      "city": 5896,
      "cmd": 5897,
      "dll": 5898,
      "eam": 5899,
      "equal": 5900,
      "gz": 5901,
      "la": 5902,
      "mo": 5903,
      "messages": 5904,
      "sys": 5905,
      "sentiment": 5906,
      "ufact": 5907,
      "vf": 5908,
      "world": 5909,
      "wait": 5910,
      "xls": 5911,
      "yaw": 5912,
      "Ġ)": 5913,
      "Ġip": 5914,
      "ina": 5915,
      "only": 5916,
      "onial": 5917,
      "ored": 5918,
      "organ": 5919,
      "eric": 5920,
      "eros": 5921,
      "Ġsort": 5922,
      "Ġcirc": 5923,
      "Ġfour": 5924,
      "Ġfaces": 5925,
      "Ġtap": 5926,
      "Ġpages": 5927,
      "itles": 5928,
      "imread": 5929,
      "à¥ĩà¤Ĥ)": 5930,
      "à¤®à¤§": 5931,
      "cts": 5932,
      "Ġinc": 5933,
      "utf": 5934,
      "utorial": 5935,
      "Ġmicro": 5936,
      "ention": 5937,
      "Ġdirs": 5938,
      "à¤ıà¤¨à¤¯": 5939,
      "Ġbl": 5940,
      "Ġbar": 5941,
      "Ġbus": 5942,
      "Ġburn": 5943,
      "amily": 5944,
      "stream": 5945,
      "ĠPer": 5946,
      "ĠPan": 5947,
      "ĠProm": 5948,
      "ĠPath": 5949,
      "exec": 5950,
      "ĠTech": 5951,
      "empty": 5952,
      "raft": 5953,
      "olat": 5954,
      "cean": 5955,
      "Ġgc": 5956,
      "Ġgif": 5957,
      "Ġgain": 5958,
      "Ġgran": 5959,
      "ĠCG": 5960,
      "ĠCo": 5961,
      "ests": 5962,
      "rity": 5963,
      "ĠSF": 5964,
      "ĠSM": 5965,
      "Ġdecre": 5966,
      "Ġprob": 5967,
      "igning": 5968,
      "Ġconcurrent": 5969,
      "Ġà¤¦à¤¬": 5970,
      "Ġele": 5971,
      "plore": 5972,
      "Ġ\",": 5973,
      "Ġ\"__": 5974,
      "ĠHandle": 5975,
      "Ġwhite": 5976,
      "ĠGulf": 5977,
      "ivil": 5978,
      "Ġleast": 5979,
      "Ġenough": 5980,
      "Ġmajor": 5981,
      "Ġnote": 5982,
      "runAnd": 5983,
      "Ġlogged": 5984,
      "Ġupon": 5985,
      "ship": 5986,
      "screen": 5987,
      "Ġautomation": 5988,
      "roles": 5989,
      "ĠJan": 5990,
      "Ġservers": 5991,
      "Ġheat": 5992,
      "requests": 5993,
      "ĠKDE": 5994,
      "rainer": 5995,
      "eldrake": 5996,
      "ĠâĢ¢": 5997,
      "Ġinteractions": 5998,
      "ĠDebug": 5999,
      "Ġcounties": 6000,
      "ĠStatus": 6001,
      "atterbot": 6002,
      "Ġcollect": 6003,
      "ĠReading": 6004,
      "contains": 6005,
      "Product": 6006,
      "Start": 6007,
      "Ġparticle": 6008,
      "ĠEng": 6009,
      "temperature": 6010,
      "anned": 6011,
      "annot": 6012,
      "summary": 6013,
      "Ġ2006": 6014,
      "structor": 6015,
      "Ġà¤Īà¤®": 6016,
      "endswith": 6017,
      "perties": 6018,
      "ĠPyPDF": 6019,
      "boxes": 6020,
      "Ġargument": 6021,
      "where": 6022,
      "Ġbecame": 6023,
      "span": 6024,
      "Generate": 6025,
      "Ġpeer": 6026,
      "mazon": 6027,
      "Ġdisplaying": 6028,
      "Ġsurprise": 6029,
      "Ġattack": 6030,
      "Ġdestroy": 6031,
      "Ġpoll": 6032,
      "Ġoccurr": 6033,
      "Disable": 6034,
      "Ġauto": 6035,
      "Ġcompiled": 6036,
      "Ġconstructs": 6037,
      "ING": 6038,
      "Record": 6039,
      "gypt": 6040,
      "Ġverify": 6041,
      "Ġaccounts": 6042,
      "Ġcryptocurrency": 6043,
      "installer": 6044,
      "Ġlayout": 6045,
      "Spec": 6046,
      "Ġdynamic": 6047,
      "speed": 6048,
      "Ġ\\(": 6049,
      "Ġteam": 6050,
      "ĠQuantum": 6051,
      "Array": 6052,
      "fields": 6053,
      "ĠPlan": 6054,
      "Ġmanipulation": 6055,
      "Ġbelow": 6056,
      "Ġapplies": 6057,
      "Ġcomprehension": 6058,
      "dump": 6059,
      "dumps": 6060,
      "Install": 6061,
      "ĠIndia": 6062,
      "Ġà¤Ĩà¤īà¤Łà¤ª": 6063,
      "++)": 6064,
      "matrix": 6065,
      "ROOT": 6066,
      "ĠMethod": 6067,
      "ĠTracing": 6068,
      "Copyright": 6069,
      "ĠHindu": 6070,
      "Ġannotations": 6071,
      "Ġpaper": 6072,
      "OAuthHandler": 6073,
      "Ġvelocity": 6074,
      "xlsx": 6075,
      "runAndWait": 6076,
      "(-": 6077,
      "23": 6078,
      "44": 6079,
      "85": 6080,
      "Bluetooth": 6081,
      "CP": 6082,
      "CPU": 6083,
      "DO": 6084,
      "EP": 6085,
      "GL": 6086,
      "GPIO": 6087,
      "Hash": 6088,
      "MO": 6089,
      "NM": 6090,
      "Over": 6091,
      "Option": 6092,
      "Password": 6093,
      "TE": 6094,
      "Url": 6095,
      "Variable": 6096,
      "Zip": 6097,
      "]):": 6098,
      "bt": 6099,
      "clean": 6100,
      "ele": 6101,
      "every": 6102,
      "ftp": 6103,
      "hance": 6104,
      "hanced": 6105,
      "ki": 6106,
      "lang": 6107,
      "latest": 6108,
      "library": 6109,
      "overy": 6110,
      "sid": 6111,
      "sample": 6112,
      "times": 6113,
      "uck": 6114,
      "vity": 6115,
      "vious": 6116,
      "way": 6117,
      "wav": 6118,
      "Ġir": 6119,
      "orig": 6120,
      "erry": 6121,
      "Ġthough": 6122,
      "à¤ķà¤¤à¤®": 6123,
      "à¤²à¤ª": 6124,
      "à¤¨à¤¤à¤®": 6125,
      "Ġcos": 6126,
      "Ġcity": 6127,
      "Ġcoca": 6128,
      "requ": 6129,
      "repo": 6130,
      "Ġfar": 6131,
      "Ġfeder": 6132,
      "à¥Ģ:%": 6133,
      "Ġtur": 6134,
      "à¤¤à¤¤": 6135,
      "Ġpdf": 6136,
      "delete": 6137,
      "iments": 6138,
      "alind": 6139,
      "isf": 6140,
      "à¥ĩà¤Ĥ%": 6141,
      "à¥ĩà¤Ĥ,": 6142,
      "ctools": 6143,
      "Ġinsp": 6144,
      "utdown": 6145,
      "Ġmer": 6146,
      "Ġmid": 6147,
      "Ġwide": 6148,
      "Ġwall": 6149,
      "icial": 6150,
      "asons": 6151,
      "à¤ıà¤ļ": 6152,
      "Ġbug": 6153,
      "à¤ľà¤¶à¤¬": 6154,
      "Ġlik": 6155,
      "Ġlambda": 6156,
      "Ġreinforcement": 6157,
      "à¥Īà¤ĥ": 6158,
      "owers": 6159,
      "ĠPre": 6160,
      "ĠPlease": 6161,
      "ĠPdfFile": 6162,
      "Ġhear": 6163,
      "Ġ''": 6164,
      "ĠArizon": 6165,
      "à¥Ĥ-": 6166,
      "ĠTri": 6167,
      "rab": 6168,
      "(',": 6169,
      "ula": 6170,
      "Ġgr": 6171,
      "ume": 6172,
      "ump": 6173,
      "ĠCar": 6174,
      "ĠCeneo": 6175,
      "quares": 6176,
      "istration": 6177,
      "ĠDocker": 6178,
      "loid": 6179,
      "Ġrules": 6180,
      "ibonacci": 6181,
      "term": 6182,
      "Ġep": 6183,
      "ĠMod": 6184,
      "ĠMay": 6185,
      "ĠMary": 6186,
      "ĠMuse": 6187,
      "ĠEurope": 6188,
      "ĠEgypt": 6189,
      "oung": 6190,
      "ĠBlock": 6191,
      "Ġkeras": 6192,
      "cles": 6193,
      "Ġuseful": 6194,
      "ĠNe": 6195,
      "ĠGall": 6196,
      "ĠGraph": 6197,
      "ĠGPIO": 6198,
      "ultip": 6199,
      "']\")": 6200,
      "conf": 6201,
      "Ġappends": 6202,
      "resource": 6203,
      "ĠOver": 6204,
      "Ġleading": 6205,
      "Info": 6206,
      "Ġ[[": 6207,
      "Ġscen": 6208,
      "ensim": 6209,
      "Ġstrong": 6210,
      "antity": 6211,
      "Ġà¤Ķà¤ľ": 6212,
      "Ġshare": 6213,
      "Ġplanning": 6214,
      "Ġcontact": 6215,
      "Ġpermissions": 6216,
      "ĠThat": 6217,
      "Ġtrace": 6218,
      "Ġparams": 6219,
      "short": 6220,
      "shift": 6221,
      "Ġtextblob": 6222,
      "area": 6223,
      "scra": 6224,
      "Any": 6225,
      "parent": 6226,
      "à¤«à¤²à¤¤": 6227,
      "Ġdisc": 6228,
      "akes": 6229,
      "ĠJson": 6230,
      "Ġsetup": 6231,
      "Ġpredictions": 6232,
      "Ġprepared": 6233,
      "Ġrot": 6234,
      "Ġroute": 6235,
      "listen": 6236,
      "country": 6237,
      "ĠiPhone": 6238,
      "à¥Īà¤Ĥ,": 6239,
      "Ġperforms": 6240,
      "Ġextrem": 6241,
      "Ġtranslator": 6242,
      "Ġinterfaces": 6243,
      "lesh": 6244,
      "Ġsimulating": 6245,
      "record": 6246,
      "Ġdeveloper": 6247,
      "Ġminimum": 6248,
      "Ġstarted": 6249,
      "à¤Ĩà¤Īà¤¡": 6250,
      "ifications": 6251,
      "Ġletter": 6252,
      "Ġsecret": 6253,
      "results": 6254,
      "Ġ_,": 6255,
      "cheduler": 6256,
      "Ġdecision": 6257,
      "Ġsignature": 6258,
      "Ġsignals": 6259,
      "Ġitertools": 6260,
      "Ġbecome": 6261,
      "Ġstudies": 6262,
      "Ġinitialize": 6263,
      "Ġmetadata": 6264,
      "Ġeffective": 6265,
      "Ġrelative": 6266,
      "return": 6267,
      "Ġactivity": 6268,
      "Ġwebsocket": 6269,
      "Ġwebsites": 6270,
      "ricity": 6271,
      "Ġpackages": 6272,
      "Ġencounter": 6273,
      "\"\"\"": 6274,
      "Ġoptimizer": 6275,
      "ĠMyClass": 6276,
      "Ġmovie": 6277,
      "Ġoccurs": 6278,
      "Recogn": 6279,
      "Recognition": 6280,
      "ĠSQLite": 6281,
      "Ġexperience": 6282,
      "Ġrestart": 6283,
      "depth": 6284,
      "NotFound": 6285,
      "Ġ90": 6286,
      "Ġfactors": 6287,
      "Ġdoesn": 6288,
      "valuate": 6289,
      "Ġscheduled": 6290,
      "Ġpractices": 6291,
      "tasks": 6292,
      "Ġtransformed": 6293,
      "Ġmembers": 6294,
      "asyncio": 6295,
      "Ġregistry": 6296,
      "Ġrobotic": 6297,
      "Ġdetermin": 6298,
      "Ġtechniqu": 6299,
      "ĠPlace": 6300,
      "ĠExtracting": 6301,
      "Ġcentury": 6302,
      "ĠIndian": 6303,
      "Ġregistered": 6304,
      "({'": 6305,
      "ElementTree": 6306,
      "ĠCALs": 6307,
      "SELECTOR": 6308,
      "idden": 6309,
      "ĠConfiguration": 6310,
      "related": 6311,
      "Ġseveral": 6312,
      "Serializer": 6313,
      "ForestClassifier": 6314,
      "USER": 6315,
      "ĠTkinter": 6316,
      "windll": 6317,
      "Ġfunctools": 6318,
      "Ġcontinue": 6319,
      "Ġroundabout": 6320,
      "Ġexecuted": 6321,
      "Ġpatients": 6322,
      "ĠAfrica": 6323,
      "PATH": 6324,
      "Ġindicating": 6325,
      "Ġlargest": 6326,
      "Ġtelepath": 6327,
      "FILE": 6328,
      "Ġmobile": 6329,
      "ĠLearning": 6330,
      "mosph": 6331,
      "ĠSudan": 6332,
      "Ġpolitical": 6333,
      "ĠSFTT": 6334,
      "ĠMuseum": 6335,
      "Ġtechniques": 6336,
      ")):": 6337,
      "/{": 6338,
      "35": 6339,
      "47": 6340,
      "52": 6341,
      "<>();": 6342,
      "Access": 6343,
      "Cy": 6344,
      "Close": 6345,
      "COM": 6346,
      "Circuit": 6347,
      "Draw": 6348,
      "DVD": 6349,
      "Dialog": 6350,
      "Failed": 6351,
      "GET": 6352,
      "II": 6353,
      "Lo": 6354,
      "MM": 6355,
      "Max": 6356,
      "Oper": 6357,
      "Total": 6358,
      "WS": 6359,
      "](": 6360,
      "az": 6361,
      "buffer": 6362,
      "center": 6363,
      "days": 6364,
      "double": 6365,
      "driving": 6366,
      "eff": 6367,
      "even": 6368,
      "fg": 6369,
      "gent": 6370,
      "gmented": 6371,
      "global": 6372,
      "hold": 6373,
      "hood": 6374,
      "iation": 6375,
      "ky": 6376,
      "lin": 6377,
      "mount": 6378,
      "mqtt": 6379,
      "nd": 6380,
      "pad": 6381,
      "tw": 6382,
      "upper": 6383,
      "vars": 6384,
      "vanced": 6385,
      "wmic": 6386,
      "xl": 6387,
      "Ġill": 6388,
      "Ġà¤Ĭ": 6389,
      "erke": 6390,
      "Ġthing": 6391,
      "attr": 6392,
      "à¤ķà¤£": 6393,
      "à¤ķà¤ħà¤ª": 6394,
      "enum": 6395,
      "Ġson": 6396,
      "Ġsources": 6397,
      "à¤¨à¤µ": 6398,
      "Ġcy": 6399,
      "Ġcrit": 6400,
      "Ġfund": 6401,
      "Ġfont": 6402,
      "Ġfoot": 6403,
      "Ġteach": 6404,
      "Ġtitles": 6405,
      "Ġtutorial": 6406,
      "itect": 6407,
      "itute": 6408,
      "aring": 6409,
      "Ġà¤¸à¤ª": 6410,
      "Ġins": 6411,
      "Ġinside": 6412,
      "Ġinher": 6413,
      "Ġinventory": 6414,
      "Ġmix": 6415,
      "Ġwild": 6416,
      "Ġtoward": 6417,
      "icies": 6418,
      "icated": 6419,
      "Ġdark": 6420,
      "Ġbrightness": 6421,
      "à¤µà¤¯": 6422,
      "à¤µà¤¶": 6423,
      "Ġlove": 6424,
      "Ġliving": 6425,
      "elper": 6426,
      "à¤ĩà¤¡à¤°": 6427,
      "Ġreact": 6428,
      "Ġreactions": 6429,
      "Ġreasons": 6430,
      "amount": 6431,
      "iling": 6432,
      "ĠPC": 6433,
      "ifiers": 6434,
      "ĠAR": 6435,
      "ĠAmazon": 6436,
      "ĠTwe": 6437,
      "oles": 6438,
      "ceived": 6439,
      "ulating": 6440,
      "ĠSay": 6441,
      "Ġdeath": 6442,
      "Ġdeprecated": 6443,
      "Ġstats": 6444,
      "romko": 6445,
      "verts": 6446,
      "ĠDVD": 6447,
      "love": 6448,
      "pping": 6449,
      "abases": 6450,
      "Ġconcept": 6451,
      "Ġconsole": 6452,
      "ĠMr": 6453,
      "ĠMin": 6454,
      "ĠMet": 6455,
      "ĠRoman": 6456,
      "Ġcompare": 6457,
      "ĠBar": 6458,
      "ĠBot": 6459,
      "Ġchart": 6460,
      "clf": 6461,
      "dient": 6462,
      "à¤Ĩà¤Ł": 6463,
      "ĠUsage": 6464,
      "ipy": 6465,
      "ypes": 6466,
      "Ġwhites": 6467,
      "ĠNational": 6468,
      "Ġspeak": 6469,
      "Ġresolution": 6470,
      "'].": 6471,
      "cons": 6472,
      "conv": 6473,
      "Ġmeet": 6474,
      "ĠOr": 6475,
      "ĠOCR": 6476,
      "Ġled": 6477,
      "allow": 6478,
      "Insert": 6479,
      "ugs": 6480,
      "ensemble": 6481,
      "ĠIncre": 6482,
      "Ġatmosph": 6483,
      "Ġshutting": 6484,
      "Ġspecies": 6485,
      "Ġà¤īà¤¤": 6486,
      "avian": 6487,
      "actly": 6488,
      "Ġjoint": 6489,
      "Ġclassifier": 6490,
      "timeout": 6491,
      "Ġopenpy": 6492,
      "elling": 6493,
      "Ġacross": 6494,
      "scale": 6495,
      "scribe": 6496,
      "classes": 6497,
      "Ġprepare": 6498,
      "ashing": 6499,
      "Ġheader": 6500,
      "Ġà¤Ĩà¤ªà¤¨": 6501,
      "ĠChar": 6502,
      "ĠKafka": 6503,
      "Ġrecipient": 6504,
      "Ġperforming": 6505,
      "Extract": 6506,
      "oved": 6507,
      "Ġdirectories": 6508,
      "There": 6509,
      "Ġreads": 6510,
      "Ġcalculated": 6511,
      "Status": 6512,
      "Ġnumer": 6513,
      "Ġà¤ĺà¤°": 6514,
      "quired": 6515,
      "Ġplayed": 6516,
      "Ġpaths": 6517,
      "Ġcompletes": 6518,
      "à¤ħà¤ªà¤¡": 6519,
      "Ġargparse": 6520,
      "ĠUnited": 6521,
      "Ġcustomer": 6522,
      "Ġcontainer": 6523,
      "reddit": 6524,
      "Ġindices": 6525,
      "posit": 6526,
      "Ġfinding": 6527,
      "Ġprinc": 6528,
      "Ġscraper": 6529,
      "Ġtrainer": 6530,
      "ĠForest": 6531,
      "Ġneeds": 6532,
      "Ġtracker": 6533,
      "iodiversity": 6534,
      "flict": 6535,
      "Ġaddresses": 6536,
      "Ġgroups": 6537,
      "ĠDiscord": 6538,
      "ĠFileNotFound": 6539,
      "Ġsniff": 6540,
      "constraint": 6541,
      "Ġnamespace": 6542,
      "ĠWebSocket": 6543,
      "Configuration": 6544,
      "Collection": 6545,
      "agnost": 6546,
      "ĠReturns": 6547,
      "ipelines": 6548,
      "Ġregistration": 6549,
      "Ġinvest": 6550,
      "Ġresponsible": 6551,
      "Validate": 6552,
      "translate": 6553,
      "ffects": 6554,
      "Ġmonths": 6555,
      "marks": 6556,
      "Ġoccurred": 6557,
      "ĠCorrection": 6558,
      "Ġmakes": 6559,
      "IGH": 6560,
      "compile": 6561,
      "ĠNetworkX": 6562,
      "Widgets": 6563,
      "Ġintegrity": 6564,
      "Ġsati": 6565,
      "Ġadvanced": 6566,
      "Ġcomparison": 6567,
      "parameters": 6568,
      "ĠNLP": 6569,
      "activated": 6570,
      "Ġattempts": 6571,
      "ĠScraping": 6572,
      "assertEqual": 6573,
      "Ġauthentication": 6574,
      "Ġthermal": 6575,
      "ĠAmerican": 6576,
      "Ġdiagnos": 6577,
      "ĠDisplaying": 6578,
      "Ġvehicles": 6579,
      "movie": 6580,
      "Ġstatistical": 6581,
      "catenate": 6582,
      "Ġpublished": 6583,
      "ĠManagement": 6584,
      "ĠGIS": 6585,
      "ĠChatBot": 6586,
      "Ã©e": 6587,
      "Ġcollaborative": 6588,
      "Ġescape": 6589,
      "ĠSpeechRecognition": 6590,
      "ĠReact": 6591,
      "Demonstrate": 6592,
      "olatility": 6593,
      "ĠQuantumCircuit": 6594,
      "ĠGallery": 6595,
      "erkeley": 6596,
      "Ġopenpyxl": 6597,
      "ĠFileNotFoundError": 6598,
      ")`": 6599,
      "28": 6600,
      ":\\": 6601,
      ">';": 6602,
      "?.": 6603,
      "Build": 6604,
      "DC": 6605,
      "Dim": 6606,
      "EO": 6607,
      "Fl": 6608,
      "Gdb": 6609,
      "GPL": 6610,
      "HO": 6611,
      "Lock": 6612,
      "Microsoft": 6613,
      "Num": 6614,
      "Page": 6615,
      "Queue": 6616,
      "Red": 6617,
      "TO": 6618,
      "Ver": 6619,
      "bre": 6620,
      "ban": 6621,
      "bed": 6622,
      "battery": 6623,
      "dot": 6624,
      "distance": 6625,
      "eel": 6626,
      "ection": 6627,
      "fol": 6628,
      "flu": 6629,
      "fetch": 6630,
      "gray": 6631,
      "has": 6632,
      "home": 6633,
      "iant": 6634,
      "iost": 6635,
      "kill": 6636,
      "long": 6637,
      "nt": 6638,
      "sound": 6639,
      "samples": 6640,
      "sensors": 6641,
      "tuple": 6642,
      "ux": 6643,
      "uid": 6644,
      "vp": 6645,
      "thost": 6646,
      "à¤°à¤ĸ": 6647,
      "orded": 6648,
      "Ġthought": 6649,
      "Ġthreshold": 6650,
      "esp": 6651,
      "à¤ķà¤ļà¤°": 6652,
      "ened": 6653,
      "enous": 6654,
      "enames": 6655,
      "Ġsv": 6656,
      "Ġslic": 6657,
      "Ġschool": 6658,
      "Ġà¤ķà¤Ī": 6659,
      "à¤¨à¤Ī": 6660,
      "Ġcodes": 6661,
      "à¥ĭ,": 6662,
      "Ġfill": 6663,
      "Ġtally": 6664,
      "à¤¤à¤¬": 6665,
      "à¤ªà¤¦": 6666,
      "Ġpyperclip": 6667,
      "imÃ©e": 6668,
      "roub": 6669,
      "....": 6670,
      "à¤Łà¤ħà¤ª": 6671,
      "à¥ĩà¤Ĥ/": 6672,
      "Ġoct": 6673,
      "Ġinfl": 6674,
      "Ġmood": 6675,
      "Ġmqtt": 6676,
      "Ġwins": 6677,
      "ico": 6678,
      "Ġanc": 6679,
      "Ġdro": 6680,
      "Ġdock": 6681,
      "à¤¡à¤ľ": 6682,
      "à¤ıà¤ª": 6683,
      "à¤ıà¤¡": 6684,
      "à¤¼à¤ĥ": 6685,
      "Ġbpy": 6686,
      "à¤ľà¤®": 6687,
      "Ġlaw": 6688,
      "Ġliter": 6689,
      "elves": 6690,
      "elcome": 6691,
      "à¤ĩà¤ªà¤°": 6692,
      "à¤ĩà¤¥à¤¨": 6693,
      "Ġrepe": 6694,
      "Ġrelease": 6695,
      "unittest": 6696,
      "Ġoffer": 6697,
      "à¥Ī?": 6698,
      "ĠPi": 6699,
      "exico": 6700,
      "Ġhalf": 6701,
      "ĠAre": 6702,
      "ĠAug": 6703,
      "ĠAimÃ©e": 6704,
      "ĠTw": 6705,
      "'),": 6706,
      "()[": 6707,
      "olved": 6708,
      "ulations": 6709,
      "Ġà¤®à¤¤": 6710,
      "Ġgay": 6711,
      "selection": 6712,
      "ĠSelenium": 6713,
      "ĠSVD": 6714,
      "ĠSSH": 6715,
      "Ġstimul": 6716,
      "Ġstorm": 6717,
      "à¤ĸà¤¤": 6718,
      "verity": 6719,
      "look": 6720,
      "Ġà¤°à¤ľ": 6721,
      "oph": 6722,
      "Ġ`__": 6723,
      "Ġaspect": 6724,
      "ptime": 6725,
      "odcast": 6726,
      "Ġconc": 6727,
      "tered": 6728,
      "ird": 6729,
      "ayes": 6730,
      "à¤ħà¤°à¤ķ": 6731,
      "Ġreturning": 6732,
      "heet": 6733,
      "ĠMon": 6734,
      "ĠMat": 6735,
      "ĠMal": 6736,
      "ĠMoses": 6737,
      "ĠMiB": 6738,
      "ĠMexico": 6739,
      "ĠFROM": 6740,
      "ĠEcon": 6741,
      "upload": 6742,
      "comment": 6743,
      "ĠBase": 6744,
      "ĠBook": 6745,
      "Ġchain": 6746,
      "Ġchatterbot": 6747,
      "osition": 6748,
      "ĠHash": 6749,
      "Ġà¤Ĩà¤¸": 6750,
      "ially": 6751,
      "apan": 6752,
      "period": 6753,
      "Ġspread": 6754,
      "ĠWith": 6755,
      "Ġdefinition": 6756,
      "tokens": 6757,
      "resize": 6758,
      "defined": 6759,
      "ĠOS": 6760,
      "à¤ĩà¤¨à¤ķ": 6761,
      "Initial": 6762,
      "Index": 6763,
      "Ġà¤ıà¤ķà¤²": 6764,
      "Ġscapy": 6765,
      "rows": 6766,
      "println": 6767,
      "weights": 6768,
      "Ġà¤īà¤¸à¤ķ": 6769,
      "ĠThread": 6770,
      "Ġ*/": 6771,
      "application": 6772,
      "Ġtravel": 6773,
      "à¤¾à¤ģà¤ĥ": 6774,
      "encrypted": 6775,
      "Ġselection": 6776,
      "Ġsegment": 6777,
      "Connect": 6778,
      "Ġautomatic": 6779,
      "rolename": 6780,
      "gethost": 6781,
      "ĠJapan": 6782,
      "PID": 6783,
      "Ġserve": 6784,
      "versions": 6785,
      "ober": 6786,
      "ĠImplemented": 6787,
      "Ġdatabases": 6788,
      "EAP": 6789,
      "grid": 6790,
      "ERT": 6791,
      "Ġgeneral": 6792,
      "Ġabilities": 6793,
      "virtual": 6794,
      "Program": 6795,
      "ĠYacc": 6796,
      "Ġassess": 6797,
      "tony": 6798,
      "Ġcomputational": 6799,
      "Ġjsonify": 6800,
      "Ġà¤ĺà¤Łà¤¨": 6801,
      "Ġdetailed": 6802,
      "Ġevolution": 6803,
      "Ġevidence": 6804,
      "myloid": 6805,
      "Ġstartup": 6806,
      "Ġiterate": 6807,
      "Token": 6808,
      "Ġartist": 6809,
      "Ġarticles": 6810,
      "ipped": 6811,
      "labels": 6812,
      "Ġeduc": 6813,
      "Ġdistributed": 6814,
      "Ġcorrecting": 6815,
      "ARY": 6816,
      "à¤ĺà¤Łà¤ķ": 6817,
      "accuracy": 6818,
      "Ġfiltered": 6819,
      "CVSROOT": 6820,
      "à¤¤à¤ķà¤ļ": 6821,
      "Segment": 6822,
      "mean": 6823,
      "Ġlonger": 6824,
      "subject": 6825,
      "Ġgrayscale": 6826,
      "ĠFrance": 6827,
      "Ġproduce": 6828,
      "Ġorigin": 6829,
      "255": 6830,
      "detect": 6831,
      "Speak": 6832,
      "Ġà¤īà¤ªà¤¸à¤°": 6833,
      "Ġà¤ħà¤µà¤§": 6834,
      "Ġregistrar": 6835,
      "Ġcapabilities": 6836,
      "Ġsuccessfully": 6837,
      "Ġmonthly": 6838,
      "uclear": 6839,
      "Ġpluginview": 6840,
      "Ġperiodic": 6841,
      "JavaScript": 6842,
      "Ġcamera": 6843,
      "Ġwinreg": 6844,
      "Ġclearing": 6845,
      "Detector": 6846,
      "----------------": 6847,
      "raints": 6848,
      "Ġprotocols": 6849,
      "eapest": 6850,
      "parameter": 6851,
      "ĠReddit": 6852,
      "Ġrelationships": 6853,
      "Ġhurricanes": 6854,
      "plorer": 6855,
      "Ġfriends": 6856,
      "Ġlowercase": 6857,
      "ĠAdditionally": 6858,
      "Ġimplies": 6859,
      "}%')": 6860,
      "Ġmailing": 6861,
      "Ġmigration": 6862,
      "ĠRandomForestClassifier": 6863,
      "567890": 6864,
      "ĠBritish": 6865,
      "ĠImproving": 6866,
      "equalTo": 6867,
      "ĠArizona": 6868,
      "Recognizer": 6869,
      "iostream": 6870,
      "(*": 6871,
      ":]": 6872,
      "><": 6873,
      "Aut": 6874,
      "Buffer": 6875,
      "Blur": 6876,
      "Courses": 6877,
      "Dest": 6878,
      "Dep": 6879,
      "Editor": 6880,
      "Handle": 6881,
      "Or": 6882,
      "Pre": 6883,
      "Pol": 6884,
      "Vis": 6885,
      "\\']": 6886,
      "bl": 6887,
      "cache": 6888,
      "dp": 6889,
      "ees": 6890,
      "fin": 6891,
      "gs": 6892,
      "git": 6893,
      "games": 6894,
      "hex": 6895,
      "hib": 6896,
      "iepy": 6897,
      "month": 6898,
      "rist": 6899,
      "rated": 6900,
      "rong": 6901,
      "tml": 6902,
      "uation": 6903,
      "uction": 6904,
      "uary": 6905,
      "variable": 6906,
      "}/": 6907,
      "à¤°à¤¦": 6908,
      "à¤°à¤«à¤²à¤ķ": 6909,
      "à¤°à¤¥à¤®": 6910,
      "Ġamyloid": 6911,
      "eration": 6912,
      "atlam": 6913,
      "à¤²à¤¡": 6914,
      "environ": 6915,
      "Ġsl": 6916,
      "Ġsample": 6917,
      "Ġsensor": 6918,
      "Ġthems": 6919,
      "à¤¨à¤¨": 6920,
      "Ġcet": 6921,
      "Ġcour": 6922,
      "Ġcraw": 6923,
      "Ġcriter": 6924,
      "Ġcache": 6925,
      "release": 6926,
      "Ġfish": 6927,
      "Ġtre": 6928,
      "Ġtax": 6929,
      "à¤ªà¤²": 6930,
      "à¤ªà¤¢": 6931,
      "Ġpub": 6932,
      "Ġpetition": 6933,
      "itution": 6934,
      "imshow": 6935,
      "aling": 6936,
      "alary": 6937,
      "isor": 6938,
      "ising": 6939,
      "isec": 6940,
      "arck": 6941,
      "Ġà¤¸à¤«à¤²à¤¤": 6942,
      "Ġothers": 6943,
      "Ġinit": 6944,
      "Ġmass": 6945,
      "entry": 6946,
      "urations": 6947,
      "aste": 6948,
      "Ġbound": 6949,
      "Ġbene": 6950,
      "à¤ľà¤ķ": 6951,
      "Ġlot": 6952,
      "Ġlights": 6953,
      "Ġreason": 6954,
      "ampl": 6955,
      "amma": 6956,
      "unity": 6957,
      "stract": 6958,
      "Ġnx": 6959,
      "Ġnation": 6960,
      "Ġnuclear": 6961,
      "iler": 6962,
      "ĠPres": 6963,
      "ĠPandas": 6964,
      "ĠPlot": 6965,
      "execution": 6966,
      "Ġhtml": 6967,
      "essor": 6968,
      "Ġ'--": 6969,
      "Ġ'+')": 6970,
      "ĠAc": 6971,
      "ĠAct": 6972,
      "ĠAir": 6973,
      "ĠTV": 6974,
      "ĠTEXT": 6975,
      "rays": 6976,
      "ravir": 6977,
      "rajeshkajha": 6978,
      "Ġgive": 6979,
      "Ġgym": 6980,
      "ada": 6981,
      "adio": 6982,
      "section": 6983,
      "à¤£à¤§à¤°": 6984,
      "ĠSU": 6985,
      "ĠSentiment": 6986,
      "istics": 6987,
      "Ġdev": 6988,
      "Ġstri": 6989,
      "Ġstage": 6990,
      "Ġstory": 6991,
      "ĠDEAP": 6992,
      "loit": 6993,
      "Ġà¤°à¤ķ": 6994,
      "Ġvi": 6995,
      "Ġvacc": 6996,
      "extension": 6997,
      "Ġconverts": 6998,
      "irm": 6999,
      "à¤ħà¤²": 7000,
      "à¤Ńà¤µ": 7001,
      "ford": 7002,
      "plication": 7003,
      "ĠMan": 7004,
      "ĠMusic": 7005,
      "ĠMaking": 7006,
      "Ġitself": 7007,
      "components": 7008,
      "Ġà¤ıà¤¨": 7009,
      "Ġ24": 7010,
      "Ġalpha": 7011,
      "clone": 7012,
      "Ġcanvas": 7013,
      "diction": 7014,
      "ĠLin": 7015,
      "ĠLink": 7016,
      "ipment": 7017,
      "ainer": 7018,
      "ĠHand": 7019,
      "ĠHigh": 7020,
      "Ġwhy": 7021,
      "apes": 7022,
      "ĠNode": 7023,
      "Ġbegan": 7024,
      "ĠGET": 7025,
      "ĠspqrMet": 7026,
      "Ġresistance": 7027,
      "anges": 7028,
      "Ġdefines": 7029,
      "ivate": 7030,
      "__`": 7031,
      "__()": 7032,
      "__\":": 7033,
      "Ġ-=": 7034,
      "à¤¯à¤¨à¤°": 7035,
      "à¤īà¤¤": 7036,
      "à¤īà¤ª": 7037,
      "illa": 7038,
      "Ġshape": 7039,
      "Ġplant": 7040,
      "Ġarm": 7041,
      "appy": 7042,
      "Ġà¤°à¤ĸà¤¨": 7043,
      "Ġupload": 7044,
      "Ġempowerment": 7045,
      "udent": 7046,
      "Enable": 7047,
      "ĠJul": 7048,
      "Ġsuit": 7049,
      "ports": 7050,
      "Ġroad": 7051,
      "ĠAntony": 7052,
      "ĠiOS": 7053,
      "ĠKey": 7054,
      "à¤ĩà¤¸à¤ķ": 7055,
      "Ġrecorded": 7056,
      "Execution": 7057,
      "ĠConnect": 7058,
      "Ġoperators": 7059,
      "à¤¸à¤¬à¤«": 7060,
      "Ġgenerating": 7061,
      "Ġgenerative": 7062,
      "predictions": 7063,
      "ĠDevice": 7064,
      "Ġcorre": 7065,
      "axis": 7066,
      "Ġgoal": 7067,
      "Ġvoxel": 7068,
      "Ġraises": 7069,
      "ondon": 7070,
      "archive": 7071,
      "Ġinstead": 7072,
      "rones": 7073,
      "rypto": 7074,
      "pring": 7075,
      "Ġwhose": 7076,
      "ĠProphet": 7077,
      "Ġremote": 7078,
      "findall": 7079,
      "Ġdepth": 7080,
      "translator": 7081,
      "iko": 7082,
      "Ġdifferences": 7083,
      "Ġincluded": 7084,
      "198": 7085,
      "training": 7086,
      "ĠApplic": 7087,
      "ĠScanning": 7088,
      "kernel": 7089,
      "Ġdistances": 7090,
      "Ġenvironmental": 7091,
      "Ġtweet": 7092,
      "made": 7093,
      "Ġdisplays": 7094,
      "aho": 7095,
      "ofs": 7096,
      "Ġgeoc": 7097,
      "Ġmoviepy": 7098,
      "Ġzipf": 7099,
      "downloads": 7100,
      "flix": 7101,
      "Logger": 7102,
      "Ġsrc": 7103,
      "ismarck": 7104,
      "Ġdrag": 7105,
      "Ġexperiments": 7106,
      "Ġgraphics": 7107,
      "corpus": 7108,
      "Ġfactor": 7109,
      "Ġequations": 7110,
      "details": 7111,
      "legro": 7112,
      "Ġparticip": 7113,
      "ACK": 7114,
      "QtWidgets": 7115,
      "Ġorganis": 7116,
      "letter": 7117,
      "ĠSheldrake": 7118,
      "ĠDataFrame": 7119,
      "threading": 7120,
      "Ġrefin": 7121,
      "Ġmeasures": 7122,
      "Ġguide": 7123,
      "Ġresponses": 7124,
      "Ġfacial": 7125,
      "Ġfacilities": 7126,
      "uggest": 7127,
      "ĠInternet": 7128,
      "Ġpersonal": 7129,
      "ĠInstitute": 7130,
      "avigation": 7131,
      "buf": 7132,
      "Local": 7133,
      "ĠDNS": 7134,
      "Ġgrowing": 7135,
      "TestCase": 7136,
      "Instance": 7137,
      "Definition": 7138,
      "Ġmeaning": 7139,
      "Ġprompt": 7140,
      "Ġevaluation": 7141,
      "Ġarchitect": 7142,
      "digest": 7143,
      "Ġconsidered": 7144,
      "AGE": 7145,
      "Ġgoogletrans": 7146,
      "Ġdimensions": 7147,
      "Ġmillion": 7148,
      "Ġangle": 7149,
      "Ġbirth": 7150,
      "LOG": 7151,
      "VideoCapture": 7152,
      "ABLE": 7153,
      "Filter": 7154,
      "1234567890": 7155,
      "Ġsummarization": 7156,
      "sequence": 7157,
      "ĠSurgery": 7158,
      "Ġbegin": 7159,
      "thesis": 7160,
      "Ġmolecular": 7161,
      "weighted": 7162,
      "ĠRussell": 7163,
      "Tracker": 7164,
      "Ġpredicate": 7165,
      "ĠDistribution": 7166,
      "recognize": 7167,
      "Ġheav": 7168,
      "Ġprimary": 7169,
      "Ġbusiness": 7170,
      "ĠEuropean": 7171,
      "leshoot": 7172,
      "Ġrestarting": 7173,
      "ĠTweepy": 7174,
      "ĠSaying": 7175,
      "agnostic": 7176,
      "IGHT": 7177,
      "roubleshoot": 7178,
      "ĠMatplotlib": 7179,
      "atlami": 7180,
      "Ġthemselves": 7181,
      "raviratlami": 7182,
      "-{": 7183,
      "-]+": 7184,
      ".'": 7185,
      "21": 7186,
      ":/": 7187,
      "=\\": 7188,
      ">,": 7189,
      "></": 7190,
      "ANT": 7191,
      "BO": 7192,
      "Back": 7193,
      "Base": 7194,
      "Bob": 7195,
      "Block": 7196,
      "BSD": 7197,
      "Click": 7198,
      "Di": 7199,
      "FA": 7200,
      "Family": 7201,
      "GI": 7202,
      "Head": 7203,
      "ITH": 7204,
      "LY": 7205,
      "Load": 7206,
      "Note": 7207,
      "Print": 7208,
      "Rep": 7209,
      "Render": 7210,
      "Relay": 7211,
      "Sw": 7212,
      "Sum": 7213,
      "Sign": 7214,
      "Simul": 7215,
      "Switch": 7216,
      "Structure": 7217,
      "Vector": 7218,
      "Window": 7219,
      "]}": 7220,
      "]...": 7221,
      "]]:": 7222,
      "bind": 7223,
      "car": 7224,
      "cop": 7225,
      "custom": 7226,
      "column": 7227,
      "dt": 7228,
      "fi": 7229,
      "fri": 7230,
      "fly": 7231,
      "fect": 7232,
      "gt": 7233,
      "high": 7234,
      "ius": 7235,
      "iam": 7236,
      "iate": 7237,
      "ira": 7238,
      "iid": 7239,
      "js": 7240,
      "lta": 7241,
      "mon": 7242,
      "mood": 7243,
      "pip": 7244,
      "pending": 7245,
      "rtr": 7246,
      "ratch": 7247,
      "rames": 7248,
      "sk": 7249,
      "solution": 7250,
      "suff": 7251,
      "td": 7252,
      "ze": 7253,
      "zone": 7254,
      "ÐĿ": 7255,
      "Ðł": 7256,
      "Ġrig": 7257,
      "though": 7258,
      "onal": 7259,
      "onym": 7260,
      "Ġastr": 7261,
      "Ġabo": 7262,
      "erg": 7263,
      "Ġtherapy": 7264,
      "atio": 7265,
      "enu": 7266,
      "eness": 7267,
      "Ġsf": 7268,
      "Ġsens": 7269,
      "Ġsouth": 7270,
      "Ġsaved": 7271,
      "Ġà¤ķà¤Ń": 7272,
      "Ġcat": 7273,
      "Ġcenter": 7274,
      "Ġcross": 7275,
      "Ġcourses": 7276,
      "react": 7277,
      "Ġfron": 7278,
      "Ġtend": 7279,
      "Ġtts": 7280,
      "learning": 7281,
      "à¤ªà¤¶": 7282,
      "Ġpers": 7283,
      "Ġpain": 7284,
      "Ġpict": 7285,
      "Ġplease": 7286,
      "Ġpipelines": 7287,
      "deed": 7288,
      "ros": 7289,
      "ropy": 7290,
      "anit": 7291,
      "arc": 7292,
      "Ġà¤ªà¤¬": 7293,
      "Ġwon": 7294,
      "entation": 7295,
      "Ġdign": 7296,
      "Ġdrones": 7297,
      "etary": 7298,
      "etree": 7299,
      "orton": 7300,
      "omew": 7301,
      "à¤ıà¤¨": 7302,
      "Ġforces": 7303,
      "Ġbal": 7304,
      "Ġlab": 7305,
      "à¤ĩà¤ķ": 7306,
      "Ġreference": 7307,
      "unique": 7308,
      "à¥Ī%": 7309,
      "...'": 7310,
      "Ġnil": 7311,
      "iles": 7312,
      "Ġ()": 7313,
      "Ġ(-": 7314,
      "ĠPe": 7315,
      "ĠPort": 7316,
      "ĠPower": 7317,
      "ĠPeter": 7318,
      "ĠPanda": 7319,
      "Ġhyd": 7320,
      "ĠAer": 7321,
      "ĠApr": 7322,
      "ĠTable": 7323,
      "outhern": 7324,
      "());": 7325,
      "otor": 7326,
      "Ġyoung": 7327,
      "Ġgw": 7328,
      "Ġgray": 7329,
      "umar": 7330,
      "ĠCould": 7331,
      "ĠCSS": 7332,
      "ĠIAudioEndpointVolume": 7333,
      "ĠIcons": 7334,
      "ĠSO": 7335,
      "ĠSk": 7336,
      "ĠShe": 7337,
      "ĠSend": 7338,
      "ĠSample": 7339,
      "istant": 7340,
      "Ġdele": 7341,
      "Ġstar": 7342,
      "ĠDataset": 7343,
      "Ġà¤ħà¤ľ": 7344,
      "Ġconsum": 7345,
      "Ġconflict": 7346,
      "endum": 7347,
      "ĠMonitor": 7348,
      "ĠFace": 7349,
      "ĠFirst": 7350,
      "ĠFree": 7351,
      "Ġà¤ĸà¤¦": 7352,
      "Ġcomtypes": 7353,
      "Ġcombin": 7354,
      "ĠEach": 7355,
      "ĠEcos": 7356,
      "paca": 7357,
      "upd": 7358,
      "component": 7359,
      "property": 7360,
      "ĠBismarck": 7361,
      "Ġà¤ıà¤¸": 7362,
      "clus": 7363,
      "à¤Ĩà¤Ĺ": 7364,
      "ĠLibrary": 7365,
      "Ġà¤Ĩà¤¯": 7366,
      "apsed": 7367,
      "ĠGo": 7368,
      "Ġresizing": 7369,
      "Ġ},": 7370,
      "'][": 7371,
      "']}": 7372,
      "Ġprintf": 7373,
      "ĠOk": 7374,
      "Ġà¤¤à¤¹à¤¤": 7375,
      "Ġclaim": 7376,
      "Ġmanufact": 7377,
      "à¤ľà¤¨à¤ķ": 7378,
      "à¤ľà¤¨à¤°à¤²": 7379,
      "epad": 7380,
      "à¤īà¤ľà¤°": 7381,
      "Ġscience": 7382,
      "ugins": 7383,
      "paths": 7384,
      "ensive": 7385,
      "antic": 7386,
      "ĠIncl": 7387,
      "ĠVis": 7388,
      "ĠVideo": 7389,
      "Ġplaces": 7390,
      "Ġpycaw": 7391,
      "readlines": 7392,
      "Ġlogs": 7393,
      "Ġtrait": 7394,
      "shop": 7395,
      "scious": 7396,
      "pygame": 7397,
      "pycaw": 7398,
      "aker": 7399,
      "geometry": 7400,
      "Ġobservation": 7401,
      "Ġproviding": 7402,
      "\"),": 7403,
      "ĠKromko": 7404,
      "ĠKumar": 7405,
      "Ġrecovery": 7406,
      "Ġperformed": 7407,
      "Example": 7408,
      "Ġfilesystem": 7409,
      "player": 7410,
      "predict": 7411,
      "peed": 7412,
      "argument": 7413,
      "Ġ${": 7414,
      "ifying": 7415,
      "ĠĠĠĠĠĠĠĠĠĠĠĠĠĠĠĠĠĠĠĠĠĠĠ": 7416,
      "website": 7417,
      "Ġsubsc": 7418,
      "Proceed": 7419,
      "Properties": 7420,
      "ymer": 7421,
      "SIG": 7422,
      "Ġnums": 7423,
      "Ġminute": 7424,
      "Ġminimal": 7425,
      "tests": 7426,
      "Ġ192": 7427,
      "Ġstarting": 7428,
      "à¤ĵà¤¡": 7429,
      "fully": 7430,
      "sender": 7431,
      "tokenize": 7432,
      "Ġdecimal": 7433,
      "Ġsupported": 7434,
      "backup": 7435,
      "ccording": 7436,
      "Ġcover": 7437,
      "Ġtaken": 7438,
      "Ġtaking": 7439,
      "Ġtherefore": 7440,
      "packet": 7441,
      "Ġoverride": 7442,
      "Ġofficial": 7443,
      "leanup": 7444,
      "Ġsafe": 7445,
      "bytes": 7446,
      "Ġhigher": 7447,
      "Ġoutputs": 7448,
      "Comp": 7449,
      "Command": 7450,
      "Delegate": 7451,
      "voxel": 7452,
      "ART": 7453,
      "ARRA": 7454,
      "ĠCommit": 7455,
      "Ġflight": 7456,
      "Ġ.=": 7457,
      "Ġboto": 7458,
      "ĠDefender": 7459,
      "Ident": 7460,
      "Ġwritten": 7461,
      "ĠResult": 7462,
      "ĠResearch": 7463,
      "GetSpeak": 7464,
      "Ġdrone": 7465,
      "ĠSQLAl": 7466,
      "Ġgraphs": 7467,
      "Ġgravity": 7468,
      "Ġcryptographic": 7469,
      "Ġaway": 7470,
      "Ġmatches": 7471,
      "Ġequipment": 7472,
      "Ġeco": 7473,
      "ĠSee": 7474,
      "ĠSequential": 7475,
      "ampoline": 7476,
      "ĠRemoving": 7477,
      "Ġsolar": 7478,
      "Ġsynchron": 7479,
      "Ġ\\)": 7480,
      "Ġspaces": 7481,
      "Arg": 7482,
      "Ġlesson": 7483,
      "copyright": 7484,
      "Activate": 7485,
      "Ġlimited": 7486,
      "Ġstorage": 7487,
      "Ġexisting": 7488,
      "Ġhosts": 7489,
      "âĢľ%": 7490,
      "Ġtrials": 7491,
      "Ġseparated": 7492,
      "Ġcleanup": 7493,
      "ĠSpotify": 7494,
      "refix": 7495,
      "Ġstandard": 7496,
      "Permission": 7497,
      "ĠWorking": 7498,
      "Ġcauses": 7499,
      "migration": 7500,
      "Ġestablish": 7501,
      "ĠOctavian": 7502,
      "estureDetector": 7503,
      "Ġballot": 7504,
      "Ġaccordingly": 7505,
      "Makefiles": 7506,
      "Ġlisteners": 7507,
      "Ġimmediately": 7508,
      "Minimal": 7509,
      "Ġdisease": 7510,
      "Ġlegislature": 7511,
      "ĠMissing": 7512,
      "Ġchemical": 7513,
      "Ġhappening": 7514,
      "Ġindependence": 7515,
      "Ġdescribed": 7516,
      "ĠTemple": 7517,
      "ĠEmpire": 7518,
      "istorical": 7519,
      "Ġexceeds": 7520,
      "ĠJanuary": 7521,
      "MODE": 7522,
      "requency": 7523,
      "Ġsvn": 7524,
      "Ġcetane": 7525,
      "ĠApplicable": 7526,
      "copg": 7527,
      "Ġabove": 7528,
      "ĠEcosystem": 7529,
      "GetSpeakers": 7530,
      "ĠSQLAlchemy": 7531,
      "!'...": 7532,
      "'\\": 7533,
      "'ve": 7534,
      ")}": 7535,
      ".\"\"\"": 7536,
      "98": 7537,
      ">)": 7538,
      "Ass": 7539,
      "Agent": 7540,
      "Balance": 7541,
      "Berkeley": 7542,
      "CK": 7543,
      "EG": 7544,
      "FO": 7545,
      "Graph": 7546,
      "Good": 7547,
      "Hub": 7548,
      "Is": 7549,
      "Icon": 7550,
      "IST": 7551,
      "Link": 7552,
      "Multi": 7553,
      "Micro": 7554,
      "Number": 7555,
      "PO": 7556,
      "Tuple": 7557,
      "Wx": 7558,
      "WID": 7559,
      "]);": 7560,
      "bc": 7561,
      "best": 7562,
      "cpl": 7563,
      "cxt": 7564,
      "category": 7565,
      "counter": 7566,
      "cfg": 7567,
      "dar": 7568,
      "dom": 7569,
      "false": 7570,
      "gh": 7571,
      "good": 7572,
      "hat": 7573,
      "hub": 7574,
      "handle": 7575,
      "iver": 7576,
      "ku": 7577,
      "lating": 7578,
      "non": 7579,
      "pag": 7580,
      "rr": 7581,
      "rim": 7582,
      "ssh": 7583,
      "tx": 7584,
      "watch": 7585,
      "xHE": 7586,
      "yl": 7587,
      "zhe": 7588,
      "Ġer": 7589,
      "Ġord": 7590,
      "Ġ];": 7591,
      "ĠĠĊ": 7592,
      "inv": 7593,
      "inated": 7594,
      "à¥ĩ?": 7595,
      "à¥ĩà¤ĥ": 7596,
      "orthern": 7597,
      "ered": 7598,
      "à¤¿à¤ĥ%": 7599,
      "Ġthus": 7600,
      "atre": 7601,
      "atom": 7602,
      "Ġsimp": 7603,
      "Ġsure": 7604,
      "Ġsuspicious": 7605,
      "Ġtheory": 7606,
      "Ġcapt": 7607,
      "Ġcircu": 7608,
      "Ġcipher": 7609,
      "Ġcivil": 7610,
      "Ġccxt": 7611,
      "rele": 7612,
      "Ġfirewall": 7613,
      "Ġfavorite": 7614,
      "Ġtalk": 7615,
      "Ġtimestamp": 7616,
      "Ġpush": 7617,
      "Ġpaho": 7618,
      "itch": 7619,
      "itiz": 7620,
      "à¤¯à¤ķà¤°à¤£": 7621,
      "alert": 7622,
      "../": 7623,
      "Ġocean": 7624,
      "Ġmo": 7625,
      "edirs": 7626,
      "Ġwidget": 7627,
      "Ġtokens": 7628,
      "uri": 7629,
      "urface": 7630,
      "Ġda": 7631,
      "Ġdrives": 7632,
      "à¤¡à¤²": 7633,
      "omiting": 7634,
      "à¤ıà¤¤à¤¨": 7635,
      "Ġlack": 7636,
      "à¤ĩà¤ľ": 7637,
      "Ġrequ": 7638,
      "Ġreward": 7639,
      "Ġreplac": 7640,
      "Ġnorth": 7641,
      "Ġ($": 7642,
      "Ġhor": 7643,
      "Ġhyper": 7644,
      "agram": 7645,
      "iform": 7646,
      "ifference": 7647,
      "ĠAv": 7648,
      "à¤¬à¤°": 7649,
      "à¤¬à¤¢": 7650,
      "')]": 7651,
      "Ġyet": 7652,
      "Ġgender": 7653,
      "Ġgyr": 7654,
      "ĠCopy": 7655,
      "ĠCounter": 7656,
      "ried": 7657,
      "ĠSplit": 7658,
      "ĠSlack": 7659,
      "ĠSEO": 7660,
      "Ġstates": 7661,
      "aba": 7662,
      "Ġvot": 7663,
      "Ġvac": 7664,
      "Ġà¤ħà¤¬": 7665,
      "urnament": 7666,
      "Ġonce": 7667,
      "ands": 7668,
      "à¤ħà¤Ł": 7669,
      "à¤ħà¤°à¤¬": 7670,
      "puter": 7671,
      "Ġeth": 7672,
      "ĠMake": 7673,
      "Ġ\"\"": 7674,
      "ĠFe": 7675,
      "ĠFound": 7676,
      "ĠElect": 7677,
      "program": 7678,
      "profit": 7679,
      "Ġexc": 7680,
      "Ġexport": 7681,
      "Ġexpect": 7682,
      "Ġexplain": 7683,
      "ĠBool": 7684,
      "Ġà¤ıà¤ª": 7685,
      "Ġalmost": 7686,
      "ĠLe": 7687,
      "ĠLight": 7688,
      "ĠUK": 7689,
      "Ġweights": 7690,
      "ĠNa": 7691,
      "ĠNorth": 7692,
      "ĠNaba": 7693,
      "processed": 7694,
      "Ġfunctional": 7695,
      "ĠGM": 7696,
      "ĠGerm": 7697,
      "permission": 7698,
      "permissions": 7699,
      "resents": 7700,
      "ivision": 7701,
      "ĠOff": 7702,
      "outes": 7703,
      "Ġ[(": 7704,
      "Ġstrength": 7705,
      "rown": 7706,
      "Ġbytes": 7707,
      "ression": 7708,
      "Ġwebpage": 7709,
      "oose": 7710,
      "tech": 7711,
      "phot": 7712,
      "phones": 7713,
      "Ġtrade": 7714,
      "Ġopened": 7715,
      "encode": 7716,
      "Ġparser": 7717,
      "shutdown": 7718,
      "ignment": 7719,
      "Connection": 7720,
      "ĠJane": 7721,
      "Ġobser": 7722,
      "obot": 7723,
      "Ġmodern": 7724,
      "Ġanalyz": 7725,
      "ĠAnalyze": 7726,
      "msi": 7727,
      "errors": 7728,
      "Ġrecording": 7729,
      "Ġrecipe": 7730,
      "Ġextension": 7731,
      "ĠItem": 7732,
      "ission": 7733,
      "Ġreally": 7734,
      "Ġtransformation": 7735,
      "à¤¸à¤¬à¤ķ": 7736,
      "à¤ıà¤¸à¤ª": 7737,
      "Ġgenerally": 7738,
      "Ġability": 7739,
      "Ġsoon": 7740,
      "openai": 7741,
      "pretrained": 7742,
      "Ġcounts": 7743,
      "Ġready": 7744,
      "contract": 7745,
      "Ġraised": 7746,
      "ĠĠĠĠĠĠĠĠĠĠĠĠĠĠĠĠĠĠĠĠĠĠĠĠĠĠĠ": 7747,
      "linear": 7748,
      "icker": 7749,
      "Ġcalculation": 7750,
      "onday": 7751,
      "Ġsubmit": 7752,
      "Prov": 7753,
      "Ġ>>": 7754,
      "ĠYOFF": 7755,
      "Ġcomputers": 7756,
      "directories": 7757,
      "Ġ1024": 7758,
      "Ġpathlib": 7759,
      "Ġ198": 7760,
      "123": 7761,
      "ificial": 7762,
      "ameters": 7763,
      "à¤·à¤®à¤¤": 7764,
      "Scanner": 7765,
      "Ġsignatures": 7766,
      "ikto": 7767,
      "à¤¦à¤¨à¤¶": 7768,
      "coln": 7769,
      "ĠXOFF": 7770,
      "forever": 7771,
      "Comple": 7772,
      "Ġprices": 7773,
      "Ġcharge": 7774,
      "à¤ĺà¤°": 7775,
      "Ġreported": 7776,
      "ĠAlso": 7777,
      "seconds": 7778,
      "disable": 7779,
      "Ġattention": 7780,
      "Ġtemplate": 7781,
      "Ġtemporary": 7782,
      "ORT": 7783,
      "gression": 7784,
      "Ġthreads": 7785,
      "Ġpolicy": 7786,
      "Ġmovement": 7787,
      "Ġbottom": 7788,
      "ĠNews": 7789,
      "ĠService": 7790,
      "ĠServices": 7791,
      "ĠGenerate": 7792,
      "Ġelectr": 7793,
      "Ġ1000": 7794,
      "ĠResources": 7795,
      "Login": 7796,
      "ĠTransform": 7797,
      "Ġcommunities": 7798,
      "ĠAssistance": 7799,
      "Controls": 7800,
      "Ġensuring": 7801,
      "smart": 7802,
      "Ġheadlines": 7803,
      "Ġowner": 7804,
      "berg": 7805,
      "THxHE": 7806,
      "ĠFrank": 7807,
      "Attributes": 7808,
      "Ġsymbolic": 7809,
      "Ġpatches": 7810,
      "ĠSeq": 7811,
      "detail": 7812,
      "Bytes": 7813,
      "Ġentering": 7814,
      "door": 7815,
      "Ġorganized": 7816,
      "Param": 7817,
      "Ġsolve": 7818,
      "Ġturning": 7819,
      "ometimes": 7820,
      "Ġloops": 7821,
      "Ġtransformers": 7822,
      "ĠTool": 7823,
      "Validator": 7824,
      "Activity": 7825,
      "Ġreceive": 7826,
      "ĠTraining": 7827,
      "uggle": 7828,
      "Upload": 7829,
      "Ġremoving": 7830,
      "Ġstorms": 7831,
      "bufs": 7832,
      "Ġbelie": 7833,
      "Ġinitiatives": 7834,
      "ĠGetting": 7835,
      "RequestHandler": 7836,
      "Ġcomprehensions": 7837,
      "ASA": 7838,
      "Detect": 7839,
      "à¤ĳà¤ª": 7840,
      "GTKmm": 7841,
      "Ġclosed": 7842,
      "dicates": 7843,
      "Ġ8080": 7844,
      "Decode": 7845,
      "Ġpresence": 7846,
      "ĠBiopython": 7847,
      "Ġcontinued": 7848,
      "Plugin": 7849,
      "Ġideas": 7850,
      "Ġhurricane": 7851,
      "Register": 7852,
      "DeleteDialog": 7853,
      "ĠColor": 7854,
      "Ġpixbufs": 7855,
      "ĠOtherwise": 7856,
      "Ġfeeling": 7857,
      "Module": 7858,
      "Ġinsertions": 7859,
      "Ġduplicate": 7860,
      "attach": 7861,
      "Ġswitching": 7862,
      "Ġmuscle": 7863,
      "Desktop": 7864,
      "solute": 7865,
      "Ġbursa": 7866,
      "Ġreleased": 7867,
      "Ġseems": 7868,
      "moveTo": 7869,
      "Ġinvok": 7870,
      "ĠArrayList": 7871,
      "ĠRESTful": 7872,
      "DebugContext": 7873,
      "Ġtreatment": 7874,
      "makedirs": 7875,
      "Ġfigure": 7876,
      "ĠSDL": 7877,
      "Ġadults": 7878,
      "ĠIntegrated": 7879,
      "Pixbuf": 7880,
      "Ġprotect": 7881,
      "ĠGitHub": 7882,
      "Ġshopping": 7883,
      "Ġgcj": 7884,
      "ĠDebugContext": 7885,
      "ĠMaryland": 7886,
      "Ġscenari": 7887,
      "Ġwhitespace": 7888,
      "pository": 7889,
      "Ġslicing": 7890,
      "Ġconcern": 7891,
      "Ġbenef": 7892,
      "ĠLincoln": 7893,
      "Swap": 7894,
      "WIDTHxHE": 7895,
      "zheimer": 7896,
      "Ġcircuits": 7897,
      "WIDTHxHEIGHT": 7898,
      "!(": 7899,
      "!',": 7900,
      "'%": 7901,
      ".*": 7902,
      "05": 7903,
      "09": 7904,
      "33": 7905,
      "300": 7906,
      "500": 7907,
      "69": 7908,
      "800": 7909,
      ">\")": 7910,
      "Bay": 7911,
      "Can": 7912,
      "CON": 7913,
      "Doc": 7914,
      "Duration": 7915,
      "First": 7916,
      "Gl": 7917,
      "Host": 7918,
      "Help": 7919,
      "Hero": 7920,
      "IV": 7921,
      "ITK": 7922,
      "MD": 7923,
      "Ne": 7924,
      "Net": 7925,
      "Now": 7926,
      "Names": 7927,
      "Navigate": 7928,
      "Of": 7929,
      "One": 7930,
      "Pair": 7931,
      "Potential": 7932,
      "PACK": 7933,
      "QR": 7934,
      "RF": 7935,
      "READ": 7936,
      "Sample": 7937,
      "Tem": 7938,
      "WOR": 7939,
      "[::": 7940,
      "\\.": 7941,
      "ae": 7942,
      "cule": 7943,
      "course": 7944,
      "cipher": 7945,
      "dub": 7946,
      "docker": 7947,
      "eth": 7948,
      "found": 7949,
      "frequency": 7950,
      "gu": 7951,
      "gments": 7952,
      "gpu": 7953,
      "hand": 7954,
      "ii": 7955,
      "ios": 7956,
      "iology": 7957,
      "lon": 7958,
      "mc": 7959,
      "mk": 7960,
      "mime": 7961,
      "norm": 7962,
      "nodes": 7963,
      "pd": 7964,
      "pay": 7965,
      "ryth": 7966,
      "ratic": 7967,
      "schema": 7968,
      "tm": 7969,
      "tled": 7970,
      "tology": 7971,
      "uples": 7972,
      "var": 7973,
      "vec": 7974,
      "wn": 7975,
      "warning": 7976,
      "yles": 7977,
      "inx": 7978,
      "erod": 7979,
      "Ġsamples": 7980,
      "Ġsometimes": 7981,
      "à¤¨à¤«": 7982,
      "Ġcir": 7983,
      "Ġcounter": 7984,
      "Ġcards": 7985,
      "Ġfail": 7986,
      "Ġtimer": 7987,
      "Ġpri": 7988,
      "Ġptosis": 7989,
      "decor": 7990,
      "analyzer": 7991,
      "ional": 7992,
      "isActive": 7993,
      "à¥ĩà¤ĤâĢ¦": 7994,
      "arb": 7995,
      "Ġincorrect": 7996,
      "Ġmm": 7997,
      "Ġmur": 7998,
      "Ġmind": 7999,
      "Ġwomen": 8000,
      "entication": 8001,
      "Ġann": 8002,
      "Ġdire": 8003,
      "Ġdfs": 8004,
      "Ġdriving": 8005,
      "omin": 8006,
      "omial": 8007,
      "Ġbat": 8008,
      "Ġbill": 8009,
      "Ġreplace": 8010,
      "amm": 8011,
      "unk": 8012,
      "stor": 8013,
      "stub": 8014,
      "stock": 8015,
      "studio": 8016,
      "style": 8017,
      "Ġnature": 8018,
      "Ġnavigate": 8019,
      "ĠPr": 8020,
      "Ġhour": 8021,
      "Ġhope": 8022,
      "ifies": 8023,
      "ĠAccess": 8024,
      "ĠTABLE": 8025,
      "ouch": 8026,
      "rap": 8027,
      "ecially": 8028,
      "adb": 8029,
      "ĠCoding": 8030,
      "sects": 8031,
      "ĠSu": 8032,
      "ĠSub": 8033,
      "Ġà¤¬à¤¡": 8034,
      "loss": 8035,
      "loaded": 8036,
      "igma": 8037,
      "Ġconsumer": 8038,
      "iring": 8039,
      "lying": 8040,
      "ĠeBay": 8041,
      "izations": 8042,
      "force": 8043,
      "platform": 8044,
      "ĠMar": 8045,
      "ĠMath": 8046,
      "ĠMemory": 8047,
      "ĠFibonacci": 8048,
      "Ġcompress": 8049,
      "Ġcompression": 8050,
      "ĠEar": 8051,
      "ĠErr": 8052,
      "prof": 8053,
      "Ġexit": 8054,
      "ĠBooth": 8055,
      "services": 8056,
      "Ġaltern": 8057,
      "Ġcannot": 8058,
      "dients": 8059,
      "ĠUt": 8060,
      "ipal": 8061,
      "ĠHurric": 8062,
      "âĢĺ": 8063,
      "Ġspatial": 8064,
      "Ġreset": 8065,
      "ĠWashing": 8066,
      "Ġ})": 8067,
      "Ġà¤Ĺà¤¹à¤°": 8068,
      "anged": 8069,
      "à¤¼à¥ĩà¤Ĥ.": 8070,
      "convert": 8071,
      "reset": 8072,
      "Ġprinter": 8073,
      "ĠOOM": 8074,
      "ranch": 8075,
      "acking": 8076,
      "Ġ[])": 8077,
      "0000": 8078,
      "ugged": 8079,
      "Ġdeserial": 8080,
      "Ġadapter": 8081,
      "Ġshown": 8082,
      "jects": 8083,
      "Ġinputs": 8084,
      "Ġà¤īà¤¨": 8085,
      "avatar": 8086,
      "activity": 8087,
      "Ġmanaged": 8088,
      "ysql": 8089,
      "Ġ300": 8090,
      "Ġunit": 8091,
      "encing": 8092,
      "Ġseed": 8093,
      "trampoline": 8094,
      "ellig": 8095,
      "Ġaccom": 8096,
      "auto": 8097,
      "Env": 8098,
      "ĠJames": 8099,
      "PItrampoline": 8100,
      "Ġprepar": 8101,
      "Ġprefix": 8102,
      "Ġobserv": 8103,
      "Ġqual": 8104,
      "Ġintv": 8105,
      "Ġros": 8106,
      ").__": 8107,
      "ĠConnection": 8108,
      "Ġnetworkx": 8109,
      "Ġdoing": 8110,
      "ĠAdvanced": 8111,
      "oven": 8112,
      "Ġinterest": 8113,
      "Ġgeneric": 8114,
      "Ġmyzip": 8115,
      "These": 8116,
      "Ġcred": 8117,
      "Ġcredit": 8118,
      "logger": 8119,
      "Ġworkout": 8120,
      "Settings": 8121,
      "ĠStates": 8122,
      "ecutor": 8123,
      "Ġcolle": 8124,
      "duction": 8125,
      "recipes": 8126,
      "ymbol": 8127,
      "Ġimm": 8128,
      "Ġmining": 8129,
      "().__": 8130,
      "120": 8131,
      "crete": 8132,
      "ĠEnhanc": 8133,
      "interest": 8134,
      "([[": 8135,
      "Clip": 8136,
      "boards": 8137,
      "Ġ2004": 8138,
      "ordered": 8139,
      "Ġlocated": 8140,
      "Ġlinear": 8141,
      "Ġposs": 8142,
      "whats": 8143,
      "Ġskills": 8144,
      "coordin": 8145,
      "Ġoffers": 8146,
      "Ġmetal": 8147,
      "Ġmetals": 8148,
      "Ġcontainers": 8149,
      "ĠWhy": 8150,
      "Ġrelig": 8151,
      "entials": 8152,
      "General": 8153,
      "Ġnothing": 8154,
      "ALU": 8155,
      "Ġprime": 8156,
      "Ġdistribution": 8157,
      "PUT": 8158,
      "2022": 8159,
      "uffle": 8160,
      "Ġpopular": 8161,
      "Ġflush": 8162,
      "ĠAlzheimer": 8163,
      "EText": 8164,
      "Ġfilters": 8165,
      "remind": 8166,
      "Ġpolymer": 8167,
      "rench": 8168,
      "Ġviewer": 8169,
      "Sequential": 8170,
      "INS": 8171,
      "ĠTranslating": 8172,
      "Ġexperiment": 8173,
      "Notes": 8174,
      "Result": 8175,
      "={'": 8176,
      "rupt": 8177,
      "ĠWebD": 8178,
      "Ġsubjects": 8179,
      "Ġà¤¸à¤¬à¤¸": 8180,
      "Parser": 8181,
      "Ġspacing": 8182,
      "ĠspaCy": 8183,
      "Ġauthorized": 8184,
      "Transaction": 8185,
      "Transactions": 8186,
      "Translate": 8187,
      "Ġphysics": 8188,
      "Ġchatbots": 8189,
      "Art": 8190,
      "Ġhimself": 8191,
      "Ġguard": 8192,
      "powercfg": 8193,
      "Ġresearchers": 8194,
      "Ġapplying": 8195,
      "Ġtruth": 8196,
      "ĠInstall": 8197,
      "Ġremoves": 8198,
      "Ġfocused": 8199,
      "ankAccount": 8200,
      "dependency": 8201,
      "Locate": 8202,
      "REG": 8203,
      "Ġbroker": 8204,
      "ĠParse": 8205,
      "Ġsounds": 8206,
      "plicated": 8207,
      "404": 8208,
      "Ġbackups": 8209,
      "ActionGroup": 8210,
      "Ġstreaming": 8211,
      "ĠRecognition": 8212,
      "Ġparticularly": 8213,
      "Ġcoordinate": 8214,
      "grade": 8215,
      "Ġimprove": 8216,
      "going": 8217,
      "steps": 8218,
      "++;": 8219,
      "ĠGeopandas": 8220,
      "Ġrecognize": 8221,
      "Ġpurpose": 8222,
      "Ġmotor": 8223,
      "Ġmotion": 8224,
      "Second": 8225,
      "Ġcaused": 8226,
      "migrations": 8227,
      "ĠURIs": 8228,
      "weekday": 8229,
      "HTTPRequestHandler": 8230,
      "snippet": 8231,
      "Ġeasily": 8232,
      "Ġauthenticated": 8233,
      "Ġplaceholder": 8234,
      "ĠProcessing": 8235,
      "Something": 8236,
      "ĠTimeout": 8237,
      "ĠDepartment": 8238,
      "Ġdeployment": 8239,
      "Callback": 8240,
      "Ġdeclaration": 8241,
      "ĠLocating": 8242,
      "Ġadjustment": 8243,
      "corrected": 8244,
      "Ġscientists": 8245,
      "Ġvulnerability": 8246,
      "ĠLanguage": 8247,
      "MAX": 8248,
      "Ġreminders": 8249,
      "ĠSimpleITK": 8250,
      "ĠIsolationForest": 8251,
      "ĠDiagnostic": 8252,
      "ĠMarketing": 8253,
      "Ġemployees": 8254,
      "Ġinternational": 8255,
      "Ġpsycopg": 8256,
      "Ġachieve": 8257,
      "Ġfuel": 8258,
      "Ġmechanism": 8259,
      "Feature": 8260,
      "Software": 8261,
      "Ġcircle": 8262,
      "ĠTechSoup": 8263,
      "ĠEnglish": 8264,
      "Ġpollut": 8265,
      "Override": 8266,
      "ZipFile": 8267,
      "Ġlikely": 8268,
      "Ġtraceback": 8269,
      "ĠPlaceholder": 8270,
      "efficient": 8271,
      "Ġatmospheric": 8272,
      "flux": 8273,
      "especially": 8274,
      "EditorInsert": 8275,
      "iseconds": 8276,
      "ĠPresident": 8277,
      "ĠspqrMetric": 8278,
      "Ġgeocoder": 8279,
      "ITHOUT": 8280,
      "Ġdignities": 8281,
      "ĠIncluded": 8282,
      "Ġsimply": 8283,
      "releases": 8284,
      "PACKAGE": 8285,
      "WORD": 8286,
      "decorator": 8287,
      "ĠWashington": 8288,
      "ĠEnhancing": 8289,
      "ActionGroupEditorInsert": 8290,
      "#[": 8291,
      "%...": 8292,
      ".\");": 8293,
      "/;": 8294,
      "96": 8295,
      ":\",": 8296,
      ">/": 8297,
      "Age": 8298,
      "Api": 8299,
      "BR": 8300,
      "Bar": 8301,
      "Course": 8302,
      "Dict": 8303,
      "Dataset": 8304,
      "DWORD": 8305,
      "EB": 8306,
      "Each": 8307,
      "Even": 8308,
      "Free": 8309,
      "GB": 8310,
      "HK": 8311,
      "Holder": 8312,
      "JS": 8313,
      "JSON": 8314,
      "LI": 8315,
      "Lab": 8316,
      "Me": 8317,
      "Mode": 8318,
      "Mask": 8319,
      "ND": 8320,
      "Post": 8321,
      "Prefix": 8322,
      "Rest": 8323,
      "SC": 8324,
      "Say": 8325,
      "Speed": 8326,
      "Top": 8327,
      "Torch": 8328,
      "UP": 8329,
      "Virtual": 8330,
      "World": 8331,
      "WAR": 8332,
      "Year": 8333,
      "]))": 8334,
      "aplib": 8335,
      "br": 8336,
      "cm": 8337,
      "cut": 8338,
      "den": 8339,
      "daily": 8340,
      "dynamic": 8341,
      "ef": 8342,
      "equ": 8343,
      "evaluate": 8344,
      "gree": 8345,
      "hn": 8346,
      "how": 8347,
      "hours": 8348,
      "iet": 8349,
      "kp": 8350,
      "lim": 8351,
      "mgr": 8352,
      "nc": 8353,
      "ned": 8354,
      "ners": 8355,
      "named": 8356,
      "och": 8357,
      "oader": 8358,
      "pix": 8359,
      "pite": 8360,
      "sell": 8361,
      "square": 8362,
      "sheet": 8363,
      "spring": 8364,
      "timestamp": 8365,
      "ua": 8366,
      "wl": 8367,
      "writ": 8368,
      "wide": 8369,
      "ying": 8370,
      "Ġespecially": 8371,
      "initial": 8372,
      "inner": 8373,
      "à¤°à¤ªà¤Ł": 8374,
      "à¤¿)": 8375,
      "eners": 8376,
      "Ġsender": 8377,
      "Ġsaving": 8378,
      "Ġsales": 8379,
      "Ġscheduler": 8380,
      "Ġcd": 8381,
      "Ġcut": 8382,
      "Ġcook": 8383,
      "Ġclock": 8384,
      "Ġcircuit": 8385,
      "Ġfoss": 8386,
      "Ġfaster": 8387,
      "Ġflex": 8388,
      "Ġtm": 8389,
      "Ġtun": 8390,
      "Ġtick": 8391,
      "Ġpx": 8392,
      "Ġpin": 8393,
      "Ġpan": 8394,
      "debug": 8395,
      "imize": 8396,
      "anded": 8397,
      "alysis": 8398,
      "alpha": 8399,
      "aloader": 8400,
      "isode": 8401,
      "arrow": 8402,
      "à¤®à¤¨": 8403,
      "Ġodd": 8404,
      "ctl": 8405,
      "Ġinner": 8406,
      "Ġmis": 8407,
      "Ġmar": 8408,
      "Ġmatter": 8409,
      "edIn": 8410,
      "Ġwindows": 8411,
      "Ġwidth": 8412,
      "Ġwrong": 8413,
      "Ġtoge": 8414,
      "ental": 8415,
      "ura": 8416,
      "à¤Ĺà¤ķà¤°": 8417,
      "Ġdb": 8418,
      "Ġdri": 8419,
      "omec": 8420,
      "Ġbed": 8421,
      "Ġbul": 8422,
      "Ġborn": 8423,
      "à¤µà¤§": 8424,
      "Ġlat": 8425,
      "Ġlim": 8426,
      "unordered": 8427,
      "cha": 8428,
      "chrome": 8429,
      "store": 8430,
      "à¤ļà¤ķ": 8431,
      "Ġnight": 8432,
      "Ġnorthern": 8433,
      "ĠPrint": 8434,
      "ĠPark": 8435,
      "ĠPaint": 8436,
      "ĠPerson": 8437,
      "Ġhero": 8438,
      "Ġhidden": 8439,
      "essions": 8440,
      "Ġ').": 8441,
      "ĠAust": 8442,
      "ĠTags": 8443,
      "rape": 8444,
      "()))": 8445,
      "olid": 8446,
      "olver": 8447,
      "ota": 8448,
      "Ġà¤®à¤ķà¤¡": 8449,
      "Ġgpu": 8450,
      "ecause": 8451,
      "umul": 8452,
      "ĠClear": 8453,
      "ĠCapt": 8454,
      "ĠCategory": 8455,
      "ĠCapture": 8456,
      "ĠCleanup": 8457,
      "rial": 8458,
      "seq": 8459,
      "integ": 8460,
      "ctionaries": 8461,
      "ĠSn": 8462,
      "ĠSelf": 8463,
      "ĠSoci": 8464,
      "ĠSIG": 8465,
      "Ġstores": 8466,
      "ĠDirect": 8467,
      "Ġ`_": 8468,
      "abit": 8469,
      "ptoms": 8470,
      "Ġvol": 8471,
      "Ġvomiting": 8472,
      "Ġà¤ħà¤²à¤Ĺ": 8473,
      "ander": 8474,
      "Ġeq": 8475,
      "plish": 8476,
      "ĠMer": 8477,
      "ĠMap": 8478,
      "ĠMax": 8479,
      "ĠMarch": 8480,
      "ĠMaps": 8481,
      "ĠFA": 8482,
      "ĠFurther": 8483,
      "ĠFinger": 8484,
      "ĠFrench": 8485,
      "Ġcome": 8486,
      "ĠEX": 8487,
      "pairs": 8488,
      "à¥ĩ.?": 8489,
      "Ġexplore": 8490,
      "Ġexactly": 8491,
      "ĠBash": 8492,
      "Ġ23": 8493,
      "Ġ25": 8494,
      "Ġ255": 8495,
      "indices": 8496,
      "Ġalloc": 8497,
      "Ġkids": 8498,
      "osh": 8499,
      "à¤Ĩà¤µà¤°à¤£": 8500,
      "ipable": 8501,
      "Ġspent": 8502,
      "Ġspeaker": 8503,
      "Ġresize": 8504,
      "ĠWar": 8505,
      "ĠWill": 8506,
      "Ġà¤Ĺà¤¨": 8507,
      "anger": 8508,
      "Ġmeeting": 8509,
      "Ġappend": 8510,
      "Ġorg": 8511,
      "Ġleaks": 8512,
      "Ġà¤¤à¤¯à¤¶": 8513,
      "à¤ĩà¤¨à¤ª": 8514,
      "Ġenviron": 8515,
      "Ġmapping": 8516,
      "Incre": 8517,
      "texture": 8518,
      "eps": 8519,
      "à¤īà¤£": 8520,
      "Ġscipy": 8521,
      "libgn": 8522,
      "Ġdesired": 8523,
      "printer": 8524,
      "ĠInc": 8525,
      "owner": 8526,
      "loading": 8527,
      "ĠVALU": 8528,
      "Ġplans": 8529,
      "Ġplants": 8530,
      "ffee": 8531,
      "oost": 8532,
      "ostat": 8533,
      "Ġunpack": 8534,
      "apply": 8535,
      "ĠExecute": 8536,
      "='+": 8537,
      "Ġtrailing": 8538,
      "encer": 8539,
      "Ġseason": 8540,
      "Ġsegmented": 8541,
      "sha": 8542,
      "shell": 8543,
      "ignore": 8544,
      "derly": 8545,
      "Ġelderly": 8546,
      "Analyzer": 8547,
      "udes": 8548,
      "Engine": 8549,
      "obs": 8550,
      "Ġheel": 8551,
      "ĠAnchor": 8552,
      "EATE": 8553,
      "Ġhands": 8554,
      "ĠChrist": 8555,
      "lowing": 8556,
      "ĠKing": 8557,
      "ĠKeras": 8558,
      "raining": 8559,
      "Ġextra": 8560,
      "Ġ56": 8561,
      "Ġ500": 8562,
      "à¤¡à¤°à¤²": 8563,
      "Executor": 8564,
      "Ġ/>": 8565,
      "Ġdictionaries": 8566,
      "Ġinterpre": 8567,
      "Ġinternet": 8568,
      "lert": 8569,
      "Ġ44": 8570,
      "adding": 8571,
      "Ġabs": 8572,
      "Ġactually": 8573,
      "Ġworked": 8574,
      "SetMasterVolumeLevelScalar": 8575,
      "ĠState": 8576,
      "Regression": 8577,
      "ĠRequest": 8578,
      "Ġrail": 8579,
      "Ġrafter": 8580,
      "Ġcalculating": 8581,
      "Ġcalculations": 8582,
      "Ġimag": 8583,
      "Ġimaplib": 8584,
      "Ġdeveloping": 8585,
      "Ġassass": 8586,
      "Stream": 8587,
      "Ġeffort": 8588,
      "Ġinstances": 8589,
      "Ġagre": 8590,
      "Ġplaying": 8591,
      "john": 8592,
      "ĠEngine": 8593,
      "ListItem": 8594,
      "Ġhowever": 8595,
      "rypting": 8596,
      "Cloud": 8597,
      "Scrape": 8598,
      "Ġserverless": 8599,
      "Ġsuppl": 8600,
      "Ġconstraints": 8601,
      "Ġcontrolling": 8602,
      "Ġbecomes": 8603,
      "Ġinitialized": 8604,
      "Ġedges": 8605,
      "Ġfindings": 8606,
      "Ġà¤ªà¤¹à¤ļ": 8607,
      "STR": 8608,
      "ngScanner": 8609,
      "Ġpackets": 8610,
      "security": 8611,
      "Ġoptimizing": 8612,
      "Ġrepresents": 8613,
      "remote": 8614,
      "Ġexpressed": 8615,
      "ornhub": 8616,
      "ĠSerial": 8617,
      "means": 8618,
      "Ġlongest": 8619,
      "ĠRetrieve": 8620,
      "Objects": 8621,
      "feed": 8622,
      "features": 8623,
      "tty": 8624,
      "Ġavg": 8625,
      "Ġpowerful": 8626,
      "statement": 8627,
      "subscribe": 8628,
      "Ġfreigh": 8629,
      "OME": 8630,
      "URI": 8631,
      "Ġconsist": 8632,
      "Ġrows": 8633,
      "Ġincreased": 8634,
      "Ġincreasing": 8635,
      "Ġproduced": 8636,
      "installing": 8637,
      "ruction": 8638,
      "Ġhumans": 8639,
      "Ġentire": 8640,
      "Ġmacro": 8641,
      "AME": 8642,
      "metrics": 8643,
      "Ġdocuments": 8644,
      "Ġcopyright": 8645,
      "Ġspacy": 8646,
      "ĠQuant": 8647,
      "Author": 8648,
      "Ġguess": 8649,
      "Ġretrieval": 8650,
      "Items": 8651,
      "Ġthinking": 8652,
      "Ġinvolved": 8653,
      "parts": 8654,
      "ĠInstagram": 8655,
      "Ġfeedback": 8656,
      "Ġstored": 8657,
      "Ġolder": 8658,
      "ATION": 8659,
      "diskpart": 8660,
      "ĠCorrect": 8661,
      "Ġ\"${": 8662,
      "Ġtoggle": 8663,
      "Ġacquainted": 8664,
      "Ġcentral": 8665,
      "à¤ĳà¤¡": 8666,
      "CREATE": 8667,
      "refresh": 8668,
      "Ġforecast": 8669,
      "Ġevaluate": 8670,
      "randint": 8671,
      "Ġutility": 8672,
      "Ġsatisf": 8673,
      "Ġlocking": 8674,
      "Ġrendering": 8675,
      "ĠCarol": 8676,
      "Ġpercentage": 8677,
      "Ġestim": 8678,
      "Ġcontinuously": 8679,
      "Ġasked": 8680,
      "Linear": 8681,
      "Ġreviews": 8682,
      "ĠScrapy": 8683,
      "ITY": 8684,
      "Intensity": 8685,
      "Ġplatforms": 8686,
      "Ġefficiently": 8687,
      "Supp": 8688,
      "Success": 8689,
      "Ġopportun": 8690,
      "polarity": 8691,
      "Ġmaterials": 8692,
      "Ġimmediate": 8693,
      "UsageTracker": 8694,
      "sdk": 8695,
      "Ġdiseases": 8696,
      "Ġdivided": 8697,
      "Ġantivirus": 8698,
      "Ġbursitis": 8699,
      "Ġradius": 8700,
      "Ġreminder": 8701,
      "Ġignore": 8702,
      "Ġcultural": 8703,
      "tweet": 8704,
      "ĠINTO": 8705,
      "Ġcompletion": 8706,
      "Ġcompletely": 8707,
      "mapping": 8708,
      "iciency": 8709,
      "ĠBlender": 8710,
      "specified": 8711,
      "Ġfloor": 8712,
      "Ġsafely": 8713,
      "Ġburning": 8714,
      "Ġelev": 8715,
      "Ġoccurrences": 8716,
      "Installer": 8717,
      "Options": 8718,
      "Ġfederal": 8719,
      "ĠTripp": 8720,
      "Ġextremely": 8721,
      "Ġencountered": 8722,
      "Ġoctane": 8723,
      "Ġancient": 8724,
      "Ġstimulus": 8725,
      "Destination": 8726,
      "ĠSentimentIntensity": 8727,
      "Ġvaccine": 8728,
      "Ġarchitecture": 8729,
      "Report": 8730,
      "Vectorizer": 8731,
      "suffix": 8732,
      "Ġastronom": 8733,
      "ĠApril": 8734,
      "ĠSOHO": 8735,
      "Microphone": 8736,
      "Provider": 8737,
      "rythngScanner": 8738,
      "Ġmurder": 8739,
      "Ġaccomplish": 8740,
      "whatsapp": 8741,
      "INSERT": 8742,
      "ĠWebDriver": 8743,
      "Ġfossil": 8744,
      "Ġtogether": 8745,
      "omecanvas": 8746,
      "ipableView": 8747,
      "libgnomecanvas": 8748,
      "ĠVALUES": 8749,
      "ĠAnchorType": 8750,
      "ĠSentimentIntensityAnalyzer": 8751,
      "\"))": 8752,
      "'ll": 8753,
      ")['": 8754,
      ",))": 8755,
      "02": 8756,
      "36": 8757,
      "AF": 8758,
      "After": 8759,
      "BG": 8760,
      "BJ": 8761,
      "Core": 8762,
      "Column": 8763,
      "Dynamic": 8764,
      "Effect": 8765,
      "GV": 8766,
      "GPU": 8767,
      "GRA": 8768,
      "Http": 8769,
      "LC": 8770,
      "La": 8771,
      "Lang": 8772,
      "Leg": 8773,
      "Move": 8774,
      "Position": 8775,
      "Random": 8776,
      "SA": 8777,
      "Size": 8778,
      "Syn": 8779,
      "Surface": 8780,
      "Ti": 8781,
      "VBox": 8782,
      "WT": 8783,
      "\\'": 8784,
      "_%": 8785,
      "_{": 8786,
      "burn": 8787,
      "band": 8788,
      "bols": 8789,
      "can": 8790,
      "cial": 8791,
      "cmp": 8792,
      "cross": 8793,
      "ceneo": 8794,
      "craft": 8795,
      "dist": 8796,
      "fresh": 8797,
      "ga": 8798,
      "gle": 8799,
      "gaussian": 8800,
      "hell": 8801,
      "hook": 8802,
      "iot": 8803,
      "jac": 8804,
      "lp": 8805,
      "lr": 8806,
      "mg": 8807,
      "more": 8808,
      "mix": 8809,
      "monitoring": 8810,
      "metic": 8811,
      "nes": 8812,
      "px": 8813,
      "ped": 8814,
      "pass": 8815,
      "pandas": 8816,
      "powers": 8817,
      "rf": 8818,
      "sl": 8819,
      "trun": 8820,
      "ukaj": 8821,
      "vd": 8822,
      "vement": 8823,
      "yal": 8824,
      "zz": 8825,
      "zero": 8826,
      "||": 8827,
      "Ġ]": 8828,
      "Ġic": 8829,
      "Ġ00": 8830,
      "inity": 8831,
      "thr": 8832,
      "thmetic": 8833,
      "à¤°à¤ªà¤¤": 8834,
      "à¥ĩà¥¤": 8835,
      "Ġaware": 8836,
      "Ġaffect": 8837,
      "ora": 8838,
      "enn": 8839,
      "ench": 8840,
      "enabled": 8841,
      "Ġsim": 8842,
      "Ġsust": 8843,
      "Ġsock": 8844,
      "Ġsud": 8845,
      "Ġsong": 8846,
      "Ġsites": 8847,
      "Ġsqrt": 8848,
      "Ġsampl": 8849,
      "real": 8850,
      "reboot": 8851,
      "required": 8852,
      "à¥ĭ%": 8853,
      "Ġfi": 8854,
      "Ġfast": 8855,
      "Ġfixing": 8856,
      "Ġframes": 8857,
      "à¥Ģ:": 8858,
      "Ġtrig": 8859,
      "Ġtags": 8860,
      "Ġtuples": 8861,
      "Ġpi": 8862,
      "Ġpet": 8863,
      "Ġpun": 8864,
      "Ġpiv": 8865,
      "Ġpause": 8866,
      "Ġpalind": 8867,
      "delta": 8868,
      "imm": 8869,
      "imed": 8870,
      "immed": 8871,
      "imately": 8872,
      "anish": 8873,
      "alchemy": 8874,
      "arily": 8875,
      "Ġà¤¸à¤ļ": 8876,
      "ctypes": 8877,
      "Ġmic": 8878,
      "Ġmist": 8879,
      "Ġmural": 8880,
      "Ġmouth": 8881,
      "Ġwid": 8882,
      "Ġwest": 8883,
      "Ġwood": 8884,
      "urch": 8885,
      "Ġdlib": 8886,
      "Ġdash": 8887,
      "à¤¡à¤¤": 8888,
      "Ġforce": 8889,
      "Ġforest": 8890,
      "Ġbrack": 8891,
      "à¤µà¤ľ": 8892,
      "Ġlost": 8893,
      "Ġreve": 8894,
      "Ġrepository": 8895,
      "ama": 8896,
      "under": 8897,
      "imports": 8898,
      "stro": 8899,
      "à¥Ī!": 8900,
      "à¥Ī)": 8901,
      "à¥Ī..": 8902,
      "Ġnu": 8903,
      "Ġnut": 8904,
      "Ġ(!": 8905,
      "Ġ(`": 8906,
      "Ġhit": 8907,
      "Ġhyp": 8908,
      "Ġheld": 8909,
      "Ġheap": 8910,
      "Ġhomes": 8911,
      "Ġholes": 8912,
      "Ġhistorical": 8913,
      "Ġ'',": 8914,
      "Ġ'</": 8915,
      "Ġ'''": 8916,
      "Ġà¤¨à¤Ī": 8917,
      "iffer": 8918,
      "ĠAction": 8919,
      "ĠASD": 8920,
      "ĠTesseract": 8921,
      "')}')": 8922,
      "raise": 8923,
      "('\\": 8924,
      "oliv": 8925,
      "ots": 8926,
      "ceeded": 8927,
      "uling": 8928,
      "Ġglob": 8929,
      "Ġgreen": 8930,
      "Ġgesture": 8931,
      "ecast": 8932,
      "ades": 8933,
      "ados": 8934,
      "ĠCO": 8935,
      "ĠColumns": 8936,
      "rithmetic": 8937,
      "seek": 8938,
      "ĠIF": 8939,
      "ritual": 8940,
      "ĠSort": 8941,
      "ĠSteam": 8942,
      "Ġdeli": 8943,
      "Ġà¤¬à¤¹": 8944,
      "Ġstars": 8945,
      "à¤«à¤¸": 8946,
      "verter": 8947,
      "verify": 8948,
      "ĠDate": 8949,
      "losing": 8950,
      "losed": 8951,
      "ops": 8952,
      "Ġproc": 8953,
      "ptical": 8954,
      "Ġvideos": 8955,
      "extend": 8956,
      "Ġconvention": 8957,
      "eace": 8958,
      "iris": 8959,
      "Ġeval": 8960,
      "izon": 8961,
      "izable": 8962,
      "forward": 8963,
      "forEach": 8964,
      "ĠMill": 8965,
      "ĠMedia": 8966,
      "ĠMorgan": 8967,
      "Ġ\")": 8968,
      "ĠFour": 8969,
      "ĠFOR": 8970,
      "ĠFeder": 8971,
      "ĠFIT": 8972,
      "ĠFirefox": 8973,
      "Ġimports": 8974,
      "à¤Īà¤Ł": 8975,
      "ĠRP": 8976,
      "Ġcomplicated": 8977,
      "ĠEd": 8978,
      "ĠEPO": 8979,
      "computer": 8980,
      "ĠBiodiversity": 8981,
      "ords": 8982,
      "Ġaltered": 8983,
      "osystem": 8984,
      "dictionary": 8985,
      "articles": 8986,
      "à¤Ĩà¤¨": 8987,
      "ĠLondon": 8988,
      "Ġà¤Ĩà¤µ": 8989,
      "Ġà¤Ĩà¤ªà¤°": 8990,
      "ĠNext": 8991,
      "ĠNote": 8992,
      "ĠGu": 8993,
      "ĠGPS": 8994,
      "ĠGensim": 8995,
      "Ġspect": 8996,
      "Ġspell": 8997,
      "Ġresized": 8998,
      "ĠWild": 8999,
      "ĠWARRA": 9000,
      "ided": 9001,
      "getwindow": 9002,
      "console": 9003,
      "Ġapps": 9004,
      "Ġleave": 9005,
      "Ġà¤¤à¤¤": 9006,
      "Ġclus": 9007,
      "à¤łà¤¹à¤°": 9008,
      "à¤īà¤²": 9009,
      "à¤īà¤ļ": 9010,
      "Ġscale": 9011,
      "Ġpoem": 9012,
      "ĠIndex": 9013,
      "ĠInvalid": 9014,
      "ĠIniti": 9015,
      "Ġshut": 9016,
      "Ġship": 9017,
      "Ġsharing": 9018,
      "Ġshapes": 9019,
      "ĠVirtual": 9020,
      "Ġà¤īà¤¸": 9021,
      "://{": 9022,
      "Ġtimedelta": 9023,
      "avid": 9024,
      "Ġpydub": 9025,
      "Ġpygetwindow": 9026,
      "arden": 9027,
      "Ġarms": 9028,
      "acter": 9029,
      "ientation": 9030,
      "Ġund": 9031,
      "Ġclassroom": 9032,
      "ĠExplorer": 9033,
      "Ġtravers": 9034,
      "encrypt": 9035,
      "ualization": 9036,
      "Ġemerg": 9037,
      "Ġà¤ļà¤¯à¤¨à¤ķ": 9038,
      "Const": 9039,
      "Ġautomatically": 9040,
      "Ġprefer": 9041,
      "Ġpretty": 9042,
      "Ġserving": 9043,
      "obe": 9044,
      "Ġintake": 9045,
      "Ġintended": 9046,
      "ĠAnt": 9047,
      "fernet": 9048,
      "ĠKnow": 9049,
      "grind": 9050,
      "Ġrecent": 9051,
      "Ġgets": 9052,
      "Ġdoctor": 9053,
      "Ġtransactions": 9054,
      "ĠQM": 9055,
      "Ġresulting": 9056,
      "Ġformula": 9057,
      "ughter": 9058,
      "inputs": 9059,
      "prev": 9060,
      "rived": 9061,
      "ĠStudents": 9062,
      "argo": 9063,
      "achine": 9064,
      "ĠReader": 9065,
      "duplicates": 9066,
      "icks": 9067,
      "Ġthroughout": 9068,
      "recv": 9069,
      "Ġdevelopers": 9070,
      "Style": 9071,
      "Ġefforts": 9072,
      "Ġpartition": 9073,
      "Ġagencies": 9074,
      "ĠOpenNM": 9075,
      "Ġ197": 9076,
      "FileClip": 9077,
      "OSE": 9078,
      "joke": 9079,
      "Ġsomeone": 9080,
      "Listeners": 9081,
      "template": 9082,
      "validation": 9083,
      "ĠProduct": 9084,
      "Scale": 9085,
      "minute": 9086,
      "à¤Ĩà¤°à¤ıà¤²": 9087,
      "Ġdepos": 9088,
      "transaction": 9089,
      "Ġamend": 9090,
      "ĠPyTorch": 9091,
      "Ġvalidating": 9092,
      "Ġcoefficient": 9093,
      "Ġcoffee": 9094,
      "Ġformats": 9095,
      "Ġoverall": 9096,
      "locations": 9097,
      "Ġoffspring": 9098,
      "Ġdescript": 9099,
      "ĠScient": 9100,
      "Ġmultiprocessing": 9101,
      "iece": 9102,
      "à¤ªà¤Łà¤²": 9103,
      "maps": 9104,
      "Ġindicate": 9105,
      "poses": 9106,
      "Ġblocks": 9107,
      "Ġà¤ĩà¤¸à¤²": 9108,
      "Ġpopulate": 9109,
      "ĠComm": 9110,
      "Ġflag": 9111,
      "Ġreports": 9112,
      "Ġemptying": 9113,
      "ernary": 9114,
      "Ġpacket": 9115,
      "ĠAllegro": 9116,
      "ĠArts": 9117,
      "Ġsymbols": 9118,
      "Ġgeopandas": 9119,
      "Ġattract": 9120,
      "ĠMySQL": 9121,
      "ographical": 9122,
      "Ġpolicies": 9123,
      "Ġmoving": 9124,
      "Ġmovies": 9125,
      "ossible": 9126,
      "ermine": 9127,
      "Ġsqlalchemy": 9128,
      "Ġhelps": 9129,
      "Ġgenomic": 9130,
      "flush": 9131,
      "Ġcompany": 9132,
      "Ġdefaultdict": 9133,
      "SearchCV": 9134,
      "INE": 9135,
      "[\"\\']": 9136,
      "Getter": 9137,
      "ĠZone": 9138,
      "Ġdram": 9139,
      "Ġdrug": 9140,
      "statements": 9141,
      "smHandler": 9142,
      "Ġnamedtuple": 9143,
      "Ġgradients": 9144,
      "Ġconsists": 9145,
      "Username": 9146,
      "Ġdemonstrate": 9147,
      "Ġspacecraft": 9148,
      "Ġtabs": 9149,
      "Ġenumeration": 9150,
      "ridge": 9151,
      "Ġfetching": 9152,
      "Ġorganization": 9153,
      "Ġsolvent": 9154,
      "Ġdomains": 9155,
      "Ġrepresentation": 9156,
      "ĠAddress": 9157,
      "Ġweekly": 9158,
      "ĠQuTi": 9159,
      "Ġinfras": 9160,
      "formatted": 9161,
      "Ġissue": 9162,
      "Ġrobotics": 9163,
      "safe": 9164,
      "ugglers": 9165,
      "ĠIntern": 9166,
      "Ġfeedparser": 9167,
      "Ġairplane": 9168,
      "Ġterrain": 9169,
      "Ġexistence": 9170,
      "buy": 9171,
      "Ġà¤ĳà¤«": 9172,
      "Ġà¤ĳà¤ªà¤°": 9173,
      "à¤Ĺà¤¤à¤¤": 9174,
      "Ġbrought": 9175,
      "trader": 9176,
      "Ġshowed": 9177,
      "Ġsounddevice": 9178,
      "Ġcomprehensive": 9179,
      "Ġastro": 9180,
      "Ġtrial": 9181,
      "Ġgrowth": 9182,
      "ĠOnce": 9183,
      "TableView": 9184,
      "ĠLogging": 9185,
      "grad": 9186,
      "ĠPhys": 9187,
      "Ġclosing": 9188,
      "Ġpromote": 9189,
      "Ġmuting": 9190,
      "Ġrecognizer": 9191,
      "dicUser": 9192,
      "ĠPoland": 9193,
      "ĠPolish": 9194,
      "à¤Ńà¤°à¤¨": 9195,
      "Automatically": 9196,
      "Tasks": 9197,
      "iddle": 9198,
      "ydra": 9199,
      "ĠNLTK": 9200,
      "Ġstrategy": 9201,
      "EventLog": 9202,
      "Ġangles": 9203,
      "Ġbird": 9204,
      "Ġeasy": 9205,
      "ĠNetflix": 9206,
      "Ġcontinues": 9207,
      "Ġoppos": 9208,
      "Ġgasoline": 9209,
      "ploration": 9210,
      "ĠGPUtil": 9211,
      "Ġcallbacks": 9212,
      "Files": 9213,
      "Ġaxes": 9214,
      "normalized": 9215,
      "ragment": 9216,
      "Ġtown": 9217,
      "ĠDetect": 9218,
      "Ġimplied": 9219,
      "aksi": 9220,
      "Ġuppercase": 9221,
      "Ġvehicle": 9222,
      "SOCK": 9223,
      "Ġduplicates": 9224,
      "Ġhotkey": 9225,
      "embly": 9226,
      "ĠDesigning": 9227,
      "Ġprofession": 9228,
      "Ġeverything": 9229,
      "Ġcalendar": 9230,
      "Ġdrawing": 9231,
      "Ġreferendum": 9232,
      "expected": 9233,
      "Ġcombination": 9234,
      "Ġinfluence": 9235,
      "Factory": 9236,
      "Ġculture": 9237,
      "chatbot": 9238,
      "ĠAuto": 9239,
      "Interval": 9240,
      "Ġdiscussion": 9241,
      "boundary": 9242,
      "ĠANY": 9243,
      "ĠSwift": 9244,
      "DATE": 9245,
      "dropout": 9246,
      "szukaj": 9247,
      "Ġtouchpad": 9248,
      "ĠCanada": 9249,
      "ĠMIMEText": 9250,
      "Ġprecision": 9251,
      "ĠPrompt": 9252,
      "Ġprobably": 9253,
      "Ġattacks": 9254,
      "Ġdestroyed": 9255,
      "à¤ıà¤ļà¤Ł": 9256,
      "ĠPdfFileReader": 9257,
      "Ġgrass": 9258,
      "ultipart": 9259,
      "ĠSFTTrainer": 9260,
      "ndarray": 9261,
      "Ġillust": 9262,
      "Ġinherits": 9263,
      "Ġcharts": 9264,
      "ĠOrder": 9265,
      "Ġdiagnosing": 9266,
      "banana": 9267,
      "ĠEconom": 9268,
      "ĠLinkedIn": 9269,
      "Signature": 9270,
      "Ġfront": 9271,
      "ĠFacebook": 9272,
      "Ġcombined": 9273,
      "Ġsynchronization": 9274,
      "Ġhyperparameter": 9275,
      "ĠElectricity": 9276,
      "ĠOffshore": 9277,
      "DecodeError": 9278,
      "[::-": 9279,
      "erodynamic": 9280,
      "Ġdirection": 9281,
      "Ġpollutants": 9282,
      "integers": 9283,
      "Ġenvironments": 9284,
      "ĠCarolina": 9285,
      "GRAY": 9286,
      "powershell": 9287,
      "Ġsustain": 9288,
      "Ġpivot": 9289,
[...]
